<unk>	0
<s>	0
</s>	0
▁	-2.98577
,	-3.03341
!	-3.61045
的	-3.82935
。	-3.85613
了	-4.12585
?	-4.17048
啊	-4.3181
我	-4.53307
你	-4.71385
~	-4.97331
是	-5.07175
不	-5.25775
▁哈哈	-5.28228
...	-5.35359
有	-5.587
吧	-5.58821
▁我	-5.58936
好	-5.60651
呢	-5.61399
▁你	-5.6383
人	-5.67951
哈哈	-5.71051
就	-5.73341
啦	-5.74388
去	-5.88118
在	-5.89186
都	-5.9287
大	-5.9427
吗	-5.95028
要	-5.97395
来	-6.06978
呀	-6.08948
一	-6.11273
也	-6.13608
哦	-6.15086
没	-6.16706
小	-6.20937
到	-6.25856
看	-6.26361
上	-6.27388
吃	-6.28353
么	-6.28586
嘛	-6.29265
说	-6.29844
还	-6.30341
会	-6.31812
很	-6.31892
太	-6.32606
他	-6.33384
得	-6.33996
......	-6.34928
和	-6.35612
那	-6.36918
个	-6.37294
点	-6.38313
这	-6.41006
就是	-6.43143
我们	-6.47232
下	-6.47559
多	-6.52286
哈	-6.5303
还是	-6.53314
。。。	-6.5385
过	-6.55496
~~	-6.58302
子	-6.58308
这个	-6.59296
一个	-6.60211
.	-6.62315
做	-6.63441
不是	-6.64691
。。	-6.64837
、	-6.66611
想	-6.71183
你们	-6.71252
可以	-6.71616
老	-6.72565
▁哈哈哈	-6.76448
打	-6.7666
真	-6.79295
发	-6.79442
没有	-6.79575
能	-6.79958
被	-6.80527
又	-6.82179
什么	-6.82753
她	-6.84351
自己	-6.84403
中	-6.8533
用	-6.87319
出	-6.90032
死	-6.91177
阿	-6.93251
着	-6.9349
把	-6.94016
哥	-6.94387
心	-6.95972
现在	-6.96464
对	-6.96935
这么	-7.00202
▁这	-7.04831
哈哈哈	-7.05022
怎么	-7.05151
爱	-7.06446
天	-7.06459
给	-7.06535
姐	-7.06536
▁那	-7.07358
比	-7.07497
无	-7.08636
▁呵呵	-7.0913
再	-7.10578
才	-7.11336
咯	-7.11992
的人	-7.12645
都是	-7.13102
家	-7.13201
呵呵	-7.13261
地	-7.13551
当	-7.1719
后	-7.17684
头	-7.18221
买	-7.19034
更	-7.19642
滴	-7.19809
儿	-7.20028
别	-7.20327
!!!	-7.20327
跟	-7.20809
开	-7.21039
叫	-7.22651
车	-7.2333
▁恩	-7.23375
高	-7.23483
一下	-7.24837
长	-7.26171
▁哎	-7.26456
那个	-7.27796
美	-7.29066
今天	-7.29273
最	-7.29415
可	-7.29446
走	-7.29789
带	-7.30585
玩	-7.30899
里	-7.31268
水	-7.31481
事	-7.31632
▁这个	-7.31749
为	-7.32373
不过	-7.33243
回来	-7.3421
这样	-7.34463
快	-7.35256
还有	-7.35318
那么	-7.36758
▁好	-7.37858
先	-7.37987
拉	-7.38428
回	-7.38519
喝	-7.38766
花	-7.38975
谁	-7.39416
已经	-7.3974
有点	-7.40741
喜欢	-7.40808
三	-7.41259
成	-7.41354
钱	-7.41395
行	-7.41603
生	-7.42235
学	-7.42394
搞	-7.42712
手	-7.42741
▁是啊	-7.44048
你的	-7.44249
▁是	-7.445
▁嘿嘿	-7.448
▁唉	-7.44948
给我	-7.45063
找	-7.45395
哎	-7.45419
不要	-7.45599
的时候	-7.46473
系	-7.46576
他们	-7.47121
路	-7.4743
应该	-7.47892
前	-7.48219
像	-7.48259
出来	-7.49006
真的	-7.49152
话	-7.49192
起	-7.49385
号	-7.49515
女	-7.51106
老师	-7.51817
啥	-7.53623
见	-7.54026
总	-7.54758
不能	-7.55227
日	-7.55847
谢谢	-7.56562
也是	-7.56761
给你	-7.57036
加	-7.57539
听	-7.57733
放	-7.57767
我的	-7.57767
讲	-7.58496
早	-7.59969
新	-7.61264
气	-7.61667
之	-7.62195
等	-7.624
人家	-7.63706
分	-7.6377
一起	-7.63855
只	-7.64124
两	-7.64338
时	-7.64572
但	-7.64673
拍	-7.65247
▁嗯	-7.6567
以后	-7.66107
▁谢谢	-7.66238
看到	-7.67192
亲	-7.67221
面	-7.67706
不错	-7.68889
觉得	-7.69055
年	-7.69063
从	-7.70126
我也	-7.70431
微博	-7.70616
明天	-7.70861
白	-7.71496
红	-7.72205
自	-7.72922
不会	-7.73668
时间	-7.73908
情	-7.74312
~~~	-7.74775
山	-7.75202
开始	-7.75525
▁有	-7.75553
名	-7.76186
▁你们	-7.76594
几	-7.77065
少	-7.77357
同	-7.7748
哇	-7.78122
您	-7.78244
风	-7.78306
感觉	-7.78615
黑	-7.78951
请	-7.79
眼	-7.79256
我是	-7.7975
拿	-7.79818
睡	-7.79825
女人	-7.80138
起来	-7.80312
男人	-7.80368
变	-7.80416
这是	-7.80789
二	-7.8088
撒	-7.80976
死了	-7.80993
只是	-7.81089
海	-7.811
月	-7.81133
问	-7.81452
真是	-7.81713
怕	-7.81935
卖	-7.82065
开心	-7.82412
穿	-7.83564
..	-7.8388
噶	-7.84426
装	-7.84607
让	-7.85793
干	-7.85978
比较	-7.86197
不好	-7.86388
挺	-7.86559
口	-7.8677
知道	-7.86968
▁是的	-7.87551
一样	-7.87871
问题	-7.87923
所以	-7.88341
全	-7.88485
希望	-7.88682
哪	-7.8875
场	-7.88889
理	-7.8893
住	-7.89139
写	-7.89321
但是	-7.89716
哟	-7.89733
▁这是	-7.89856
力	-7.89898
▁不是	-7.89941
五	-7.90276
晚上	-7.90558
2	-7.9061
外	-7.91119
了吧	-7.91995
不知道	-7.92006
它	-7.92065
是不是	-7.92344
朋友	-7.92421
笑	-7.92535
菜	-7.92564
嘿嘿	-7.92804
幸福	-7.93766
弄	-7.94536
热	-7.95138
明	-7.95461
▁我们	-7.95759
算	-7.95771
这种	-7.95816
刚	-7.96363
进	-7.96369
酒	-7.96486
本	-7.96795
光	-7.97338
姐姐	-7.97356
5	-7.97381
正	-7.9743
男	-7.97787
需要	-7.97873
关注	-7.98041
工作	-7.98307
难	-7.98391
支持	-7.98798
连	-7.98813
狗	-7.98889
我就	-7.99018
痛	-7.99447
该	-7.99555
米	-8.00059
性	-8.00737
送	-8.00768
门	-8.00774
看看	-8.01099
哭	-8.01179
准备	-8.01191
国	-8.01425
四	-8.01502
者	-8.01598
与	-8.01689
照	-8.01851
脸	-8.02062
求	-8.02126
下次	-8.02467
▁我也	-8.02521
够	-8.02583
毛	-8.02774
坐	-8.03207
机	-8.03254
身	-8.03334
回家	-8.03419
们	-8.03615
鬼	-8.03656
加油	-8.04217
信	-8.0434
养	-8.04385
换	-8.04496
重	-8.04767
越	-8.04809
肯定	-8.0492
特	-8.05003
饭	-8.05037
过来	-8.05117
张	-8.05183
马	-8.05203
管	-8.05213
一定	-8.05439
法	-8.05477
动	-8.05709
生活	-8.06514
道	-8.06652
▁今天	-8.06704
强	-8.06767
定	-8.06916
假	-8.0707
飞	-8.07124
▁不	-8.07197
▁他	-8.0733
3	-8.07638
让我	-8.07862
错	-8.07991
帅	-8.08365
▁就是	-8.0854
只有	-8.08998
我要	-8.09201
完	-8.09386
包	-8.0947
金	-8.09591
▁小	-8.09599
一点	-8.09743
唉	-8.10097
西	-8.10225
▁现在	-8.10301
好像	-8.10356
字	-8.10437
上班	-8.10576
相	-8.10737
的话	-8.10764
喔	-8.10949
直接	-8.10967
快乐	-8.10983
一直	-8.10985
吖	-8.11029
活	-8.1108
还没	-8.11235
火	-8.11272
???	-8.11861
安	-8.11968
超	-8.11977
猪	-8.11996
好看	-8.12245
肉	-8.12337
体	-8.12825
很多	-8.12873
还要	-8.12877
东西	-8.13112
你是	-8.13173
美女	-8.13619
最近	-8.13655
色	-8.14017
而	-8.14071
主	-8.14162
鱼	-8.15222
咋	-8.15286
中国	-8.15304
呗	-8.15358
乱	-8.15534
边	-8.15541
同学	-8.16201
伤	-8.16364
去了	-8.16432
骂	-8.16829
收	-8.16861
内	-8.17404
知	-8.17475
牛	-8.17602
▁别	-8.17648
于	-8.17807
甘	-8.17897
别人	-8.17968
以	-8.1801
倒	-8.18217
照片	-8.18268
可爱	-8.18281
店	-8.18387
噢	-8.18398
孩子	-8.18596
班	-8.19249
回去	-8.19357
贵	-8.19869
改	-8.19997
▁怎么	-8.20247
掉	-8.20305
受	-8.20306
文	-8.20483
神	-8.20868
手机	-8.21009
公	-8.21077
向	-8.2115
敢	-8.22002
度	-8.22117
▁对	-8.22605
鸡	-8.22665
台	-8.22944
次	-8.23146
冷	-8.23367
而已	-8.23624
我都	-8.23806
其实	-8.24121
天天	-8.24306
你也	-8.24333
鸟	-8.24871
因为	-8.25562
流	-8.25697
王	-8.25925
▁我是	-8.26283
远	-8.26422
▁太	-8.26606
一天	-8.26611
脚	-8.26648
▁你是	-8.27076
都不	-8.27133
▁没	-8.27183
懂	-8.27205
线	-8.27208
票	-8.27375
咱	-8.27464
关	-8.27571
作	-8.27698
累	-8.27877
什么时候	-8.28087
公司	-8.28156
也不	-8.28159
报	-8.29512
可是	-8.29516
▁其实	-8.2957
满	-8.29733
跑	-8.29804
傻	-8.29855
一次	-8.30407
八	-8.3054
样	-8.30623
入	-8.30625
万	-8.30667
工	-8.30918
食	-8.30919
活动	-8.31112
电话	-8.31185
感	-8.31279
忙	-8.31585
乐	-8.31649
▁没有	-8.31757
▁那你	-8.3211
翻	-8.32112
差	-8.32144
货	-8.32257
整	-8.32365
教	-8.32572
油	-8.32584
肥	-8.32593
有人	-8.32647
4	-8.32795
十	-8.32847
吃饭	-8.33285
记得	-8.33534
期待	-8.33796
华	-8.33838
好好	-8.33924
清	-8.34112
▁真	-8.34131
出去	-8.34344
片	-8.34618
意	-8.34658
▁哇	-8.34913
妈妈	-8.3495
城	-8.35132
都没	-8.35133
妈	-8.35265
书	-8.35447
费	-8.35559
晚	-8.35851
球	-8.35855
咩	-8.35902
左	-8.35914
皮	-8.36106
粉	-8.36197
1	-8.36238
可惜	-8.36967
8	-8.37015
7	-8.3702
偶	-8.37061
可能	-8.37333
提	-8.37376
苦	-8.37661
留	-8.37688
类	-8.38014
妹	-8.38355
接	-8.38408
努力	-8.38491
卡	-8.38616
抢	-8.38953
额	-8.3902
估计	-8.39244
瘦	-8.39257
俺	-8.39582
空	-8.39641
期	-8.39658
哪里	-8.39679
胖	-8.39727
条	-8.39978
夜	-8.4016
继续	-8.40188
命	-8.40195
▁嘻嘻	-8.40243
这样的	-8.40364
睡觉	-8.40504
交	-8.40537
电	-8.40562
说的	-8.40871
香	-8.40922
只能	-8.40929
唱	-8.40998
好吃	-8.41189
▁那是	-8.41195
深	-8.41204
不用	-8.41326
此	-8.41756
不了	-8.42089
6	-8.42502
南	-8.42507
东	-8.4258
地方	-8.42783
黄	-8.43372
是个	-8.4345
无聊	-8.43611
的是	-8.43998
周	-8.44092
些	-8.44266
歌	-8.44328
考	-8.447
漂亮	-8.44852
减肥	-8.44935
到了	-8.44957
梦	-8.45539
血	-8.45675
爽	-8.45751
岁	-8.45773
“	-8.45824
数	-8.45847
方	-8.45909
蛮	-8.46092
而且	-8.46227
学习	-8.46274
了吗	-8.46457
▁为什么	-8.47384
味	-8.48278
何	-8.48319
如果	-8.48432
好多	-8.48488
游	-8.48667
发现	-8.48732
”	-8.48765
反	-8.48766
▁在	-8.49194
这些	-8.49204
之前	-8.49218
昨天	-8.4946
越来越	-8.49634
心情	-8.49873
洗	-8.49925
木有	-8.50036
多少	-8.50155
半	-8.50363
选	-8.50624
低	-8.50658
民	-8.50809
为什么	-8.50869
领导	-8.50965
呐	-8.50982
不敢	-8.51019
猫	-8.51309
龙	-8.51381
▁真的	-8.5173
10	-8.51813
如此	-8.51971
恶心	-8.51976
▁额	-8.52109
吃了	-8.52341
怪	-8.52355
一个人	-8.5242
来了	-8.52672
靠	-8.527
通	-8.52751
课	-8.52837
所	-8.52843
克	-8.52907
排	-8.53044
化	-8.53083
表示	-8.53095
种	-8.53139
坏	-8.53204
伤心	-8.53374
唔	-8.53487
丫	-8.5361
合	-8.53663
雨	-8.53752
部	-8.53768
位	-8.53883
可怜	-8.54206
▁因为	-8.54263
特别	-8.54308
必须	-8.54374
办	-8.54448
如何	-8.54537
好了	-8.54682
节	-8.5473
我觉得	-8.5481
如	-8.54859
学校	-8.54877
实	-8.55065
未	-8.55125
吃的	-8.55126
声	-8.55285
让你	-8.55382
看了	-8.55618
已	-8.55619
是什么	-8.557
都有	-8.55737
的事	-8.55914
言	-8.55927
楼	-8.55946
离	-8.55961
不然	-8.56114
干嘛	-8.56167
帮	-8.5653
李	-8.56639
表	-8.56746
语	-8.5682
怎么办	-8.5688
羡慕	-8.56895
约	-8.57046
▁不要	-8.57162
社会	-8.57269
确实	-8.57366
调	-8.57424
过去	-8.5745
不想	-8.57516
然后	-8.57571
落	-8.58002
纠结	-8.58035
混	-8.58055
▁我觉得	-8.58221
认识	-8.58248
伐	-8.58313
结婚	-8.58637
病	-8.58675
结果	-8.58774
▁她	-8.58969
那是	-8.58976
9	-8.59083
不懂	-8.59099
永远	-8.5924
站	-8.59303
木	-8.59491
那些	-8.59623
平	-8.59645
两个	-8.59807
以前	-8.59813
区	-8.59851
逼	-8.59902
还在	-8.60264
生日	-8.60328
配	-8.60701
晒	-8.6086
杀	-8.61031
生日快乐	-8.61173
屎	-8.6121
你就	-8.61245
怎么样	-8.61299
给力	-8.61314
仔	-8.61328
处	-8.61364
哪个	-8.61419
北	-8.61646
绝对	-8.61773
野	-8.61851
你要	-8.62444
宝	-8.6245
房	-8.62474
跟你	-8.62519
恨	-8.6261
上海	-8.62698
烦	-8.62801
不行	-8.63296
说话	-8.63307
把我	-8.63321
我喜欢	-8.63336
非	-8.63358
北京	-8.63541
▁谁	-8.63638
哥哥	-8.63695
星	-8.63705
补	-8.63838
讨厌	-8.64045
画	-8.64134
药	-8.64139
寂寞	-8.64163
▁要	-8.64184
很好	-8.64267
素	-8.645
腿	-8.64511
亲爱的	-8.64573
多了	-8.64676
利	-8.6473
老板	-8.64812
郁闷	-8.65071
终于	-8.65197
人民	-8.65257
百	-8.65475
▁什么	-8.65507
下午	-8.66087
林	-8.6619
是我	-8.66261
非常	-8.66318
破	-8.66341
看来	-8.6641
情况	-8.66562
▁生日快乐	-8.66764
蛋	-8.66821
师	-8.66852
总是	-8.66899
参加	-8.66908
双	-8.67126
我现在	-8.67145
捏	-8.67201
队	-8.67305
▁好吧	-8.67308
单	-8.67313
各种	-8.67383
街	-8.67402
耶	-8.67453
也有	-8.67669
爱你	-8.6775
今晚	-8.67922
谈	-8.68098
第一	-8.68109
饿	-8.68275
品	-8.68469
▁嗯嗯	-8.68556
七	-8.69059
常	-8.69134
▁如果	-8.69211
成功	-8.69217
相信	-8.69431
元	-8.69613
个人	-8.69895
量	-8.70053
网	-8.70117
是谁	-8.70269
果	-8.70341
厉害	-8.70366
没事	-8.70498
茶	-8.70732
休息	-8.70754
在家	-8.7077
居然	-8.70851
乖	-8.70909
爷	-8.71058
难道	-8.7115
抽	-8.71182
好的	-8.71224
帅哥	-8.71303
一般	-8.71313
嘴	-8.7137
把你	-8.71484
古	-8.716
原	-8.71766
嘻嘻	-8.71805
江	-8.71878
型	-8.7203
一定要	-8.72351
理解	-8.72394
记	-8.72568
烧	-8.72626
看着	-8.72831
六	-8.73073
疼	-8.73838
招	-8.73937
闹	-8.73973
切	-8.74179
近	-8.74291
▁亲爱的	-8.74365
演	-8.74448
的地方	-8.74639
▁又	-8.74737
剧	-8.74744
▁所以	-8.748
传	-8.74902
耍	-8.74911
团	-8.74914
有机会	-8.74976
迷	-8.75091
指	-8.7518
咧	-8.75194
赶紧	-8.75346
我在	-8.75459
我会	-8.75464
▁不知道	-8.75529
妹妹	-8.75547
哼	-8.75717
党	-8.75821
往	-8.75934
神马	-8.75941
让人	-8.76027
没人	-8.76138
勒	-8.7614
老婆	-8.76409
的小	-8.7643
的东西	-8.76445
国家	-8.76462
修	-8.76623
萌	-8.76715
▁哈	-8.76766
丑	-8.76972
象	-8.76984
还真	-8.77064
经常	-8.77197
做的	-8.77289
超级	-8.7744
世界	-8.77736
诶	-8.77797
跟我	-8.77859
衣服	-8.77989
▁哎呀	-8.78173
跳	-8.78285
证	-8.78322
▁那就	-8.78393
解	-8.78478
觉	-8.78605
▁看来	-8.78801
贱	-8.78955
份	-8.79024
精	-8.7908
喊	-8.79091
心里	-8.79221
雷	-8.79286
原来	-8.79305
容易	-8.79441
露	-8.79489
物	-8.79612
年轻	-8.79688
围脖	-8.79697
不到	-8.79719
代	-8.79879
版	-8.79967
臭	-8.80144
我家	-8.80189
将	-8.8021
世	-8.80243
周末	-8.8026
好吧	-8.80368
喝酒	-8.80379
几个	-8.80426
领	-8.80448
每天	-8.80716
我想	-8.80827
价	-8.80901
真好	-8.81047
伤不起	-8.81138
那里	-8.81186
最好	-8.81224
还不	-8.81282
当然	-8.81377
名字	-8.81597
要是	-8.8167
反正	-8.81678
广告	-8.81866
介绍	-8.81883
巴	-8.82183
▁看	-8.82344
都要	-8.82345
距	-8.82544
貌似	-8.82939
读	-8.82958
娘	-8.83011
完全	-8.83021
下去	-8.83042
辛苦	-8.83062
▁我要	-8.8308
时候	-8.83209
青	-8.83347
练	-8.83531
急	-8.83531
拍的	-8.83644
感动	-8.83824
咱们	-8.83877
值得	-8.83895
瞎	-8.83949
才是	-8.8418
叫我	-8.8421
欢迎	-8.84225
精神	-8.84439
集	-8.8448
去看	-8.84509
有些	-8.84552
▁还有	-8.84808
痛苦	-8.85267
说我	-8.85581
==	-8.85791
德	-8.85802
取	-8.85942
注意	-8.8601
福	-8.86067
云	-8.8617
商	-8.86192
狠	-8.86238
你还	-8.86242
▁哦	-8.86358
牙	-8.86364
毒	-8.86483
罗	-8.86535
汤	-8.86569
▁明天	-8.8657
雪	-8.86574
差不多	-8.86581
喜	-8.86628
也要	-8.86766
爆	-8.86862
就不	-8.86927
▁可以	-8.87232
帮我	-8.87362
有个	-8.8766
却	-8.87699
制	-8.8777
味道	-8.87931
银	-8.87971
衣	-8.88033
组织	-8.88046
才能	-8.88127
科	-8.88301
看见	-8.88376
或者	-8.88378
头发	-8.89029
下来	-8.89203
▁希望	-8.89251
不怕	-8.89285
意思	-8.89294
影	-8.89305
战	-8.89543
挂	-8.89572
莫	-8.89584
严重	-8.89644
▁恩恩	-8.89671
官	-8.90126
关系	-8.90166
群	-8.90166
▁老	-8.90204
还能	-8.90766
▁可惜	-8.90806
戏	-8.90812
眼睛	-8.9083
专业	-8.90855
泡	-8.90882
认	-8.90921
很有	-8.90923
妞	-8.90959
'	-8.91023
贴	-8.9117
想念	-8.91219
▁人家	-8.91222
局	-8.91293
娃	-8.91299
阳	-8.91338
最后	-8.91363
头像	-8.9139
套	-8.91492
缺	-8.91545
抓	-8.91567
▁亲	-8.91654
准	-8.91666
块	-8.91724
有什么	-8.91843
难过	-8.91843
其	-8.91891
事情	-8.91902
就好	-8.91954
▁您	-8.91978
不够	-8.91984
▁我喜欢	-8.91985
军	-8.92035
紧	-8.9204
件	-8.92164
儿子	-8.92241
自己的	-8.92248
▁你也	-8.92277
▁我也是	-8.92377
直	-8.92472
斯	-8.92582
失	-8.92582
选择	-8.92639
首	-8.92672
千	-8.92696
竟然	-8.92711
结	-8.9295
应该是	-8.92973
吓	-8.93104
过了	-8.93106
糖	-8.93108
晕	-8.93232
忍	-8.93283
里面	-8.93336
一些	-8.93572
睇	-8.93582
我还	-8.93635
吾	-8.93655
院	-8.93686
客	-8.93754
好久	-8.93783
电影	-8.93792
不知	-8.93883
突然	-8.93917
的感觉	-8.93934
怀念	-8.93939
奶	-8.93944
权	-8.93973
试	-8.94272
推荐	-8.94388
九	-8.94413
春	-8.9464
恶	-8.94679
级	-8.94768
间	-8.94978
政府	-8.94979
极	-8.94994
了解	-8.94995
泪	-8.95163
猜	-8.95227
某	-8.95232
员	-8.95353
冰	-8.95493
那天	-8.95588
是你	-8.95638
老公	-8.95732
细	-8.95794
难受	-8.9584
▁我想	-8.95894
我们的	-8.96002
绝	-8.96018
应	-8.96068
宝宝	-8.9613
困	-8.96213
冒	-8.9622
完了	-8.96234
后面	-8.96261
有没有	-8.96385
新闻	-8.96389
效果	-8.96491
偷	-8.96618
不同	-8.967
▁加油	-8.96835
--	-8.97076
陪	-8.97141
烂	-8.97148
日子	-8.97186
淡定	-8.97229
好啊	-8.97272
看你	-8.97337
友	-8.97337
叫你	-8.97373
评论	-8.97383
每	-8.97476
害	-8.97643
刷	-8.97656
各	-8.97698
牌	-8.97799
中午	-8.97902
波	-8.97912
念	-8.97963
到底	-8.98155
那么多	-8.98208
背	-8.98297
为了	-8.98343
激动	-8.98495
微薄	-8.9857
大学	-8.98622
说你	-8.9866
待	-8.98679
盘	-8.98706
兄弟	-8.98721
鄙视	-8.98734
停	-8.9875
惨	-8.98759
士	-8.98792
相当	-8.98985
试试	-8.99279
身体	-8.99282
博	-8.99358
你说	-8.9938
有木有	-8.99383
随便	-8.99454
聪明	-8.99618
粉丝	-8.99632
忘了	-8.99669
达	-8.99692
句	-8.99738
杨	-8.99787
早上	-8.99831
醒	-8.99991
伤不起啊	-9
美国	-9.0004
都没有	-9.00107
土	-9.00126
悲剧	-9.00299
俩	-9.00393
短	-9.00395
找个	-9.00464
节目	-9.00696
查	-9.00722
错了	-9.00778
广州	-9.00917
也没	-9.00939
救	-9.00955
的事情	-9.0097
▁对啊	-9.01044
谢	-9.01061
好不好	-9.01119
学生	-9.01128
杂	-9.01301
经	-9.01303
款	-9.01591
来的	-9.01665
省	-9.01674
我已经	-9.01723
称	-9.0176
豆	-9.01795
找到	-9.01839
怎样	-9.01884
祝福	-9.01888
之后	-9.0197
醉	-9.01971
人生	-9.02046
吹	-9.02072
买了	-9.02129
赞	-9.02185
凉	-9.02302
不在	-9.0232
坚持	-9.02432
你家	-9.02499
专	-9.02608
今年	-9.02667
观	-9.02698
太多	-9.02739
不得	-9.02811
真的很	-9.02818
还好	-9.02947
明显	-9.02948
架	-9.02987
宁	-9.03172
飞机	-9.03234
组	-9.03251
有空	-9.03382
步	-9.03389
熟	-9.03433
要求	-9.03456
纸	-9.03598
是在	-9.03712
的嘛	-9.03731
就知道	-9.03774
收到	-9.03896
奖	-9.03905
实在	-9.03939
市	-9.03955
考虑	-9.04064
既	-9.04068
▁尼玛	-9.04301
在哪里	-9.04534
音	-9.0454
愿	-9.04604
在哪	-9.0466
▁下次	-9.04673
就要	-9.04821
就好了	-9.04849
联系	-9.04996
人的	-9.05033
剪	-9.05078
辣	-9.05122
派	-9.0518
遇到	-9.05267
快点	-9.05373
▁这么	-9.05375
和你	-9.05433
运	-9.05651
日本	-9.05895
悲催	-9.05912
比你	-9.06126
等你	-9.06168
随	-9.06254
胡	-9.06442
底	-9.06521
其他	-9.06525
上课	-9.06596
疯	-9.06661
简单	-9.06755
姑娘	-9.07086
格	-9.07211
▁姐	-9.07281
亮	-9.07345
▁原来	-9.07403
然	-9.07499
天气	-9.07547
追	-9.07573
忘记	-9.07637
电脑	-9.07654
明白	-9.07764
适合	-9.07926
冲	-9.08056
晓得	-9.08082
久	-9.0815
操	-9.08442
甜	-9.08461
顺	-9.08518
不喜欢	-9.08644
▁很	-9.08658
麻	-9.08753
喂	-9.08756
尼	-9.08766
便宜	-9.09071
列	-9.09179
▁求	-9.09257
安全	-9.09277
陈	-9.09295
以为	-9.09332
无奈	-9.09401
复	-9.09401
不来	-9.09449
肚子	-9.09458
河	-9.09511
摆	-9.09546
不信	-9.09641
词	-9.09731
▁是呀	-9.09742
要不	-9.09748
会有	-9.09914
必须的	-9.09997
真心	-9.10041
爱情	-9.10063
研究	-9.10072
▁那我	-9.10099
嫩	-9.10142
那边	-9.10252
骗	-9.10392
还不错	-9.10613
业	-9.10743
思	-9.10756
小心	-9.10788
▁当然	-9.10804
私信	-9.10819
正常	-9.10884
惹	-9.10916
》	-9.11003
不起	-9.11015
现实	-9.11094
马上	-9.11164
等着	-9.11169
只要	-9.11199
女的	-9.1125
锅	-9.11374
加班	-9.114
宝贝	-9.11552
嫁	-9.11716
啥子	-9.11797
走了	-9.11803
旁边	-9.11844
▁请问	-9.11904
到时候	-9.11905
▁请	-9.11983
减	-9.12027
不如	-9.1215
想到	-9.12479
▁我在	-9.12481
尽	-9.12604
爸爸	-9.12607
借	-9.1263
代表	-9.12854
劲	-9.12868
机会	-9.13121
告诉我	-9.13142
慢慢	-9.1319
立	-9.13206
静	-9.13265
▁难道	-9.13284
回来了	-9.13293
的日子	-9.13423
感谢	-9.13441
20	-9.13686
▁最近	-9.13731
女儿	-9.13782
刘	-9.13825
等我	-9.13835
昨晚	-9.13897
他的	-9.13966
比我	-9.14037
刀	-9.14047
灵	-9.14052
这次	-9.14063
可怜的	-9.1407
感情	-9.14271
▁还是	-9.14464
▁刚	-9.14494
要不要	-9.1451
▁你怎么	-9.14599
祝	-9.14658
健康	-9.14682
挑	-9.14843
晚安	-9.15191
也很	-9.15257
潮	-9.15283
具体	-9.15322
不一样	-9.15401
不住	-9.1541
▁你要	-9.15414
变成	-9.15459
我妈	-9.15541
某人	-9.15603
出来的	-9.15625
母	-9.1575
小时候	-9.15927
秀	-9.16006
女生	-9.16066
那样	-9.16298
心疼	-9.16355
景	-9.1637
你懂的	-9.16408
酸	-9.16464
▁我现在	-9.16619
硬	-9.16633
弟	-9.16666
买的	-9.16786
早就	-9.16797
必	-9.16889
就会	-9.16895
赶	-9.1692
帮你	-9.16939
州	-9.17024
▁靠	-9.1713
这里	-9.17229
浪费	-9.17433
是吧	-9.17466
事实	-9.17657
▁晕	-9.17681
高兴	-9.17781
小孩	-9.1793
后悔	-9.17971
窝	-9.17975
好玩	-9.1799
压力	-9.18054
屁	-9.18078
的孩子	-9.18119
打算	-9.18143
造	-9.18186
婚	-9.1834
教育	-9.18357
暴	-9.1837
鞋	-9.18378
解释	-9.18445
变态	-9.1846
上次	-9.18495
虽然	-9.18568
死你	-9.18635
树	-9.18724
纯	-9.18739
呆	-9.18829
播	-9.18832
还可以	-9.18886
了么	-9.18921
不去	-9.18937
骚	-9.19097
第一次	-9.19114
赛	-9.19152
形	-9.1916
见到	-9.19224
板	-9.19509
保	-9.1962
狂	-9.19682
▁好的	-9.19692
要去	-9.19719
使	-9.19778
不上	-9.19917
斗	-9.19983
村	-9.20135
咬	-9.20142
睡不着	-9.20157
现场	-9.20204
散	-9.20273
运动	-9.20286
富	-9.20322
嗨	-9.20404
11	-9.20423
▁我已经	-9.20481
决定	-9.20514
技术	-9.20529
▁昨天	-9.20566
就可以	-9.20594
煮	-9.20619
习惯	-9.20642
流氓	-9.20651
爹	-9.20712
告诉你	-9.20719
出门	-9.20788
家里	-9.20791
说了	-9.20948
兄	-9.20974
告	-9.20978
石	-9.21
我去	-9.21058
丢	-9.2113
当时	-9.21185
会不会	-9.21203
可爱的	-9.21261
关心	-9.2128
现	-9.21326
几天	-9.21372
耐	-9.21389
识	-9.21389
得很	-9.21449
清楚	-9.21466
哭了	-9.21527
消息	-9.21609
闲	-9.21614
导	-9.21626
我没	-9.21648
说明	-9.21653
层	-9.21919
计划	-9.21923
你妹	-9.22043
放假	-9.22065
疯了	-9.22079
沙	-9.22172
失眠	-9.22264
报名	-9.22317
推	-9.22367
低调	-9.22428
放心	-9.22546
影响	-9.22617
根	-9.22645
挖	-9.22648
算了	-9.22667
座	-9.22675
看的	-9.22741
提前	-9.22774
或	-9.22853
这句话	-9.22866
客气	-9.2291
佳	-9.22956
惊	-9.23007
桥	-9.23029
便	-9.23075
灯	-9.23152
和我	-9.23155
出现	-9.23214
自然	-9.23386
炒	-9.23392
遗憾	-9.23459
回忆	-9.23641
这么多	-9.23649
旅游	-9.23684
的照片	-9.23723
经典	-9.23798
阿姨	-9.23876
防	-9.23907
听到	-9.23952
按	-9.24172
羡慕嫉妒恨	-9.24324
安排	-9.24359
你在	-9.24425
湖	-9.24556
正在	-9.24614
▁你又	-9.24632
瓜	-9.24659
私	-9.24819
杯	-9.24848
没办法	-9.24912
都在	-9.24942
被你	-9.24949
仲	-9.25065
微	-9.25217
苹果	-9.2522
穷	-9.25302
校	-9.25342
文化	-9.25405
真的是	-9.25448
棒	-9.25453
脱	-9.25462
《	-9.2547
毕业	-9.25482
退	-9.25513
老了	-9.25611
通知	-9.2564
戴	-9.25667
初	-9.2579
消	-9.25812
享受	-9.25817
望	-9.2587
下班	-9.25967
▁可怜的	-9.26014
12	-9.26038
胖子	-9.26062
说是	-9.26063
熊	-9.26068
亚	-9.26093
治	-9.26218
抱	-9.26233
很难	-9.26321
出来了	-9.26337
归	-9.26479
一切	-9.26499
每次	-9.26582
烟	-9.26661
稳	-9.26702
无法	-9.26771
秋	-9.26772
我很	-9.26824
垃圾	-9.26835
她们	-9.26868
恐怖	-9.26943
想想	-9.26993
餐	-9.27034
那种	-9.27389
失望	-9.2748
馆	-9.27548
善	-9.27629
我不	-9.27666
范	-9.27676
基本	-9.27746
接受	-9.27763
饮	-9.27771
的问题	-9.27777
服	-9.27839
这边	-9.27983
式	-9.28139
慢	-9.282
巧	-9.28217
想吃	-9.2824
打电话	-9.28269
乃	-9.28271
建	-9.28402
断	-9.28504
除了	-9.28573
床	-9.28584
担心	-9.28677
▁可是	-9.28737
介	-9.28844
喽	-9.28893
这么说	-9.28925
园	-9.28971
▁以后	-9.2898
聊	-9.29001
的呀	-9.29061
也可以	-9.291
视频	-9.29133
产	-9.29136
先生	-9.29248
轮	-9.29518
控	-9.29582
找你	-9.29595
不太	-9.29631
羊	-9.29676
麻烦	-9.29697
尔	-9.2971
投	-9.29758
胸	-9.29885
想起	-9.2994
▁我都	-9.29991
及	-9.30012
威	-9.30033
好吃的	-9.30061
角	-9.30194
功	-9.30209
夫	-9.30215
发生	-9.30354
大概	-9.30356
容	-9.30534
所有	-9.306
都会	-9.30665
我也是	-9.30766
笔	-9.30834
罪	-9.30853
压	-9.30998
搭	-9.31078
你个	-9.3109
宿舍	-9.31101
那就	-9.31138
生气	-9.31223
视	-9.31336
▁我也想	-9.31371
那你	-9.3149
▁姐姐	-9.31525
并	-9.31616
有钱	-9.31699
小朋友	-9.3177
还没有	-9.31828
重要	-9.31877
听说	-9.31887
单身	-9.31912
▁那个	-9.32109
建议	-9.32186
开车	-9.32192
财	-9.32201
同事	-9.32333
▁没事	-9.32352
认为	-9.32472
虚	-9.3273
撞	-9.32922
工资	-9.32936
考试	-9.33092
速	-9.33093
▁期待	-9.33135
一年	-9.3316
奇	-9.33378
欺负	-9.33394
几点	-9.33398
果然	-9.33467
很美	-9.33486
男的	-9.33529
睡了	-9.33582
看过	-9.33708
城市	-9.33832
义	-9.33965
脑	-9.34015
当年	-9.34043
在一起	-9.3411
不准	-9.34213
成都	-9.34214
武	-9.34251
埋	-9.34338
差点	-9.34341
谢谢你	-9.34345
▁确实	-9.34364
不认识	-9.34431
分享	-9.34439
铁	-9.34664
一条	-9.34665
去吃	-9.34668
彩	-9.34722
也会	-9.34784
身材	-9.34856
仙	-9.34916
不像	-9.34971
就没	-9.35027
段	-9.3504
任	-9.35137
有时间	-9.35155
俗	-9.35165
杭州	-9.35201
▁他们	-9.35213
颜色	-9.35232
又不是	-9.35257
市场	-9.35277
良	-9.35466
美丽	-9.35476
轻	-9.35478
粗	-9.35567
童鞋	-9.35643
▁恭喜	-9.35669
负责	-9.35711
▁你不是	-9.35745
没什么	-9.35779
拖	-9.35821
单位	-9.35873
又要	-9.35929
不晓得	-9.35937
下雨	-9.3612
的那个	-9.3612
的吗	-9.36138
丝	-9.36254
你怎么	-9.3627
展	-9.36286
眼泪	-9.3634
是真的	-9.36352
发展	-9.36364
就在	-9.36453
很不错	-9.36456
什么都	-9.36475
见过	-9.36477
礼物	-9.36568
恩	-9.36596
刺激	-9.36599
吐	-9.36607
改变	-9.36658
好吗	-9.36734
说得	-9.36755
▁喜欢	-9.36786
恋	-9.36806
兰	-9.36835
我看	-9.36873
钟	-9.36883
上了	-9.36931
属于	-9.36994
目	-9.37023
斤	-9.37051
至少	-9.37099
汗	-9.37108
砸	-9.3712
岛	-9.37218
▁哼	-9.37291
懒	-9.37329
▁矮油	-9.37403
势	-9.3745
▁是不是	-9.37479
狗狗	-9.37534
搞笑	-9.37565
解决	-9.37589
扯	-9.3768
▁你这	-9.37689
一起去	-9.37693
▁应该	-9.37726
汉	-9.37729
摸	-9.37782
老大	-9.37829
服务	-9.37981
哪天	-9.38012
最爱	-9.38031
程	-9.38071
游戏	-9.38077
存	-9.38175
长得	-9.38226
可怕	-9.38271
▁想	-9.38275
电视	-9.38277
明年	-9.38315
联	-9.38328
▁等	-9.38359
魔	-9.38451
老子	-9.38575
弹	-9.38598
悲	-9.38599
地址	-9.3866
办法	-9.3871
圆	-9.38769
围观	-9.38777
透	-9.39007
止	-9.39182
标	-9.39187
▁呃	-9.39232
输	-9.39241
湿	-9.39296
艺术	-9.3941
料	-9.39795
评	-9.39909
怎么了	-9.39995
刚刚	-9.40127
涨	-9.40141
不好意思	-9.40161
祝你	-9.40177
素质	-9.40184
赖	-9.40214
灰	-9.40225
一张	-9.40242
忘	-9.40277
蓝	-9.40476
不说	-9.40554
▁木有	-9.4066
你来	-9.40776
就有	-9.40828
▁偶	-9.40837
呦	-9.40842
由	-9.40877
话说	-9.4094
温	-9.40974
咖啡	-9.41087
吴	-9.41091
题	-9.41246
好听	-9.4126
布	-9.41324
的样子	-9.41327
广	-9.41384
主要	-9.41397
再说	-9.41422
偏	-9.41444
叶	-9.41502
预	-9.4156
▁你个	-9.41612
音乐	-9.41678
大叔	-9.41683
咱俩	-9.41754
咁	-9.41975
似	-9.42012
▁怎么了	-9.42066
洋	-9.42209
欢	-9.42287
▁切	-9.42295
太阳	-9.42339
不算	-9.42354
▁晚上	-9.4236
奥	-9.42666
心理	-9.4269
嘞	-9.42748
悲哀	-9.42813
智	-9.42844
没得	-9.42987
志	-9.43066
堂	-9.43098
根本	-9.43117
录	-9.43139
雅	-9.43161
犯	-9.43216
▁貌似	-9.43252
中国人	-9.43317
爬	-9.43424
▁甘	-9.43458
前面	-9.43518
厚	-9.43644
遭	-9.4367
比赛	-9.43697
圈	-9.43738
上面	-9.43766
进去	-9.43789
丽	-9.438
嘎	-9.43812
足	-9.43851
玉	-9.43854
媒体	-9.43962
简直	-9.44147
同意	-9.44216
几时	-9.44314
聚	-9.44643
自由	-9.44725
不可	-9.4483
看得	-9.44848
是因为	-9.44956
闪	-9.44981
欣赏	-9.44984
很喜欢	-9.44998
婆	-9.4502
星期	-9.45066
怀	-9.4508
愁	-9.45164
感冒	-9.45184
兴	-9.45187
论	-9.45205
医生	-9.45236
奔	-9.45313
君	-9.45393
器	-9.45429
分钟	-9.45461
苏	-9.45505
啥时候	-9.4552
礼	-9.45566
伤感	-9.45566
批	-9.45572
香港	-9.45586
得到	-9.45617
身边	-9.45625
堵	-9.45828
口味	-9.45921
水平	-9.45997
▁多谢	-9.46075
不管	-9.46095
共	-9.46161
撑	-9.46209
能力	-9.46381
看到了	-9.46621
30	-9.46644
能不能	-9.46687
擦	-9.46708
倒是	-9.46867
设计	-9.46885
绿	-9.46896
欠	-9.46953
成为	-9.46994
的女人	-9.47
样子	-9.47028
时代	-9.47125
梅	-9.47203
怎么会	-9.4739
地铁	-9.4749
挤	-9.47515
到现在	-9.47589
确定	-9.47621
很大	-9.47633
▁从	-9.47699
齐	-9.47957
瓶	-9.47996
支	-9.4807
去吧	-9.48111
更好	-9.48139
的说	-9.48144
降	-9.48148
骨	-9.48148
异	-9.48182
后来	-9.48251
医院	-9.48279
基	-9.48328
贼	-9.48395
诗	-9.48456
猛	-9.48585
你可以	-9.48619
对不起	-9.48692
▁真是	-9.48777
▁我的	-9.4881
你又	-9.48882
唱歌	-9.48938
认真	-9.48949
路上	-9.49072
田	-9.49092
妹子	-9.49252
不吃	-9.49314
京	-9.49371
要么	-9.49418
想去	-9.49432
▁咋	-9.4951
警	-9.49553
拼	-9.4958
表情	-9.49584
掉了	-9.4959
宫	-9.49603
思想	-9.49628
巨	-9.49663
忽悠	-9.49667
朝	-9.49673
里的	-9.49676
重庆	-9.49852
上的	-9.49912
改天	-9.49955
▁不错	-9.49961
▁什么时候	-9.49987
发型	-9.50076
嘉	-9.50113
一家	-9.50244
回答	-9.50263
请你	-9.50291
虎	-9.50291
夏天	-9.50294
我自己	-9.50445
室	-9.50462
证明	-9.50469
▁俺	-9.50514
赢	-9.50539
曾经	-9.50602
哒	-9.5063
订	-9.50687
你看	-9.5077
依	-9.50789
嫉妒	-9.50805
肿么	-9.50819
今	-9.50838
笨	-9.50982
拍照	-9.51015
质	-9.51052
居	-9.51071
真相	-9.51108
胃	-9.51136
还得	-9.51151
脑残	-9.51306
0	-9.51357
界	-9.51454
给他	-9.51484
升	-9.51515
饼	-9.51626
舒服	-9.51634
起床	-9.51678
坑爹	-9.5173
+	-9.518
我们都	-9.51809
是否	-9.51883
▁哎哟	-9.51896
佛	-9.51973
麦	-9.51996
国庆	-9.52035
速度	-9.52094
好久没	-9.52129
夸	-9.52244
一样的	-9.52258
狼	-9.52258
感慨	-9.52334
形象	-9.52345
▁支持	-9.52395
多多	-9.52415
不见	-9.52444
▁你还	-9.52489
▁可怜	-9.52579
亏	-9.52582
▁呜呜	-9.52591
举	-9.52612
哪儿	-9.52647
蒙	-9.52653
▁你说	-9.52671
状态	-9.52721
▁啥	-9.52743
得瑟	-9.52754
未来	-9.52785
害怕	-9.52827
家的	-9.52851
宣传	-9.52856
吉	-9.52981
也不错	-9.53008
丁	-9.53041
看到你	-9.53089
折	-9.53183
上去	-9.53205
我这	-9.53214
康	-9.53242
童	-9.53277
免费	-9.53464
你自己	-9.53674
凶	-9.53713
深圳	-9.53746
付	-9.53791
职	-9.53898
难得	-9.53995
警察	-9.54111
▁哥	-9.54174
休	-9.54183
陪你	-9.54248
本人	-9.54349
曲	-9.54349
第	-9.54449
十一	-9.54486
炸	-9.54501
你会	-9.54617
塞	-9.54624
信息	-9.5473
平时	-9.54912
酷	-9.54912
弟弟	-9.54939
半夜	-9.5501
卷	-9.55054
模	-9.55059
了个	-9.55063
一只	-9.55131
训	-9.55271
乜	-9.55392
精彩	-9.5541
上来	-9.55513
你这	-9.55541
故事	-9.556
安慰	-9.55608
淘宝	-9.55698
护	-9.55702
是我的	-9.55715
一种	-9.55721
什么的	-9.55722
环	-9.55784
好想	-9.55789
饱	-9.55839
他妈	-9.55842
生命	-9.55916
▁估计	-9.56028
想你	-9.56029
离开	-9.56052
坑	-9.56061
▁哪里	-9.56084
女朋友	-9.56086
么么	-9.5616
早点	-9.56238
你妈	-9.56291
姐妹	-9.56293
环境	-9.56349
顾	-9.56414
劳	-9.56426
太多了	-9.5645
社	-9.56464
就能	-9.56481
对你	-9.56545
都说	-9.56615
问问	-9.56701
挺好的	-9.56814
傻逼	-9.56824
▁中国	-9.56831
吓人	-9.56857
国内	-9.56869
佩服	-9.56964
刚才	-9.56995
英	-9.5708
不是我	-9.57123
黎	-9.57135
夏	-9.57252
下面	-9.57304
到时	-9.57359
备	-9.5742
叔	-9.57482
长的	-9.57558
价格	-9.57581
登	-9.57632
烤	-9.57772
武汉	-9.57871
那我	-9.57907
胜	-9.57912
欧	-9.57956
一定会	-9.57956
来着	-9.57957
本来就	-9.58031
▁好像	-9.58151
腰	-9.58208
瘦了	-9.58226
艺	-9.58242
告诉	-9.58282
写的	-9.58304
答案	-9.58425
左右	-9.58434
的生活	-9.58462
看完	-9.58482
我还是	-9.58529
良心	-9.58532
肯定是	-9.58548
源	-9.58665
男朋友	-9.58828
户	-9.58847
杰	-9.58907
小时	-9.58916
呵	-9.58959
皇	-9.58965
房子	-9.58989
兔	-9.59036
耳	-9.59042
坏了	-9.59045
藏	-9.59054
着呢	-9.59078
上网	-9.59121
不容易	-9.59156
扣	-9.59174
股	-9.59178
你不	-9.59224
不出	-9.59253
喷	-9.59258
每天都	-9.59392
逗	-9.59396
酒店	-9.59445
也太	-9.59511
冬天	-9.5955
值	-9.59601
没看到	-9.5963
浪漫	-9.59686
一边	-9.59748
▁已经	-9.59806
▁快	-9.59913
阴	-9.59943
姓	-9.59947
我怎么	-9.59955
守	-9.60026
呸	-9.60036
骑	-9.60105
腐败	-9.60111
南京	-9.60131
位置	-9.60162
去哪	-9.60172
肿	-9.60205
▁为啥	-9.60252
悲催的	-9.60357
你好	-9.6041
直播	-9.60411
成熟	-9.60458
全部	-9.60512
完美	-9.6056
意见	-9.60582
感受	-9.60618
结局	-9.60631
蛋糕	-9.60703
年前	-9.60713
我又	-9.60777
泪奔	-9.60834
青春	-9.60919
18	-9.6092
同志	-9.60923
寄	-9.60962
脑子	-9.61041
大师	-9.61083
签	-9.61119
强大	-9.6115
有啥	-9.61208
为啥	-9.61311
争	-9.61363
▁无	-9.61398
航	-9.61414
发的	-9.61467
让他	-9.61517
怒	-9.61529
闭	-9.61537
不少	-9.6157
碰	-9.61606
靓	-9.61609
少了	-9.61618
性感	-9.61644
季	-9.61662
是要	-9.61703
密	-9.61726
则	-9.61726
就行	-9.6173
记者	-9.6176
都可以	-9.61824
墙	-9.61825
我地	-9.61871
你想	-9.61964
经济	-9.61973
历史	-9.61989
看起来	-9.62004
人都	-9.62005
师傅	-9.62165
▁必须	-9.62174
盖	-9.62187
啊哈哈	-9.62276
男生	-9.62284
助	-9.6231
政	-9.62404
等待	-9.62444
结束	-9.6259
遇	-9.62609
本来	-9.62733
叔叔	-9.62776
愿意	-9.62786
豪	-9.62798
经验	-9.62811
星座	-9.62823
呜呜	-9.62838
缘	-9.62875
可能是	-9.62928
吵	-9.62934
码	-9.63005
▁最	-9.63018
▁其实我	-9.6303
喇	-9.63061
是一个	-9.63069
你去	-9.63133
浪	-9.63152
▁但是	-9.63204
舞	-9.63238
有意思	-9.6325
闷	-9.63263
许	-9.63348
下周	-9.63361
人啊	-9.63364
和谐	-9.63408
都很	-9.63411
衰	-9.635
农	-9.63641
内心	-9.63687
动物	-9.63694
的名字	-9.63763
女孩	-9.63764
想要	-9.63778
碗	-9.63791
至	-9.63849
三个	-9.63943
都能	-9.63948
我今天	-9.6397
▁感谢	-9.64014
占	-9.64016
找不到	-9.64079
死我了	-9.64264
哩	-9.64312
▁话说	-9.64313
▁系	-9.64316
去年	-9.64478
太好了	-9.64482
▁欢迎	-9.64571
方式	-9.64639
历	-9.64647
网上	-9.64701
这张	-9.64726
▁哟	-9.64746
真系	-9.64797
孙	-9.64842
厦门	-9.64906
即	-9.64908
你都	-9.651
残	-9.65152
90	-9.65162
的男人	-9.65183
妖	-9.65242
的很	-9.65461
真实	-9.65586
▁还好	-9.65603
因	-9.65609
旧	-9.65638
▁据说	-9.65721
对我	-9.65751
得好	-9.65755
你们的	-9.65765
过的	-9.65765
一会	-9.65837
软	-9.65866
▁你好	-9.65903
干啥	-9.65911
宅	-9.65934
▁终于	-9.65975
到处	-9.66005
加入	-9.66037
杯具	-9.66121
反应	-9.66146
港	-9.66158
拆	-9.66179
封	-9.66235
笑话	-9.6625
淡	-9.66254
弱	-9.66262
歪	-9.66331
还真是	-9.66421
中的	-9.66488
明星	-9.66493
的心	-9.66493
曾	-9.66515
表现	-9.66542
想法	-9.66547
吓死	-9.66567
回头	-9.66586
身上	-9.66624
不可能	-9.66628
标准	-9.66658
松	-9.66878
奶奶	-9.66906
编	-9.6698
见面	-9.66992
猥琐	-9.67014
主要是	-9.67027
又是	-9.67038
用的	-9.67084
第二	-9.67151
众	-9.67204
鼓励	-9.67242
阳光	-9.67276
暖	-9.67294
我怕	-9.67302
碎	-9.67351
别的	-9.67453
拔	-9.67471
多谢	-9.67552
作为	-9.67583
偶尔	-9.67649
搬	-9.67658
▁必须的	-9.67663
维	-9.67679
网络	-9.67704
麽	-9.67777
诱惑	-9.67777
受不了	-9.6781
迟	-9.67918
被人	-9.67983
败	-9.68012
50	-9.68028
方法	-9.68191
出发	-9.68193
属	-9.6827
的确	-9.6829
我也想	-9.68314
任何	-9.68368
惨了	-9.68464
▁这样	-9.68473
妇	-9.68521
目标	-9.68558
了嘛	-9.6858
▁看到	-9.68611
唐	-9.68624
折腾	-9.68628
死人	-9.6868
是最	-9.68764
负	-9.68789
乡	-9.68939
赚	-9.69022
就去	-9.69036
虫	-9.69106
15	-9.69128
▁我靠	-9.6929
也许	-9.69314
果断	-9.69357
泥	-9.694
整个	-9.69433
看不到	-9.69434
游泳	-9.69564
心态	-9.69617
▁北京	-9.69658
附近	-9.69797
保护	-9.69802
什么事	-9.69803
这几天	-9.69824
的朋友	-9.69843
袋	-9.6989
优	-9.69892
就这么	-9.699
鸭	-9.69963
▁反正	-9.70034
骂人	-9.70067
独	-9.70138
很开心	-9.70177
梦想	-9.70195
报道	-9.70232
关键	-9.70251
点半	-9.704
不对	-9.70421
故意	-9.70465
还行	-9.70486
快来	-9.70509
娃娃	-9.70516
就算	-9.70561
串	-9.70655
吼吼	-9.70657
晓	-9.70676
两天	-9.70749
奇怪	-9.70805
没问题	-9.70806
顺便	-9.70833
▁你在	-9.70881
否	-9.70934
哪有	-9.71028
一直在	-9.71078
新浪	-9.71126
辛苦了	-9.71128
吃过	-9.71176
在北京	-9.71243
尼玛	-9.71258
100	-9.71323
纳	-9.71361
英语	-9.71469
复杂	-9.71469
一群	-9.71502
测	-9.71534
很漂亮	-9.71563
▁我知道	-9.71608
长大	-9.71642
船	-9.71765
反正我	-9.71804
多久	-9.71812
一句	-9.71848
银行	-9.71853
到我	-9.71918
冻	-9.72058
叼	-9.72085
替	-9.72091
致	-9.72119
去看看	-9.72216
若	-9.72244
自恋	-9.72391
外面	-9.72556
明明	-9.7259
犀利	-9.72648
韩	-9.72688
还说	-9.72728
你不是	-9.72765
▁谢谢你	-9.72879
恭喜	-9.72885
保持	-9.72895
小姐	-9.72914
进行	-9.72995
月份	-9.73009
几年	-9.73023
打击	-9.73068
沉	-9.73086
懂得	-9.731
逃	-9.73107
枪	-9.73291
▁绝对	-9.7336
监	-9.73372
讨论	-9.7338
存在	-9.73406
-	-9.73443
裸	-9.73528
揍	-9.73536
好可爱	-9.73636
一个月	-9.73685
丹	-9.73687
到你	-9.73713
目前	-9.73717
娱乐	-9.73742
承认	-9.73783
▁不会	-9.73823
川	-9.73828
去买	-9.73898
▁今晚	-9.73976
月饼	-9.74093
闻	-9.74118
道理	-9.74286
引	-9.74325
找我	-9.74395
一块	-9.74434
我们一起	-9.74443
随时	-9.74527
你太	-9.74531
▁美	-9.74536
▁这就是	-9.74543
右	-9.74552
中心	-9.74611
企业	-9.74647
需	-9.74683
喃	-9.74844
▁同	-9.7496
还会	-9.7497
▁我不	-9.75158
一把	-9.75222
全是	-9.75408
角度	-9.75515
支持你	-9.75529
对面	-9.75579
燕	-9.75587
▁对的	-9.75631
咳	-9.7567
▁你就	-9.75711
永	-9.75712
凡	-9.75725
▁好啊	-9.75752
干吗	-9.75754
态度	-9.75863
产品	-9.75885
幸福的	-9.75924
副	-9.75943
索	-9.75998
徐	-9.76002
▁哪个	-9.76059
▁我看	-9.76088
屁股	-9.76139
行动	-9.76181
造型	-9.76198
聚会	-9.76341
年龄	-9.76449
案	-9.7651
珍惜	-9.76534
内容	-9.76548
80	-9.76569
司机	-9.76594
他是	-9.76657
陪我	-9.76673
厕所	-9.76673
一半	-9.76681
射	-9.76691
培训	-9.76756
吃完	-9.76807
坏人	-9.76882
她的	-9.76926
00	-9.77085
台湾	-9.77105
美的	-9.77128
嗲	-9.77174
▁都是	-9.77265
很多人	-9.77295
来说	-9.77359
很可爱	-9.77371
点儿	-9.77395
中间	-9.77414
老百姓	-9.7742
政治	-9.77438
怀疑	-9.77515
韩国	-9.77535
阵	-9.77742
▁你不	-9.77791
灭	-9.77818
不许	-9.77842
;	-9.7785
什么啊	-9.77907
作业	-9.78063
开学	-9.78078
虐	-9.78092
镇	-9.78105
▁我没	-9.78207
部门	-9.78343
炮	-9.7836
拜	-9.78427
这话	-9.78483
珠	-9.78488
紧张	-9.78521
交流	-9.78579
托	-9.78779
伴	-9.7879
还不是	-9.78796
都系	-9.7882
过程	-9.78822
空调	-9.78834
现在的	-9.78865
要看	-9.78882
峰	-9.78943
没钱	-9.78973
务	-9.78978
遍	-9.7899
无语	-9.79016
余	-9.79033
▁你可以	-9.79034
肚	-9.79078
后天	-9.79126
你这个	-9.79134
▁你太	-9.79143
一看	-9.79147
馋	-9.79216
去过	-9.79311
没想到	-9.7934
玩的	-9.79434
▁跟	-9.79437
壮	-9.79462
苦逼	-9.79467
不过我	-9.79482
管理	-9.79491
起来了	-9.79558
来看	-9.79603
不错的	-9.79629
税	-9.79647
就像	-9.79733
吃货	-9.79749
智商	-9.79753
好累	-9.7977
活着	-9.79841
算是	-9.79871
盐	-9.79906
赵	-9.79906
正好	-9.79908
心痛	-9.79934
这事	-9.79966
青年	-9.80007
出差	-9.8009
霸气	-9.80108
欺负我	-9.80137
晨	-9.80141
13	-9.80269
好可怜	-9.80279
没关系	-9.80301
这不是	-9.80319
气质	-9.80333
腻	-9.8034
放弃	-9.80367
知识	-9.80401
挨	-9.80427
不觉得	-9.80435
看不懂	-9.80485
肠	-9.80506
▁我还	-9.80516
也在	-9.80521
医	-9.80577
除	-9.80647
今日	-9.80689
行为	-9.80708
靠谱	-9.80714
尾	-9.80836
档	-9.80923
▁好看	-9.81019
禁	-9.81029
桌	-9.81056
尿	-9.81125
施	-9.81125
喝了	-9.81185
这就是	-9.81192
效	-9.81247
有那么	-9.81252
让我们	-9.81294
强烈	-9.81319
很好吃	-9.81327
不错哦	-9.81344
▁你真	-9.81351
孤独	-9.81391
动车	-9.81437
也能	-9.81516
每个	-9.81608
裤	-9.81782
欲	-9.81794
骂我	-9.81806
国际	-9.81858
▁知道	-9.81876
踢	-9.81893
飘	-9.81934
答	-9.81971
哥们	-9.81992
是一种	-9.82025
文艺	-9.82031
朵	-9.82086
扎	-9.82091
区别	-9.82096
牛逼	-9.82104
不开心	-9.8222
人才	-9.82334
天下	-9.82426
▁祝	-9.82536
炎	-9.82537
高中	-9.82542
火车	-9.82544
▁哎呦	-9.82547
▁你咋	-9.82561
懂的	-9.82581
小学	-9.82591
嫌	-9.8262
原因	-9.82625
迪	-9.82625
说不定	-9.82633
▁不是吧	-9.82677
易	-9.82942
不清楚	-9.83073
方向	-9.83202
▁我家	-9.83314
做了	-9.83339
人类	-9.83413
漏	-9.83429
▁天	-9.83455
戒	-9.83505
返	-9.83519
敢不敢	-9.83531
隐	-9.83592
我帮你	-9.83593
赌	-9.83608
、、	-9.83687
▁我也觉得	-9.8381
逛	-9.83824
白痴	-9.83829
机场	-9.83861
方面	-9.84016
大的	-9.84052
令	-9.84069
水果	-9.84082
事儿	-9.84164
才知道	-9.84212
人了	-9.84273
干净	-9.84295
读书	-9.84312
才会	-9.84336
啦啦啦	-9.8434
偶像	-9.84531
磨	-9.84594
我只	-9.84596
兵	-9.84601
中意	-9.8465
火锅	-9.84652
老娘	-9.84672
第一个	-9.8475
▁听说	-9.84806
很想	-9.84824
▁咱	-9.84906
说什么	-9.84923
邪恶	-9.84967
废	-9.84974
屋	-9.84985
朱	-9.85056
鲜	-9.85097
贱人	-9.85146
没法	-9.85169
发了	-9.85176
帅气	-9.85178
我说	-9.85266
等到	-9.85283
道德	-9.85322
寒	-9.85344
严	-9.85363
参与	-9.8545
胆	-9.85457
▁主要是	-9.85471
▁感觉	-9.85483
赏	-9.85508
伤心了	-9.85535
怎么这么	-9.85567
计	-9.85567
对了	-9.85585
是不	-9.85612
门口	-9.85617
围	-9.85627
零	-9.85671
你那	-9.85688
又不	-9.85689
添	-9.85787
兴奋	-9.85791
疯狂	-9.85824
我有	-9.85853
有多	-9.85864
来吧	-9.85913
也就	-9.85958
免	-9.85994
我好	-9.8601
菲	-9.86026
责任	-9.86086
这么大	-9.86132
庆	-9.86187
被我	-9.86192
我也要	-9.86211
更加	-9.86212
美人	-9.86267
都不知道	-9.86287
我们家	-9.86293
白天	-9.86428
昂	-9.86432
委屈	-9.86526
丰富	-9.86533
思考	-9.86604
给我们	-9.86625
父母	-9.86661
▁我说	-9.86667
碰到	-9.86713
灰常	-9.86736
不错啊	-9.86744
搞得	-9.86768
伟	-9.86865
心中	-9.86887
骗子	-9.8693
有问题	-9.86979
摔	-9.86988
主义	-9.87045
假的	-9.87196
健	-9.87227
理由	-9.87254
现在是	-9.87259
职业	-9.87282
漂亮的	-9.87293
你现在	-9.8731
还是很	-9.87376
一场	-9.87438
控制	-9.87509
▁可	-9.87518
▁要是	-9.87518
▁老子	-9.87522
合适	-9.87522
=	-9.8763
端	-9.8775
到底是	-9.87764
▁不用	-9.87807
记忆	-9.87832
▁你这个	-9.87833
一件	-9.87838
是为了	-9.87838
还挺	-9.87845
敬	-9.8787
腐	-9.87903
媳妇	-9.87913
地球	-9.87941
泰	-9.88007
军训	-9.88033
带着	-9.8804
临	-9.88092
扫	-9.88109
你有	-9.88112
寻	-9.88148
好伐	-9.88171
我爱	-9.88175
箱	-9.88187
开玩笑	-9.88246
不让	-9.88271
▁爱	-9.88355
去死	-9.8837
忒	-9.88391
▁我很	-9.88394
礼拜	-9.884
章	-9.88413
请问	-9.88442
挺好	-9.88444
红色	-9.8855
很久	-9.88628
扔	-9.88674
八卦	-9.88676
终	-9.88688
▁这不是	-9.88751
妙	-9.88768
就这样	-9.88851
没啥	-9.88875
脏	-9.88893
息	-9.88995
那时候	-9.89007
就行了	-9.89119
尝试	-9.89175
右边	-9.89205
更多	-9.89291
实在是	-9.89312
似的	-9.89358
项目	-9.89363
在我	-9.89389
最喜欢	-9.8956
虾	-9.89567
艳	-9.89582
很好看	-9.89585
探	-9.89714
▁早	-9.89852
去哪里	-9.89889
增	-9.89927
▁你看	-9.89935
迟到	-9.9001
上午	-9.90052
彻底	-9.90105
年纪	-9.90117
早起	-9.90185
俊	-9.90197
潇洒	-9.90197
提醒	-9.902
击	-9.90226
普	-9.90354
节日快乐	-9.905
意义	-9.90518
有时	-9.90533
公园	-9.90536
侬	-9.9055
大爱	-9.90562
是啥	-9.90569
踩	-9.90581
饿了	-9.90588
暗	-9.90608
▁神马	-9.90612
之间	-9.90613
有时候	-9.9062
边个	-9.90634
谁啊	-9.90666
师兄	-9.90697
很少	-9.907
▁应该是	-9.90758
征	-9.90861
乌	-9.90867
也没有	-9.90877
眼神	-9.90877
变化	-9.90884
的么	-9.90912
这条	-9.90915
旅行	-9.90916
夸张	-9.9102
▁我今天	-9.91054
左边	-9.91125
重口味	-9.91134
的意思	-9.91189
我和	-9.91248
▁弄	-9.91256
天蝎	-9.91288
秘密	-9.91369
据	-9.91424
跟着	-9.9143
一辈子	-9.91452
学会	-9.91461
同样	-9.91519
讨	-9.91627
见你	-9.91628
我就是	-9.91643
娇	-9.91744
这两天	-9.91745
不带	-9.91846
的微博	-9.9193
动作	-9.9195
剩	-9.91965
呼	-9.91967
窗	-9.92036
更新	-9.9211
我给你	-9.92112
族	-9.92133
才有	-9.92158
续	-9.92192
美食	-9.92195
▁我也要	-9.92214
冇	-9.92232
▁可怜的娃	-9.92237
怎么不	-9.9232
经历	-9.92322
没那么	-9.92346
多好	-9.92428
人物	-9.92487
开会	-9.92497
攻	-9.92521
方便	-9.92544
还是要	-9.92559
办公室	-9.92628
在这里	-9.92657
说的是	-9.9268
`	-9.92709
您的	-9.92711
梁	-9.92723
洞	-9.92821
心情不好	-9.92822
肿么了	-9.92842
美好	-9.92887
▁擦	-9.92926
圣	-9.93018
危险	-9.93019
同时	-9.9306
做什么	-9.93067
忘记了	-9.93279
害羞	-9.93327
路线	-9.93334
显	-9.93342
片子	-9.93434
出了	-9.93522
客户	-9.93579
那时	-9.93591
故	-9.93594
佬	-9.93628
另外	-9.93635
重点	-9.93654
印	-9.93669
限	-9.93672
项	-9.93684
面前	-9.93706
家人	-9.93821
质量	-9.93822
失败	-9.93828
知道了	-9.93858
据说	-9.93887
满足	-9.93952
爸	-9.93996
同情	-9.94069
我错了	-9.9409
皮肤	-9.94117
正确	-9.94123
表达	-9.94244
有关	-9.9426
气死	-9.9436
扬	-9.94386
很像	-9.94435
伪	-9.945
不就是	-9.94563
盛	-9.94605
咸	-9.9461
恰	-9.9461
▁新	-9.94625
成这样	-9.94717
面对	-9.94823
给你们	-9.94887
甲	-9.94894
吸	-9.949
具	-9.94952
受伤	-9.94971
瓦	-9.95112
▁没错	-9.95137
庄	-9.95213
魅力	-9.95318
到位	-9.95334
境	-9.95363
不大	-9.95384
姨	-9.95422
神奇	-9.95429
熬	-9.95491
风格	-9.95589
注意身体	-9.95622
也不是	-9.95658
帝	-9.95693
丰	-9.95704
好久不见	-9.9574
▁再	-9.95759
实现	-9.95835
▁哪	-9.95852
做到	-9.95863
糊	-9.95911
上学	-9.95949
的哦	-9.95953
系统	-9.95966
顿	-9.95977
我真的	-9.96096
暴力	-9.96104
眼镜	-9.96124
卫	-9.96154
回事	-9.96178
西瓜	-9.96187
囧	-9.96227
租	-9.96227
全国	-9.96245
响	-9.9628
汇	-9.96303
过年	-9.9632
法律	-9.96329
有道理	-9.96342
激	-9.96421
▁可怜的孩子	-9.96428
伊	-9.96533
公布	-9.9658
孩纸	-9.96614
回到	-9.96626
旺	-9.96635
就系	-9.9665
郎	-9.96662
看上去	-9.96665
▁你想	-9.96682
羞	-9.96723
我只是	-9.96814
例	-9.97057
新的	-9.97129
好开心	-9.97132
的歌	-9.97144
很给力	-9.97163
▁这个是	-9.97198
问你	-9.97302
罚	-9.97341
还不如	-9.97377
赶快	-9.97422
你也是	-9.97436
不爱	-9.97441
小白	-9.9745
益	-9.97472
还想	-9.97524
▁我怎么	-9.97536
粥	-9.9756
你们都	-9.97576
适	-9.97594
漂	-9.97605
不爽	-9.97637
短信	-9.97688
我知道	-9.97709
看我	-9.97722
好似	-9.97729
习惯了	-9.97742
▁真的假的	-9.97865
篇	-9.9787
好呀	-9.97941
兔子	-9.9797
折磨	-9.97982
十年	-9.98059
你呢	-9.9806
▁可能	-9.98067
这样说	-9.98079
▁还没	-9.9815
横	-9.98181
否则	-9.98191
不需要	-9.98192
参	-9.98202
就知道了	-9.98244
群众	-9.98304
老实	-9.98308
表扬	-9.98309
都被	-9.98327
完成	-9.98413
是有	-9.98487
为何	-9.98548
冬	-9.98574
麻将	-9.98586
爱我	-9.98595
争取	-9.98618
像你	-9.98623
电视剧	-9.9866
实际	-9.98679
胖了	-9.98689
孔	-9.98702
自我	-9.98711
的就是	-9.98721
俺们	-9.98734
长沙	-9.98752
爷爷	-9.98761
好事	-9.98825
就是这样	-9.98891
洁	-9.98901
起码	-9.98902
午	-9.98926
照顾	-9.98961
有很多	-9.98961
发微博	-9.98965
做个	-9.99
处理	-9.99013
倍	-9.99016
嘎嘎	-9.9903
回家了	-9.99068
怎么能	-9.99089
狮子	-9.99151
无耻	-9.99157
送你	-9.99181
说说	-9.99201
伦	-9.99242
生意	-9.99269
不开	-9.99308
赚钱	-9.99316
盼	-9.99436
热闹	-9.9945
不要脸	-9.99516
我们是	-9.99533
▁这张	-9.99556
▁哇塞	-9.99582
有点像	-9.99637
之一	-9.99662
申请	-9.99667
再去	-9.9967
都快	-9.99673
抗	-9.99729
郭	-9.99749
挡	-9.99752
坚强	-9.99774
鸡蛋	-9.9985
哼哼	-9.99892
删	-9.99929
态	-9.99962
戳	-9.99963
西安	-10.001
快了	-10.0014
赔	-10.0017
投资	-10.0022
不给	-10.0025
售	-10.0028
牵	-10.0028
胎	-10.0028
了哈	-10.0029
醒了	-10.0035
怨	-10.0038
我一直	-10.0039
合作	-10.0042
说实话	-10.0043
▁不过	-10.0047
充	-10.0047
略	-10.0048
俾	-10.0049
敏	-10.005
震	-10.0051
▁哦哦	-10.0053
多么	-10.0057
了呀	-10.0061
很久没	-10.0068
高铁	-10.0069
口水	-10.0069
催	-10.007
其中	-10.0072
得了	-10.0073
典	-10.0078
风景	-10.0083
而是	-10.0084
幽默	-10.0092
在这	-10.0092
萨	-10.0094
中国的	-10.0095
足球	-10.0096
空间	-10.0098
▁只要	-10.01
▁看着	-10.0104
能吃	-10.0115
▁哪有	-10.0116
心酸	-10.0117
刻	-10.012
没见过	-10.0123
插	-10.0124
就想	-10.0127
就得	-10.0138
楼下	-10.0149
跌	-10.0156
周六	-10.0159
一直都	-10.0164
情何以堪	-10.0167
演员	-10.0172
怎	-10.0172
途	-10.0172
你没	-10.0172
想我	-10.0175
笑了	-10.0178
嗯	-10.0181
很累	-10.0182
▁呵呵呵	-10.0182
累了	-10.0184
假期	-10.0185
吊	-10.0189
勇气	-10.0193
仁	-10.0199
土豆	-10.0204
你说的	-10.021
只能说	-10.0213
宜	-10.0219
唯一	-10.0219
▁难道你	-10.0222
文明	-10.0223
流行	-10.0228
暂时	-10.024
聊天	-10.0243
▁非常	-10.0248
目的	-10.0255
率	-10.0266
老是	-10.0268
有可能	-10.027
盗	-10.027
且	-10.0271
▁昨晚	-10.0273
喜欢的	-10.0273
盒	-10.0275
这么好	-10.0285
条件	-10.0285
专家	-10.0289
几次	-10.029
其实我	-10.0292
我还以为	-10.0296
评价	-10.0296
昏	-10.0297
▁你家	-10.0297
进步	-10.0306
人士	-10.0309
你真	-10.0314
二十	-10.0314
温柔	-10.0319
可怜啊	-10.0322
通过	-10.0325
网站	-10.0328
东东	-10.0329
事业	-10.0336
再来	-10.034
针	-10.0341
不出来	-10.0346
整天	-10.0348
紫	-10.0348
这个问题	-10.035
▁此	-10.036
说出来	-10.0364
也不能	-10.0366
你懂	-10.0367
美好的	-10.0371
炒作	-10.0372
你能	-10.0372
积	-10.0376
▁你这是	-10.0377
啤酒	-10.0386
平安	-10.0387
▁原来你	-10.0389
专门	-10.0394
因为我	-10.0394
难道是	-10.0394
协	-10.0408
乖乖	-10.0429
熟悉	-10.0429
中秋	-10.0432
普通	-10.0437
没看	-10.044
做好	-10.0442
追求	-10.0442
s	-10.0451
我最近	-10.0455
还记得	-10.0456
屋企	-10.0462
下了	-10.0464
路过	-10.047
请你吃	-10.0474
▁这种	-10.0479
史	-10.0481
幼儿园	-10.0484
厅	-10.0486
▁有人	-10.049
周五	-10.0494
简	-10.0497
不多	-10.0498
希望你	-10.0505
愉快	-10.0506
▁今年	-10.0507
相机	-10.051
啥意思	-10.0512
城管	-10.0514
漫	-10.0514
铺	-10.0517
个月	-10.0521
销	-10.0524
的心情	-10.0524
▁肯定	-10.0525
花钱	-10.0526
访	-10.0528
憋	-10.0528
滑	-10.0528
想说	-10.0529
没去	-10.053
做梦	-10.053
▁以前	-10.0538
咖	-10.054
▁对不起	-10.0542
好意思	-10.0544
沟	-10.0546
到家	-10.0546
▁恭喜恭喜	-10.0547
牌子	-10.0548
不好看	-10.0551
慌	-10.0551
诚	-10.0559
舍不得	-10.0563
牛肉	-10.0566
▁老师	-10.0566
七夕	-10.0574
眼光	-10.0576
▁是吗	-10.0576
说法	-10.0577
▁讨厌	-10.0584
厂	-10.0584
有这么	-10.0585
不是很	-10.0586
在那里	-10.0589
反正我信了	-10.0596
善良	-10.0597
鄙视你	-10.06
尚	-10.0602
本来就是	-10.0608
别说	-10.0609
欢乐	-10.0615
小小	-10.0616
感到	-10.0621
家庭	-10.0628
妈的	-10.0631
就怕	-10.0631
换个	-10.0645
▁诶	-10.0646
顺利	-10.0647
价值	-10.0648
16	-10.0652
▁我就是	-10.0652
对象	-10.0656
秒	-10.0658
桃	-10.066
老人家	-10.0663
好点	-10.0666
▁所以说	-10.0673
带你	-10.0689
体验	-10.0695
尖	-10.0697
好漂亮	-10.0701
材	-10.0703
行业	-10.0706
最大的	-10.0707
我还没	-10.0714
请客	-10.0716
就是你	-10.0717
留下	-10.0717
一顿	-10.0726
说过	-10.0726
的支持	-10.0731
抄	-10.0731
无敌	-10.0738
恋爱	-10.0741
徒	-10.0742
伯	-10.0743
美丽的	-10.0747
真正的	-10.0749
▁啊哈哈	-10.075
激情	-10.0751
我才	-10.0753
旗	-10.0754
化妆	-10.0754
抱抱	-10.0756
报告	-10.076
小子	-10.0763
婚礼	-10.0764
交通	-10.0765
一步	-10.0768
▁关键是	-10.0769
多少钱	-10.0773
一点都不	-10.0776
很快	-10.0777
▁下午	-10.0778
任务	-10.0779
地点	-10.0783
岩	-10.0788
太不	-10.0792
全家	-10.0794
▁为了	-10.0795
蚊子	-10.0797
躲	-10.08
个屁	-10.0801
失恋	-10.0803
规	-10.0807
号码	-10.0809
可以去	-10.0813
从来	-10.0822
暑假	-10.0826
太可爱了	-10.0838
▁虽然	-10.0839
公主	-10.0843
毁	-10.0845
那位	-10.0847
取消	-10.0849
是小	-10.086
把他	-10.0876
采	-10.0876
诅咒	-10.088
▁超	-10.0882
体育	-10.0885
▁人生	-10.089
都好	-10.0893
荣	-10.0899
伙	-10.09
大了	-10.0901
喝茶	-10.0905
快递	-10.0907
▁噢	-10.0911
有爱	-10.0915
爸妈	-10.092
持	-10.0921
想看	-10.0925
收拾	-10.0927
烧烤	-10.0932
这点	-10.0933
刷屏	-10.0934
想象	-10.0938
搜	-10.0938
过去了	-10.094
又没	-10.0942
勇	-10.0942
但是我	-10.0945
喝点	-10.0958
驾	-10.0958
就是个	-10.096
哀	-10.0961
有才	-10.0965
就不能	-10.0966
杀人	-10.0969
进入	-10.0971
葡萄	-10.0973
19	-10.0974
唔系	-10.0974
似乎	-10.0974
不适合	-10.0975
估计是	-10.0977
森	-10.0983
脾气	-10.0985
真有	-10.0986
购	-10.0987
过分	-10.0991
我爸	-10.0993
锻炼	-10.0995
番	-10.0997
穿越	-10.0997
总结	-10.0999
不成	-10.0999
很棒	-10.1001
功能	-10.1004
▁同意	-10.1005
惭愧	-10.1007
谷	-10.1008
懂了	-10.1011
玩儿	-10.1012
天津	-10.1013
范儿	-10.1014
这么晚	-10.1017
把自己	-10.1025
很帅	-10.1032
莫非	-10.1033
个小	-10.1034
▁我爱	-10.1038
演唱会	-10.1043
温暖	-10.1047
时光	-10.1048
喊你	-10.105
我最喜欢	-10.1058
早知道	-10.1064
宽	-10.1066
唱的	-10.107
哪能	-10.1071
琴	-10.1072
嘿	-10.1074
想哭	-10.1086
不是说	-10.1087
偷偷	-10.1089
判	-10.1089
科学	-10.1091
体会	-10.1093
洗澡	-10.1093
笑死	-10.1094
共同	-10.1094
▁记得	-10.1096
▁等我	-10.1099
多大	-10.11
迫	-10.1102
看电影	-10.1109
▁上海	-10.111
凑	-10.1112
锁	-10.1114
成了	-10.1117
我也觉得	-10.1117
好喜欢	-10.1119
洋气	-10.1119
可恶	-10.1125
葱	-10.1126
表演	-10.1127
▁是滴	-10.1139
好大	-10.1139
第三	-10.1151
镜	-10.1152
检	-10.1157
咋个	-10.116
你知道	-10.1162
▁你妹	-10.117
排队	-10.117
▁你敢	-10.1174
一路	-10.1174
贝	-10.1177
误会	-10.1177
天朝	-10.1179
演出	-10.118
最多	-10.1185
症	-10.1185
重新	-10.119
嘴巴	-10.1203
鼻	-10.1206
性格	-10.1212
对于	-10.1215
晚了	-10.1221
我刚	-10.1223
酱	-10.123
冲动	-10.1231
侮辱	-10.1233
在那	-10.1235
没用	-10.1237
都知道	-10.1237
月亮	-10.1242
妆	-10.1243
▁我擦	-10.1244
荡	-10.1245
铁道部	-10.1245
薄	-10.1253
委	-10.1255
记住	-10.126
想知道	-10.1261
累啊	-10.1263
开了	-10.1266
龟	-10.1269
亮点	-10.1271
声音	-10.1278
核	-10.1278
听日	-10.128
你们家	-10.1281
分析	-10.1282
互相	-10.1288
万一	-10.129
人品	-10.1292
翔	-10.1293
末	-10.1296
不该	-10.1301
别个	-10.1304
不要太	-10.131
▁三	-10.1314
也好	-10.1315
奇迹	-10.133
既然	-10.1333
英文	-10.1333
跟他	-10.1338
怎么说	-10.1344
这位	-10.1346
没错	-10.1346
我爱你	-10.1347
旁	-10.135
你们俩	-10.1351
夹	-10.1354
好像是	-10.1355
官方	-10.1361
早餐	-10.1367
无所谓	-10.1376
时刻	-10.1377
境界	-10.1379
注	-10.1381
十分	-10.1381
在看	-10.139
示	-10.1399
牛奶	-10.14
形容	-10.1405
希	-10.1413
欣	-10.1414
反正我是信了	-10.1414
浓	-10.1414
眠	-10.1421
▁正在	-10.1424
无关	-10.1429
啊哈哈哈	-10.1433
含	-10.1438
何时	-10.1439
明明是	-10.1439
阿拉	-10.144
爱吃	-10.1441
舍	-10.1443
也得	-10.1444
团购	-10.1446
男女	-10.1449
▁我只	-10.1453
公开	-10.1454
情人	-10.1455
学院	-10.1456
是哪个	-10.1458
幕	-10.1459
有事	-10.1462
单纯	-10.1463
少女	-10.1467
王子	-10.1469
所以我	-10.1472
废话	-10.1474
不看	-10.1477
24	-10.1484
带你去	-10.1485
爱的	-10.1487
唯	-10.149
好奇	-10.149
保证	-10.1498
吻	-10.15
厨	-10.1501
或许	-10.1502
的时间	-10.1514
好人	-10.1515
好啦	-10.1517
周一	-10.1518
集体	-10.152
妮	-10.1525
届	-10.1525
比如	-10.1526
为你	-10.1528
丢人	-10.1532
我来	-10.1544
送我	-10.1544
▁我一直	-10.1549
啊亲	-10.1554
你地	-10.1571
悦	-10.1574
死的	-10.1576
会被	-10.1581
就开始	-10.1583
▁我怕	-10.1584
在于	-10.1585
桑	-10.1585
麻麻	-10.1588
▁我去	-10.1588
要做	-10.159
▁谢谢啦	-10.1591
我没有	-10.1596
▁果然	-10.1601
你咋	-10.1606
我们要	-10.1607
一向	-10.1608
他们的	-10.1611
运气	-10.1611
等等	-10.1612
观点	-10.1615
邀请	-10.1618
品牌	-10.1619
染	-10.162
▁可惜我	-10.1623
约会	-10.1623
就没有	-10.1625
吃得	-10.1631
做人	-10.1633
搞的	-10.1636
置	-10.1639
悲伤	-10.1639
卫生	-10.1644
幸	-10.1646
真的好	-10.1649
拥有	-10.1649
威武	-10.1651
真不	-10.1653
原来是	-10.1654
不行了	-10.1655
帅的	-10.1655
知道你	-10.1658
印象	-10.1663
兴趣	-10.1666
自信	-10.1667
▁赶紧	-10.1677
不容易啊	-10.1682
不一定	-10.1683
14	-10.1683
时尚	-10.1685
软件	-10.1688
就不会	-10.1692
晚饭	-10.1694
渣	-10.1699
他说	-10.1706
创意	-10.1708
掌	-10.1709
使用	-10.1709
▁美女	-10.1709
损	-10.171
你老公	-10.1713
镜头	-10.1717
她是	-10.173
悟	-10.1731
▁看来你	-10.1733
吃到	-10.1733
你别	-10.1735
赞同	-10.1735
还没睡	-10.1736
净	-10.1741
逼我	-10.1742
这么早	-10.1743
话题	-10.1747
▁干嘛	-10.1748
舒	-10.1748
特么	-10.1749
豆腐	-10.1749
孤单	-10.175
▁女人	-10.1754
溜	-10.1758
瑞	-10.1762
喊我	-10.177
啵	-10.1774
符合	-10.1775
情绪	-10.1776
黑色	-10.1776
我可	-10.1777
举报	-10.1779
一人	-10.1783
移动	-10.1789
请我	-10.1794
乘	-10.1799
启	-10.1799
娶	-10.1799
语言	-10.18
真正	-10.1801
不给力	-10.1804
成长	-10.1808
链接	-10.1814
我们都是	-10.1815
就更	-10.1818
尊重	-10.1825
面包	-10.183
兜	-10.1838
我不想	-10.1839
员工	-10.1842
审	-10.1843
一大	-10.1848
伤害	-10.1848
杜	-10.185
想死	-10.1857
的车	-10.1861
▁但	-10.1862
沙发	-10.1866
实力	-10.1867
烈	-10.1871
姑	-10.1874
默默	-10.1876
贪	-10.1878
带上	-10.188
稀饭	-10.1892
块钱	-10.1893
每次都	-10.1897
摇	-10.1901
吸引	-10.1902
▁祝你	-10.1904
很重要	-10.1905
都喜欢	-10.1906
男孩	-10.1908
捐	-10.1913
什么呢	-10.1914
它们	-10.1915
在上海	-10.1922
真想	-10.1925
中文	-10.1925
山寨	-10.1928
给她	-10.193
悔	-10.1933
浩	-10.194
▁没办法	-10.1942
距离	-10.1942
▁有点	-10.1948
不动	-10.1948
小妞	-10.1949
噻	-10.195
以上	-10.1951
想着	-10.1951
版的	-10.1955
一份	-10.1963
岁月	-10.1964
▁你去	-10.1965
▁是啊是啊	-10.1966
安逸	-10.1967
不行啊	-10.1968
都这样	-10.197
神经	-10.1972
你喜欢	-10.1973
换了	-10.1974
司	-10.1975
你觉得	-10.1977
小说	-10.1978
烦恼	-10.1979
绝对是	-10.1984
东北	-10.1991
桃花	-10.1991
你这么	-10.2001
腾	-10.2003
小孩子	-10.2007
很久了	-10.2014
尊	-10.2016
冠军	-10.2018
依然	-10.2019
幸好	-10.2022
在哪儿	-10.2027
果然是	-10.2028
抵	-10.2029
矮	-10.203
爱上	-10.2034
▁李	-10.2034
没时间	-10.2036
我们也	-10.2037
数学	-10.2041
好看的	-10.2043
提供	-10.2045
三天	-10.205
颜	-10.2051
▁五	-10.2054
能够	-10.2055
律师	-10.206
早安	-10.2066
你应该	-10.2066
这一	-10.2068
▁开心	-10.2074
吃饱	-10.2074
比较好	-10.2075
瞧	-10.2081
凯	-10.2082
幸运	-10.2084
民主	-10.2087
▁我也喜欢	-10.2087
▁本来	-10.2089
就别	-10.2091
痴	-10.2096
失去	-10.2103
初中	-10.2106
陆	-10.2106
你最近	-10.2107
女子	-10.2111
食堂	-10.2114
过得	-10.2114
肿么办	-10.2116
想你了	-10.2117
你妹啊	-10.2132
▁点解	-10.214
▁只	-10.2141
年代	-10.2144
是这样	-10.215
当初	-10.2154
献	-10.216
甩	-10.2161
这句	-10.2164
▁不会吧	-10.2167
▁男人	-10.2168
▁准备	-10.2168
在学校	-10.2171
惯	-10.2173
嫌弃	-10.2174
今儿	-10.2176
睡觉了	-10.218
月底	-10.2184
▁妈的	-10.2187
▁我妈	-10.2189
为什么要	-10.2189
秋天	-10.2189
回去了	-10.2193
买个	-10.2209
吼	-10.2213
现在还	-10.2213
捞	-10.2213
井	-10.2213
批评	-10.2215
并不	-10.2216
丫头	-10.2221
有一个	-10.2222
那张	-10.2225
玩玩	-10.2226
般	-10.2227
200	-10.2232
怎么可能	-10.2234
一位	-10.2238
潘	-10.224
牢	-10.224
神马的	-10.2243
可以考虑	-10.2245
广场	-10.2248
抹	-10.2253
国外	-10.2261
悲催啊	-10.2262
兽	-10.2264
润	-10.2266
▁你现在	-10.227
▁系啊	-10.2271
还不睡	-10.2271
事件	-10.2276
至于	-10.2278
叉	-10.2279
▁可是我	-10.2281
有种	-10.2286
▁也许	-10.2291
这叫	-10.2299
胃口	-10.2301
▁说明	-10.2304
蠢	-10.2306
问我	-10.2306
死我	-10.2308
好多人	-10.2308
▁要不	-10.2309
有些人	-10.2309
宇	-10.2319
下载	-10.2324
决	-10.2327
▁你以为	-10.2328
突	-10.233
射手	-10.2342
错误	-10.2342
趁	-10.2346
甚	-10.2351
关于	-10.2352
主人	-10.2359
刺	-10.2359
:	-10.2359
蛇	-10.236
不靠谱	-10.2371
摄影	-10.2376
满意	-10.2376
买到	-10.2379
鼠	-10.2385
稿	-10.2386
懒得	-10.2388
江湖	-10.2389
部分	-10.239
17	-10.2392
空虚	-10.2392
刮	-10.24
从小	-10.2414
没说	-10.242
不是你	-10.2425
避	-10.2439
但愿	-10.244
焦	-10.244
发现了	-10.2443
经过	-10.2446
呵呵呵	-10.2447
是很	-10.2452
宋	-10.2454
悲剧了	-10.2456
作用	-10.2458
导演	-10.2474
广东	-10.248
晴	-10.2481
意外	-10.2485
别人的	-10.2485
▁什么情况	-10.2488
▁等你	-10.2489
朗	-10.2494
25	-10.2495
海鲜	-10.2497
好运	-10.2497
白色	-10.2502
设	-10.2505
正经	-10.2509
教授	-10.2509
倒霉	-10.251
的味道	-10.2511
我最	-10.2512
出去玩	-10.2514
颗	-10.2515
签名	-10.2516
家伙	-10.252
鼻子	-10.2524
还是有	-10.2524
蛮好	-10.2526
逛街	-10.2534
玩了	-10.2535
仇	-10.2535
躺	-10.2537
▁好可爱	-10.254
所谓	-10.2541
我也不知道	-10.2542
裤子	-10.2543
拿到	-10.2553
蟹	-10.2561
迈	-10.2563
我明天	-10.2563
何必	-10.2569
叫什么	-10.2572
确实是	-10.2574
是被	-10.2576
去找	-10.2577
特别是	-10.2587
观察	-10.2591
担	-10.2592
两个人	-10.2593
惊喜	-10.2596
周日	-10.2596
供	-10.2601
划	-10.2602
起的	-10.2603
跟你说	-10.2603
侠	-10.2604
盲	-10.2604
贫	-10.2604
相亲	-10.2604
偷拍	-10.2606
罢了	-10.2607
我不是	-10.261
怎么那么	-10.261
老妈	-10.2613
为毛	-10.2615
春天	-10.2617
个小时	-10.262
不清	-10.2625
痛苦的	-10.2628
董	-10.2631
在中国	-10.2631
从来不	-10.2635
▁我刚	-10.2637
美味	-10.2639
不明白	-10.2644
▁同感	-10.2648
隔	-10.2651
人在	-10.2654
寝室	-10.2659
玩意	-10.266
一口	-10.2661
丽江	-10.2662
打球	-10.2667
岗	-10.2672
用心	-10.2676
不好吃	-10.2679
执	-10.2682
太大	-10.2685
要吃	-10.2685
吓到	-10.2685
▁我不是	-10.2691
特色	-10.2692
我不知道	-10.2699
没睡	-10.27
只会	-10.2702
利益	-10.2705
一点点	-10.2707
候	-10.2712
▁我会	-10.2716
菊花	-10.2718
背景	-10.2718
消失	-10.2719
酒吧	-10.2721
帽子	-10.2722
和他	-10.2725
但我	-10.2725
是我们	-10.2725
可不是	-10.2728
就说	-10.2736
▁我有	-10.2739
大人	-10.2741
鼓	-10.2741
逻辑	-10.2742
猴	-10.2742
阶段	-10.2742
还敢	-10.2745
爱好	-10.2746
祝贺	-10.2747
谁叫	-10.2747
收藏	-10.2747
做饭	-10.2749
传说中	-10.275
搞定	-10.2754
叻	-10.2756
调戏	-10.2756
的都是	-10.2759
再也不	-10.2761
承	-10.2764
鞋子	-10.2769
一堆	-10.2771
不可以	-10.2776
可惜了	-10.278
带我去	-10.2783
佐	-10.2784
县	-10.2784
这首歌	-10.2786
险	-10.2792
超市	-10.2797
投诉	-10.2798
▁的确	-10.2799
是你的	-10.2807
出名	-10.2808
一对	-10.2815
打包	-10.2819
情人节	-10.2822
裙子	-10.2823
祸	-10.2824
等于	-10.2825
瞬间	-10.2826
▁我就	-10.2833
较	-10.2833
苗	-10.2837
小姑娘	-10.284
再次	-10.285
在外面	-10.2853
刑	-10.2854
宵夜	-10.286
不止	-10.2862
面子	-10.2864
怎么回事	-10.2867
巨蟹	-10.2868
你俩	-10.2872
老爸	-10.2875
主题	-10.2876
正式	-10.2877
颠	-10.2882
咨询	-10.2882
蔡	-10.2882
高手	-10.2886
关键是	-10.2888
理想	-10.2892
一周	-10.2892
40	-10.2892
淋	-10.2896
理论	-10.2897
来找我	-10.2899
深刻	-10.2904
▁谢谢支持	-10.2904
主持人	-10.2904
祖	-10.2907
还蛮	-10.2909
勾引	-10.2911
难看	-10.2923
都不会	-10.2924
拐	-10.2924
那么大	-10.2927
意识	-10.293
泉	-10.2938
食品	-10.294
▁介个	-10.2945
版本	-10.2947
云南	-10.2948
这个是	-10.295
浮	-10.2951
亦	-10.2953
得太	-10.2955
温州	-10.2955
创	-10.2956
纪念	-10.2959
好不	-10.2962
给你看	-10.2963
天使	-10.2965
不至于	-10.2965
宿	-10.2967
是谁啊	-10.2968
咪	-10.2968
可是我	-10.2974
人性	-10.2984
▁侬	-10.2986
少年	-10.2992
尤其是	-10.2995
谢啦	-10.3003
一生	-10.3008
郑	-10.3009
恢复	-10.301
收费	-10.3015
▁小心	-10.3021
坦	-10.3024
敌	-10.3029
我们这	-10.3029
一套	-10.3029
吃什么	-10.3032
▁早上	-10.3046
纹	-10.3048
上帝	-10.3052
你不要	-10.3054
父	-10.3062
本身	-10.3062
千万别	-10.3067
女性	-10.3071
西藏	-10.3073
是假的	-10.3079
允许	-10.3082
培养	-10.3083
中秋快乐	-10.3085
米有	-10.3086
人们	-10.3091
等下	-10.3096
怀孕	-10.3096
幻	-10.3097
热情	-10.3099
店里	-10.3105
貌	-10.3108
老人	-10.3113
性的	-10.3119
误	-10.3128
官员	-10.313
保重	-10.3135
那个人	-10.3135
开心的	-10.3138
摊	-10.3139
▁而且	-10.3147
柜	-10.3154
也算	-10.3155
优秀	-10.3156
小盆友	-10.3159
笑死我了	-10.3161
▁对呀	-10.3165
苍	-10.3168
带我	-10.3169
思念	-10.3173
我相信	-10.3174
达人	-10.3174
伤了	-10.3176
中奖	-10.3177
主持	-10.3178
开发	-10.318
大连	-10.3182
延	-10.3183
尘	-10.3183
劈	-10.3183
对吧	-10.3192
什么东西	-10.3196
采访	-10.3198
季节	-10.3201
你以为	-10.3207
载	-10.3207
库	-10.3212
佢	-10.3212
还是你	-10.3213
上微博	-10.3214
你猜	-10.3215
熊猫	-10.3229
见识	-10.323
娜	-10.3232
我可以	-10.3233
我不会	-10.3235
岂不是	-10.3238
▁只有	-10.3246
▁噗	-10.3253
扮	-10.3256
变得	-10.3264
一段	-10.3267
在乎	-10.3268
万岁	-10.3272
积极	-10.3272
▁你有	-10.3284
不断	-10.3285
嫂	-10.3286
泰国	-10.3286
爷们	-10.329
席	-10.3297
邮	-10.3306
▁问题是	-10.3312
人肉	-10.3314
配合	-10.3317
感冒了	-10.3318
青岛	-10.3318
霸	-10.3319
得意	-10.3323
我还在	-10.3324
捡	-10.3329
翻译	-10.333
没见	-10.3331
妇女	-10.3334
不得了	-10.3337
坚	-10.3337
照的	-10.3342
爱心	-10.3343
比较喜欢	-10.3344
巧克力	-10.3344
一会儿	-10.3346
趣	-10.3348
▁没有啊	-10.3348
秘	-10.335
人多	-10.3353
你还是	-10.3353
说他	-10.3356
湾	-10.3356
莲	-10.3359
畅	-10.3359
新鲜	-10.3363
难道你	-10.3367
文字	-10.3369
就觉得	-10.3378
全世界	-10.3379
看出来了	-10.338
才发现	-10.338
年轻人	-10.338
▁刚刚	-10.3383
凭	-10.3384
老鼠	-10.339
不舒服	-10.339
▁爱你	-10.3392
类似	-10.3393
▁那么	-10.3394
上市	-10.3395
心灵	-10.3399
艾	-10.3399
留着	-10.3399
那家	-10.3404
蓝色	-10.3411
的脸	-10.3415
▁你应该	-10.3418
你也要	-10.3421
球迷	-10.3424
我们会	-10.3425
都无	-10.3429
背后	-10.3432
蛋疼	-10.3433
浅	-10.3433
骚扰	-10.3434
我最爱	-10.3442
过节	-10.3447
盆	-10.3447
什么意思	-10.345
状	-10.3457
发布	-10.3466
感人	-10.3466
也不会	-10.3468
最讨厌	-10.3469
新娘	-10.347
怎么没	-10.3473
脑袋	-10.3474
才行	-10.3479
开的	-10.348
女孩子	-10.348
好么	-10.3481
▁我又	-10.3481
了点	-10.3482
注定	-10.3482
程度	-10.35
台风	-10.35
大头	-10.3501
高级	-10.3502
桑心	-10.3508
蒸	-10.3508
涛	-10.3508
谦虚	-10.3508
轻松	-10.351
都觉得	-10.3512
虾米	-10.3514
无比	-10.3514
的粉丝	-10.3517
最后一	-10.3521
借口	-10.3521
诺	-10.3523
砍	-10.3523
陷	-10.3523
总有	-10.3525
▁每天	-10.3527
塔	-10.3538
给自己	-10.354
缘分	-10.354
术	-10.3546
啥都	-10.3547
▁在哪	-10.3547
坑爹的	-10.3548
猴子	-10.3553
现在在	-10.3554
有兴趣	-10.3559
辈	-10.3563
早日	-10.3563
两次	-10.3563
文章	-10.3565
▁你们都	-10.3566
下回	-10.3566
芳	-10.3568
百姓	-10.3573
真爱	-10.3577
半年	-10.3579
辉	-10.3583
艹	-10.3584
▁除了	-10.3584
着急	-10.3585
我的心	-10.3587
是有多	-10.3588
育	-10.359
来个	-10.3593
指甲	-10.3596
适应	-10.3596
你是不是	-10.3597
仪	-10.3599
俄	-10.3599
双鱼	-10.3599
爪	-10.36
检查	-10.36
提高	-10.3608
房间	-10.361
双子	-10.3612
吃药	-10.3612
汁	-10.3614
详细	-10.3614
给你吃	-10.3615
▁怪不得	-10.3615
一杯	-10.3621
▁笑	-10.3625
一句话	-10.3627
魂	-10.3628
责	-10.3628
墨	-10.3629
薇	-10.3629
可惜我	-10.3636
机票	-10.3636
凤	-10.364
放在	-10.3641
、、、	-10.3642
销售	-10.3645
愤青	-10.3647
夸奖	-10.3648
收了	-10.3655
▁好好	-10.3658
现在已经	-10.3658
荷	-10.3659
思维	-10.3662
这种人	-10.3666
赢了	-10.3666
资	-10.3667
坑爹啊	-10.3668
稀	-10.3671
棍	-10.3671
太有	-10.3673
主动	-10.3679
一定是	-10.3685
模特	-10.3685
的祝福	-10.3687
伞	-10.369
消费	-10.3694
作品	-10.3695
的故事	-10.3699
勾	-10.3703
晃	-10.3705
新疆	-10.3707
纯洁	-10.3707
了很多	-10.3711
页	-10.3711
仔细	-10.372
杂志	-10.3724
知道我	-10.3726
实话	-10.373
明儿	-10.3731
多年	-10.3733
池	-10.3734
也挺	-10.374
咋办	-10.374
对自己	-10.374
骗人	-10.3742
说明你	-10.3751
毕竟	-10.3752
的意思是	-10.3756
美妞	-10.3764
餐厅	-10.3764
慧	-10.3766
两年	-10.3767
去做	-10.3767
绝望	-10.3771
妹纸	-10.3774
▁宝贝	-10.3778
有无	-10.3781
穿的	-10.3783
拒绝	-10.3785
民族	-10.3786
▁你才	-10.3786
的活动	-10.3788
英国	-10.3789
看到的	-10.3791
▁你都	-10.3796
尝尝	-10.3798
体制	-10.3801
▁你知道	-10.3802
▁肿么	-10.3806
▁一般	-10.381
自拍	-10.3811
砖	-10.3813
奢侈	-10.3814
▁一个人	-10.3818
要来	-10.3822
的那种	-10.3822
吃醋	-10.3838
难度	-10.3844
画的	-10.3847
指导	-10.385
里面的	-10.3851
太累了	-10.3853
还不够	-10.3854
营	-10.3854
商业	-10.386
▁介	-10.3863
的表情	-10.3865
▁不能	-10.3865
蜜	-10.3874
玛	-10.3874
姜	-10.3875
晕了	-10.3875
智慧	-10.3876
是他	-10.3885
一声	-10.3887
姿	-10.389
尸	-10.3891
谢谢啦	-10.3892
的钱	-10.3897
删了	-10.3901
侧	-10.3902
▁不管	-10.3903
庆祝	-10.3905
冠	-10.3905
痒	-10.3906
嚣张	-10.3907
▁兄弟	-10.3909
苏州	-10.3909
就可以了	-10.3916
▁居然	-10.3916
你们这些	-10.3918
违	-10.3919
又有	-10.3922
就叫	-10.3922
烫	-10.3922
伴娘	-10.3925
▁就是啊	-10.3926
能不	-10.393
觉得你	-10.3931
大大	-10.3936
英雄	-10.3939
宜家	-10.3939
都这么	-10.3941
角色	-10.3949
趴	-10.3954
我们去	-10.3957
灾	-10.3958
喜欢吃	-10.3958
▁什么叫	-10.3961
555	-10.3961
壳	-10.3963
抛弃	-10.397
杀了	-10.3973
体重	-10.3974
23	-10.3975
欢迎你	-10.398
我心	-10.3981
好几	-10.3985
半天	-10.3986
加上	-10.3988
看不出来	-10.3993
把它	-10.3998
营养	-10.4004
手术	-10.4006
睡醒	-10.4013
▁这是什么	-10.4018
▁咦	-10.4019
去玩	-10.4021
尽量	-10.4023
我俩	-10.4023
错过	-10.4031
萝卜	-10.4031
钢	-10.4032
愤	-10.4039
不会是	-10.4043
介个	-10.4043
奸	-10.4044
会有的	-10.4045
摄影师	-10.4048
隔壁	-10.4049
长大了	-10.4049
耳朵	-10.405
一遍	-10.4058
简直是	-10.4059
动力	-10.4065
长了	-10.4066
带来	-10.4071
刚好	-10.4071
好嘛	-10.4072
什么情况	-10.4073
2012	-10.4073
的孩纸	-10.4074
▁表	-10.4075
令人	-10.4078
的人生	-10.4078
锋	-10.408
▁你妈	-10.4082
发烧	-10.4083
妈呀	-10.4084
▁刘	-10.4084
等你回来	-10.4084
原谅	-10.4087
喜欢你	-10.4088
赶上	-10.41
会更	-10.4105
涂	-10.4112
乳	-10.4112
保佑	-10.4112
忍不住	-10.4117
四川	-10.4118
工程	-10.4119
让她	-10.4119
▁看了	-10.412
怕怕	-10.4123
▁他是	-10.4126
快去	-10.4128
大众	-10.4137
悲惨	-10.4137
▁可爱	-10.4143
柳	-10.4144
骄傲	-10.4144
惠	-10.4145
咋样	-10.4148
▁还真	-10.4149
忧	-10.415
希望能	-10.4154
吃东西	-10.4154
▁这话	-10.4154
眉	-10.4157
我老公	-10.4161
剩下	-10.4162
感叹	-10.4162
▁啥时候	-10.4167
欺骗	-10.4167
曼	-10.4169
生病	-10.4175
啃	-10.4176
你懂得	-10.4179
▁然后	-10.4182
美美	-10.4183
他妈的	-10.419
冤枉	-10.4192
干活	-10.4197
绿色	-10.42
好好休息	-10.4203
飘过	-10.4205
妻	-10.4207
玲	-10.4208
好怀念	-10.421
不起来	-10.421
500	-10.4212
那只	-10.4217
请假	-10.4219
用了	-10.4219
的原因	-10.4227
证据	-10.4228
抓紧	-10.423
崩溃	-10.4233
关注我	-10.4235
▁5	-10.4237
有人说	-10.4237
▁谁说	-10.4239
很好的	-10.424
▁有没有	-10.424
高调	-10.424
▁只是	-10.4242
收获	-10.4244
▁不错不错	-10.4248
快快	-10.4249
加油哦	-10.426
弄个	-10.4263
惜	-10.4265
师姐	-10.4267
弃	-10.4267
快回来	-10.4267
▁算了	-10.4271
奴	-10.4273
待遇	-10.4275
怪不得	-10.428
▁不管你信不信	-10.4281
笨蛋	-10.4285
我就不	-10.4293
装修	-10.4294
了好多	-10.4296
另	-10.4296
湖南	-10.4296
是这样的	-10.4299
走路	-10.4302
域	-10.4305
寺	-10.4305
海南	-10.4306
根据	-10.4307
一颗	-10.4313
打了	-10.4315
解放	-10.4323
▁我没有	-10.4324
要好好	-10.4328
▁问	-10.4331
今天晚上	-10.4332
制度	-10.4334
▁唔	-10.4344
概念	-10.4349
这么想	-10.435
一说	-10.4353
人员	-10.4356
数据	-10.4359
靓女	-10.4367
基础	-10.4371
姚	-10.4371
▁二	-10.4374
的声音	-10.4378
大妈	-10.4379
结婚了	-10.438
鲁	-10.4386
公务员	-10.4387
扁	-10.4387
绕	-10.4387
驴	-10.4387
无论	-10.439
▁张	-10.439
伤心啊	-10.4396
策	-10.4401
在说	-10.4407
凤姐	-10.4408
白羊	-10.4409
一片	-10.4412
桶	-10.4416
矛盾	-10.442
摩羯	-10.442
最好的	-10.4424
那叫	-10.4427
缓	-10.4436
可乐	-10.4438
信不信	-10.4439
勇敢	-10.4441
现在都	-10.4448
还不知道	-10.4448
无知	-10.4449
昌	-10.4451
歇	-10.4453
鸭梨	-10.4453
拿来	-10.4454
无限	-10.4454
听听	-10.4456
不公平	-10.4459
▁就是就是	-10.4461
见到你	-10.4473
结束了	-10.4478
▁是你	-10.4484
注意安全	-10.4485
乔	-10.4486
蹭	-10.4486
▁下周	-10.4489
▁王	-10.4493
得闲	-10.4493
哄	-10.4495
以为是	-10.4496
马上就	-10.4501
无视	-10.4503
▁真的吗	-10.4504
伟大	-10.4505
感性	-10.4506
吃肉	-10.4508
辛	-10.4513
握	-10.452
您老	-10.4522
姐夫	-10.4525
红酒	-10.4529
来我家	-10.4529
农民	-10.4534
忽	-10.4534
摩	-10.4534
跟我说	-10.4535
看出	-10.4539
要有	-10.4539
从来没	-10.4546
看书	-10.4549
赤裸裸的	-10.4549
我记得	-10.455
▁先	-10.4552
内涵	-10.4554
环保	-10.4555
来看看	-10.4561
寻找	-10.4562
年的	-10.4563
打死	-10.4563
句话	-10.4565
妈咪	-10.4566
叹	-10.4567
睡着	-10.4568
岸	-10.4569
葛	-10.4569
大事	-10.457
点多	-10.4571
充满	-10.4573
真是的	-10.4573
挑战	-10.4574
现代	-10.4576
东方	-10.458
芒果	-10.4584
液	-10.4586
包括	-10.4587
真不错	-10.4587
拍摄	-10.4588
浮云	-10.4592
小三	-10.4593
认识的	-10.4594
不相信	-10.4596
敲	-10.4603
主任	-10.4607
好难	-10.4607
认识你	-10.4608
我们在	-10.4615
地震	-10.4615
的新	-10.4618
经理	-10.4619
腹	-10.4619
开心就好	-10.4621
▁一定	-10.4622
悲剧啊	-10.4622
童年	-10.4637
机器	-10.4645
那么好	-10.4648
纯属	-10.4649
社会主义	-10.466
我要去	-10.4662
照相	-10.4662
歌词	-10.4663
▁你别	-10.4667
琪	-10.467
捧场	-10.4673
像我	-10.4674
博士	-10.4675
▁晕死	-10.4677
花痴	-10.4678
▁这次	-10.468
看来我	-10.468
杆	-10.4687
轰	-10.4687
前几天	-10.4689
训练	-10.4691
混蛋	-10.4692
报复	-10.4697
首歌	-10.4706
看出来	-10.4711
看他	-10.4714
可悲	-10.4715
搞个	-10.4715
相信你	-10.4718
已经很	-10.4719
巾	-10.472
叫上	-10.4722
大雨	-10.4724
太久	-10.4725
可真	-10.4727
太给力了	-10.473
谁让	-10.4732
外地	-10.4732
▁是的呀	-10.4732
好笑	-10.4735
乎	-10.4735
吃点	-10.4736
摘	-10.4738
睡着了	-10.4738
传统	-10.4739
得起	-10.474
就不要	-10.4744
都一样	-10.4744
是神马	-10.4746
▁看你	-10.4747
的人都	-10.475
几乎	-10.4759
的家伙	-10.4761
▁你觉得	-10.4765
对方	-10.4768
每个人	-10.4769
祝福你	-10.4769
有点小	-10.4771
喝的	-10.4776
21	-10.478
有多少	-10.478
报纸	-10.4782
这帮	-10.4789
就算了	-10.4789
夫妻	-10.479
资格	-10.479
唔好	-10.4795
我咋	-10.4797
一部	-10.4799
琳	-10.4806
缩	-10.4806
祖国	-10.481
实在太	-10.4818
怕你	-10.4821
打架	-10.4821
短发	-10.4821
棉	-10.4823
歧视	-10.4823
不得不	-10.4825
脖子	-10.4826
不叫	-10.4829
我说的是	-10.483
好美	-10.4831
公交	-10.4831
弄的	-10.4832
22	-10.4836
倾	-10.4837
力量	-10.4838
自行车	-10.484
十八	-10.4842
小区	-10.4846
▁汗	-10.4861
贵的	-10.4864
着你	-10.4866
好哇	-10.4867
高三	-10.4869
▁我晕	-10.4871
洪	-10.4874
蕾	-10.4875
儿童	-10.4876
害我	-10.4878
脸上	-10.488
▁陈	-10.489
莎	-10.4892
隆	-10.4892
好男人	-10.4893
残忍	-10.4895
裙	-10.4895
▁最后	-10.4899
试过	-10.4901
寿	-10.4902
骂你	-10.4904
织	-10.4906
基本上	-10.4907
过敏	-10.4908
(	-10.4909
愤怒	-10.491
你不懂	-10.491
迷茫	-10.491
黑了	-10.4911
大陆	-10.4911
干的	-10.4912
明白了	-10.4917
你敢	-10.4922
▁黄	-10.4927
边度	-10.4929
家长	-10.4931
讲话	-10.4933
有创意	-10.4934
问下	-10.4934
跑步	-10.4937
为什么不	-10.4938
估	-10.4942
呃	-10.4943
谋	-10.4943
营销	-10.4944
卫视	-10.4945
干了	-10.4946
▁很好	-10.4949
不小心	-10.495
好处	-10.495
开放	-10.4952
每个人都	-10.4954
另一	-10.4955
这辈子	-10.4961
就喜欢	-10.4965
卖萌	-10.4966
▁因为我	-10.4966
梦到	-10.4967
都唔	-10.4969
明天就	-10.497
都不敢	-10.4971
000	-10.4976
释	-10.4977
厌	-10.4978
皆	-10.4978
资料	-10.498
好帅	-10.4983
▁这些	-10.4984
花园	-10.499
账	-10.499
我以为你	-10.4991
饭吃	-10.4995
凉快	-10.5
一起来	-10.5
记录	-10.5001
有缘	-10.5003
星星	-10.501
邪	-10.501
人心	-10.5012
得多	-10.5012
垫	-10.5013
丢了	-10.5014
平衡	-10.5014
高考	-10.5017
汽车	-10.5017
很高	-10.5018
▁咱们	-10.5024
无人	-10.503
帐	-10.5031
资源	-10.5032
狮子座	-10.5032
这儿	-10.5034
▁连	-10.5036
啥时	-10.5042
是吗	-10.5045
打折	-10.5045
好朋友	-10.5046
媚	-10.5048
夺	-10.5048
最美	-10.5051
信心	-10.5054
在家里	-10.5055
▁这位	-10.5056
你不知道	-10.5059
只不过	-10.5062
显得	-10.5063
谁知道	-10.5064
雄	-10.5065
绵	-10.5066
跨	-10.5066
奋斗	-10.5067
我也喜欢	-10.5078
▁看起来	-10.5078
状况	-10.5084
什么样的	-10.5086
请教	-10.5089
其实是	-10.5089
相关	-10.509
习	-10.5094
翘	-10.5101
一面	-10.5103
舍得	-10.5103
浦	-10.5105
业务	-10.5108
▁对于	-10.5118
睡眠	-10.5125
我以为	-10.5125
▁因为你	-10.5126
准确	-10.5126
醋	-10.5126
喝多了	-10.5131
还用	-10.5132
劳动	-10.5133
未必	-10.5134
竹	-10.5136
▁上次	-10.5138
正宗	-10.5139
只好	-10.514
感兴趣	-10.5141
也行	-10.5144
有这样的	-10.5148
学的	-10.5152
在路上	-10.5154
情侣	-10.5155
看来你	-10.516
健身	-10.516
往往	-10.5162
再见	-10.5162
每年	-10.5163
你今天	-10.5167
过几天	-10.5169
研	-10.517
说要	-10.5176
仅	-10.5182
清醒	-10.5184
后面的	-10.5184
那儿	-10.5184
技	-10.5185
议	-10.5185
28	-10.5186
一直很	-10.5186
和小	-10.5188
剑	-10.519
想的	-10.5192
剧情	-10.5195
钻	-10.5206
不胖	-10.5207
博主	-10.521
成绩	-10.5211
神经病	-10.5211
▁屁	-10.5215
你怎么知道	-10.5215
关注你	-10.522
要命	-10.5223
晚点	-10.5224
旦	-10.5225
我还真	-10.5227
烦躁	-10.5228
做得	-10.5229
最高	-10.5229
同你	-10.5231
真人	-10.5233
偶们	-10.5233
发泄	-10.5234
诉	-10.5241
60	-10.5245
无辜	-10.5245
吵架	-10.5246
调整	-10.5246
德国	-10.5249
没有人	-10.5251
这家	-10.5253
故意的	-10.5254
所有的	-10.5254
我都想	-10.5256
▁不行	-10.5259
扑	-10.5259
▁目前	-10.5261
拳	-10.5261
耗	-10.5261
破坏	-10.5273
贺	-10.5273
几多	-10.5276
弯	-10.5279
毛病	-10.5287
小气	-10.5291
的书	-10.5292
用户	-10.5296
优惠	-10.5297
不解释	-10.5298
我心里	-10.5305
一切都	-10.5307
也想	-10.5311
卓	-10.5315
空气	-10.5315
实习	-10.5317
被逼	-10.5323
▁明年	-10.5324
老头	-10.533
币	-10.5331
星期六	-10.5331
陶	-10.5333
出现了	-10.5333
▁我这	-10.5335
▁完全	-10.5335
▁不好意思	-10.5337
付出	-10.5338
班长	-10.5338
不着	-10.5341
传说	-10.5342
好多了	-10.5344
疑	-10.5345
外国	-10.5345
凌晨	-10.5351
我很喜欢	-10.5367
堆	-10.5367
玫瑰	-10.5369
肝	-10.5369
螃蟹	-10.5369
就当	-10.5374
权利	-10.5374
饺子	-10.5375
失望了	-10.5381
水瓶	-10.5381
生的	-10.5383
好东西	-10.5383
睡吧	-10.5385
膏	-10.5387
遮	-10.5387
不愧是	-10.5388
困难	-10.5388
▁我以为	-10.5391
爆发	-10.5395
的衣服	-10.5398
有钱人	-10.5399
▁赞	-10.5399
人地	-10.54
食物	-10.5401
锦	-10.5405
难怪	-10.5407
痛苦啊	-10.5411
沟通	-10.5413
喜欢他	-10.5413
淘	-10.5414
▁哈哈谢谢	-10.5414
世纪	-10.5417
三十	-10.5419
哪里有	-10.542
柔	-10.5423
婷	-10.5423
敏感	-10.5423
拨	-10.5423
崇拜	-10.5424
这孩子	-10.5427
蚊	-10.5428
潜	-10.543
简直就是	-10.543
▁所以我	-10.5432
▁嘿	-10.5433
太坏了	-10.5433
不再	-10.5436
帅锅	-10.5437
活了	-10.5439
非主流	-10.5442
成本	-10.5442
畜生	-10.5444
▁孩子	-10.5452
很爱	-10.5453
去啦	-10.5455
老天	-10.5456
勤	-10.5459
捉	-10.546
回国	-10.5464
你居然	-10.5467
的路上	-10.5469
这个社会	-10.5472
我们学校	-10.5477
饰	-10.5478
绝对的	-10.5482
信了	-10.5483
非常好	-10.5486
很幸福	-10.5493
粒	-10.5496
其它	-10.5497
辣椒	-10.55
一百	-10.5501
去屎	-10.5501
明晚	-10.5505
伤不起啊伤不起	-10.5507
很无奈	-10.5507
不怎么	-10.5509
四个	-10.551
听你	-10.5514
薯	-10.5515
傻子	-10.5517
穿着	-10.552
暴露	-10.5521
十五	-10.5528
一日	-10.5528
难以	-10.5529
也不知道	-10.5532
坊	-10.5533
跳舞	-10.5537
▁谢谢谢谢	-10.5539
正面	-10.5542
数字	-10.5543
是哪	-10.555
超过	-10.5552
嘘	-10.5552
观众	-10.5554
啥事	-10.5556
要不然	-10.5558
▁这年头	-10.556
以为你	-10.5563
生快	-10.5565
测试	-10.5566
教我	-10.5567
渐	-10.557
▁你是不是	-10.5571
▁它	-10.5573
有效	-10.5579
细节	-10.558
链	-10.5586
到家了	-10.5588
抖	-10.5589
微博上	-10.559
早晨	-10.5593
▁这叫	-10.5594
88	-10.5597
▁9	-10.56
将来	-10.5606
灌	-10.5607
荣幸	-10.5608
疯子	-10.5613
▁8	-10.5613
系列	-10.5614
一本	-10.5618
主席	-10.5624
曝光	-10.5628
明天去	-10.5629
老虎	-10.5631
▁你居然	-10.5632
这个时候	-10.5632
孤	-10.5642
▁至于你信不信	-10.5642
坐在	-10.5643
饿死	-10.5643
个大	-10.5644
练习	-10.5646
以前的	-10.5648
能看到	-10.5649
适合你	-10.565
病了	-10.5651
太难	-10.5655
非要	-10.5656
很痛苦	-10.5658
▁我只是	-10.5659
捧	-10.5659
▁关键	-10.5672
火星	-10.5672
当心	-10.5673
吃吃	-10.5674
苦啊	-10.5678
我们就	-10.5679
就被	-10.5684
包包	-10.5686
大美女	-10.5688
都想	-10.569
奶茶	-10.569
▁真心	-10.5694
▁我发现	-10.5695
及时	-10.5696
祈祷	-10.57
轨	-10.57
站在	-10.57
▁各种	-10.5701
长时间	-10.5704
熬夜	-10.5704
叫他	-10.5706
前途	-10.571
增加	-10.5711
太差	-10.5711
主意	-10.5716
鹅	-10.5719
崽	-10.5719
睡的	-10.5727
99	-10.5728
不回	-10.573
昨天晚上	-10.5735
屏	-10.5736
浴	-10.5738
打麻将	-10.574
一回	-10.5753
填	-10.5756
干脆	-10.5759
这是在	-10.5759
除非	-10.5761
教练	-10.5763
回来啦	-10.5765
了解我	-10.5768
搞错	-10.577
国人	-10.5772
掐	-10.5775
婚纱	-10.5776
上班了	-10.5779
来自	-10.5781
调查	-10.5784
亲亲	-10.5787
某些	-10.5795
▁谢谢你的	-10.5798
组团	-10.5798
正是	-10.5802
就不是	-10.5803
谁敢	-10.5803
这是个	-10.5808
又去	-10.5808
输了	-10.5809
死他	-10.5813
▁在哪里	-10.5815
战斗	-10.5819
南方	-10.5823
黄金	-10.5824
得罪	-10.5829
家乡	-10.5829
▁原来是	-10.5831
婚姻	-10.5832
都不是	-10.5837
▁马上	-10.5838
发挥	-10.584
▁老大	-10.584
打开	-10.5841
拿出来	-10.5841
装逼	-10.5842
放松	-10.5845
的工作	-10.5847
坏事	-10.5848
截	-10.5851
洛	-10.5851
私奔	-10.5856
抱着	-10.5857
没意思	-10.5861
劫	-10.5868
己	-10.5868
愧	-10.5869
这张照片	-10.5871
冷静	-10.5871
即可	-10.5874
可怜的孩子	-10.588
龄	-10.5882
最重要	-10.5882
不做	-10.5884
开个	-10.5886
还没到	-10.5888
泽	-10.5889
独立	-10.5892
一阵	-10.5894
世界上	-10.5899
福利	-10.5899
失落	-10.5899
撒子	-10.5902
▁我错了	-10.5906
回学校	-10.5908
仓	-10.5908
鸣	-10.5908
继续努力	-10.5909
说她	-10.591
两只	-10.5912
言论	-10.5914
这东西	-10.5916
人间	-10.5917
也喜欢	-10.5917
已经被	-10.5918
毛毛	-10.5918
的机会	-10.5918
▁建议	-10.5922
所谓的	-10.5923
那么早	-10.5924
怎么看	-10.5931
老外	-10.5939
多吃点	-10.5944
互	-10.5945
梨	-10.5946
汪	-10.5946
停车	-10.595
这些人	-10.5952
很纠结	-10.5952
们都	-10.596
嗦	-10.5966
听着	-10.5966
我昨天	-10.5967
画面	-10.597
▁怎么啦	-10.5971
福州	-10.5971
有用	-10.5972
玩意儿	-10.5982
踏	-10.5983
哗	-10.5985
酒量	-10.5989
仰	-10.6001
购买	-10.6003
胶	-10.6004
凤凰	-10.6004
蛤	-10.6004
实践	-10.6005
▁你俩	-10.6008
几张	-10.6011
哦亲	-10.6013
▁刚才	-10.6013
哎呀	-10.6017
篮球	-10.6019
来吃	-10.6019
上映	-10.6021
贤	-10.6023
遇见	-10.6026
分手	-10.6027
升级	-10.603
都得	-10.6031
又开始	-10.6033
出生	-10.6036
工具	-10.604
好孩子	-10.604
嘅	-10.6043
威胁	-10.6043
炫耀	-10.6043
保险	-10.6044
政策	-10.6045
是个好	-10.6054
▁听	-10.6058
甜蜜	-10.6059
气场	-10.6061
耐心	-10.6061
又被	-10.6063
会议	-10.6063
的社会	-10.6076
多点	-10.608
忽略	-10.6082
有感觉	-10.6083
▁乖	-10.6085
呕	-10.6101
幅	-10.6101
来北京	-10.6102
一起加油	-10.6102
婆婆	-10.6106
一身	-10.6108
好喝	-10.6108
愿望	-10.6112
亮了	-10.6112
不干	-10.6113
里有	-10.6115
在想	-10.6115
遥	-10.6118
还算	-10.6118
蛮好的	-10.612
累的	-10.6121
▁你没	-10.6126
▁我还是	-10.6127
不记得	-10.6131
公里	-10.6136
一代	-10.6138
悠	-10.6138
山东	-10.6138
趟	-10.6139
让他们	-10.6139
割	-10.614
炖	-10.614
建筑	-10.614
还以为	-10.6142
淑女	-10.6143
团队	-10.6145
来玩	-10.6151
律	-10.6152
功夫	-10.6153
都是浮云	-10.6154
▁你们两个	-10.6157
迹	-10.6158
莉	-10.616
罩	-10.616
韵	-10.616
扭	-10.6164
接着	-10.6164
资本	-10.6164
必然	-10.6165
以及	-10.6167
的想法	-10.6167
乱了	-10.617
这货	-10.6171
我发现	-10.6175
肯	-10.6176
丧	-10.6179
监督	-10.618
革命	-10.618
好歹	-10.618
欺负你	-10.618
遥远	-10.6182
▁有道理	-10.6183
看吧	-10.6185
书记	-10.6185
拍得	-10.6185
没看见	-10.619
附	-10.6197
兼	-10.6198
谢谢您	-10.6202
骗我	-10.6205
你的头像	-10.6205
昆明	-10.6206
毫无	-10.6207
的作品	-10.6208
发言	-10.6211
毁了	-10.6216
犬	-10.6219
禽兽	-10.6219
精辟	-10.6219
▁淡定	-10.622
▁好像是	-10.6221
郁闷啊	-10.6225
电子	-10.6227
差距	-10.6228
还以为你	-10.6229
演的	-10.6234
羡慕你	-10.6235
天生	-10.6238
笼	-10.6238
自动	-10.6244
▁黑	-10.6245
睡得	-10.6247
真没	-10.6249
不仅	-10.6249
一大早	-10.6256
即使	-10.6261
▁恭喜你	-10.6262
行不	-10.6265
连续	-10.6267
身份	-10.6269
著	-10.6273
持续	-10.6277
我都没	-10.6277
轩	-10.6278
注册	-10.628
事故	-10.6282
认得	-10.6297
赐	-10.6298
欧洲	-10.6298
风险	-10.6304
▁你说的	-10.6304
▁那也	-10.6306
亡	-10.6307
爆了	-10.6309
没看出来	-10.6309
活该	-10.6314
朴	-10.6318
▁我也爱	-10.6328
火了	-10.6329
揭	-10.633
之类的	-10.634
大部分	-10.6344
大餐	-10.6346
▁咋了	-10.6351
患	-10.6357
腾讯	-10.6358
找到了	-10.6361
强奸	-10.6361
梦见	-10.6365
就成	-10.6371
两点	-10.6371
要注意	-10.6373
宾	-10.6376
悬	-10.6377
显示	-10.6378
▁你喜欢	-10.6379
规定	-10.6383
达到	-10.6387
▁这里	-10.6393
曹	-10.6397
做过	-10.6399
想起来	-10.6399
▁又是	-10.6401
请关注	-10.6401
致敬	-10.6405
本书	-10.6408
四爷	-10.641
笑的	-10.6412
倩	-10.6418
哪位	-10.6418
玩笑	-10.6422
难吃	-10.6422
很容易	-10.6423
离婚	-10.6426
身份证	-10.6427
▁说的	-10.6432
▁好美	-10.6434
亲自	-10.6434
狗屎	-10.6437
现象	-10.6437
辩	-10.6438
逝	-10.6438
姿势	-10.6439
▁是我	-10.6442
错过了	-10.6444
▁什么意思	-10.6446
上火	-10.645
不是一般的	-10.6451
移	-10.6453
没发现	-10.6455
创造	-10.646
▁挺	-10.6463
穿了	-10.6463
电影院	-10.6467
▁莫	-10.6468
去北京	-10.6472
法国	-10.6474
不厚道	-10.6477
疲	-10.6478
一眼	-10.6479
面试	-10.6481
岂	-10.6483
有本事	-10.6484
造谣	-10.6493
现在才	-10.6494
下雪	-10.6494
偶遇	-10.6495
一枚	-10.6497
亿	-10.6498
飙	-10.6498
剂	-10.6498
我这里	-10.6498
坚决	-10.6504
午饭	-10.6508
好象	-10.6509
没看过	-10.6514
▁马	-10.6514
留言	-10.6517
遗	-10.6518
柴	-10.6519
总会	-10.652
最终	-10.6522
稍	-10.6522
感谢你	-10.6523
暑	-10.6533
肯定会	-10.6533
臭美	-10.6536
莱	-10.6539
霍	-10.6539
十二	-10.6543
反对	-10.6545
三点	-10.6545
信号	-10.6546
看完了	-10.6551
简单的	-10.6554
那条	-10.6555
不能吃	-10.6556
宣	-10.6557
粮	-10.6557
一下吧	-10.6559
我觉得我	-10.656
爱疯	-10.6562
辆	-10.6563
一段时间	-10.6565
乐趣	-10.6566
我决定	-10.6568
亲切	-10.6569
行不行	-10.6569
命运	-10.657
罐	-10.658
籍	-10.658
孕妇	-10.658
这才是	-10.6582
模式	-10.6582
▁让	-10.6584
的事儿	-10.6589
确实很	-10.6591
流泪	-10.6594
冤	-10.66
▁我昨天	-10.6602
搞到	-10.6603
跟谁	-10.6605
了半天	-10.6614
溪	-10.6621
策划	-10.6621
▁你也是	-10.6623
堵车	-10.6624
回不去	-10.6625
▁我真的	-10.6629
考完	-10.6632
羊肉	-10.6632
▁加油加油	-10.6633
也一样	-10.6633
有什么好	-10.6634
其他的	-10.6637
我一个人	-10.6637
谁都	-10.664
老家	-10.6641
表白	-10.6641
好幸福	-10.6642
▁难得	-10.6644
三年	-10.665
骨头	-10.6652
就是要	-10.6654
宁波	-10.6654
不服	-10.6657
好痛	-10.6658
泳	-10.666
建设	-10.666
圣诞	-10.6662
总觉得	-10.6662
那个是	-10.6665
很正常	-10.667
准备好	-10.6671
送的	-10.6675
品味	-10.6678
粪	-10.6682
啧啧	-10.6682
滋润	-10.6683
总理	-10.6683
拜托	-10.6684
队长	-10.6685
▁看看	-10.6686
70	-10.6689
看不见	-10.669
觉得自己	-10.6697
逆	-10.6703
荒	-10.6703
沈阳	-10.6704
依旧	-10.6705
要上班	-10.6707
太大了	-10.6708
看电视	-10.6708
不要这么	-10.6709
打酱油	-10.6712
妥	-10.6724
就是这么	-10.6724
昨	-10.6724
一夜	-10.6726
快要	-10.6726
一起吃	-10.6726
许多	-10.673
最大	-10.6731
需求	-10.6732
哲	-10.6737
名人	-10.6737
▁金	-10.674
举手	-10.6742
央视	-10.6745
奖品	-10.6755
过奖	-10.6756
内部	-10.6757
操作	-10.6759
可惜没	-10.6764
两位	-10.6764
抬	-10.6764
暧昧	-10.6765
跑了	-10.6776
给个	-10.6778
朋友们	-10.6781
卧	-10.6785
香蕉	-10.6787
敬业	-10.6788
觉得很	-10.679
尝	-10.6798
节日	-10.68
沾	-10.6807
鹏	-10.6807
邓	-10.6807
糊涂	-10.6808
通宵	-10.6808
实验	-10.6809
我也想去	-10.6811
比我还	-10.6813
代言	-10.6813
谣言	-10.6814
又在	-10.6818
流量	-10.6818
母亲	-10.682
那我就	-10.6822
旅	-10.6832
手指	-10.6833
▁是的是的	-10.6835
校长	-10.6835
心碎	-10.684
发表	-10.6843
好滴	-10.6844
稍微	-10.6845
洲	-10.6845
留意	-10.685
尤其	-10.6852
▁有时候	-10.6853
博客	-10.6856
有趣	-10.6857
过生日	-10.6859
另一个	-10.6864
公安	-10.6867
猫猫	-10.6868
搓	-10.687
幼稚	-10.687
这样子	-10.6871
上传	-10.6871
敢说	-10.6877
走的	-10.6878
有所	-10.688
▁我爱你	-10.6882
找找	-10.6885
她说	-10.6889
严肃	-10.6891
▁难怪	-10.6891
什么叫	-10.6896
有文化	-10.6898
的眼睛	-10.6901
欢喜	-10.6902
哪家	-10.6905
感觉很	-10.6907
桂	-10.691
不停	-10.6912
呸呸呸	-10.6912
呢个	-10.6919
对待	-10.692
海边	-10.6921
到哪	-10.6923
本质	-10.6923
总之	-10.6924
况	-10.6926
不足	-10.6928
睁	-10.6933
竞争	-10.6933
被骗	-10.6936
执行	-10.6944
乐观	-10.6944
小偷	-10.6947
有这个	-10.6947
▁今日	-10.695
申	-10.695
孙子	-10.6951
按照	-10.6953
恒	-10.6954
贸	-10.6954
植物	-10.6955
听不懂	-10.6958
算不算	-10.6959
联通	-10.6962
金牛	-10.6967
送给	-10.6968
购物	-10.6971
道歉	-10.6976
懂我	-10.6977
知足	-10.6985
下个月	-10.6986
那个时候	-10.6989
本事	-10.6991
娃儿	-10.6992
予	-10.6997
气死我了	-10.7
更多的	-10.7005
类型	-10.7017
晶	-10.7018
d	-10.7018
勿	-10.7018
几号	-10.7021
弱智	-10.7028
花花	-10.703
听过	-10.7036
胖纸	-10.7036
这个世界	-10.7038
惑	-10.7039
赫	-10.7039
早饭	-10.7042
感谢您	-10.7046
指望	-10.7046
眼里	-10.7048
谢谢亲爱的	-10.7048
泄	-10.705
不习惯	-10.7053
你认识	-10.7056
大佬	-10.7058
债	-10.7061
新年快乐	-10.7061
抱歉	-10.7061
神秘	-10.7063
行吗	-10.7064
的风格	-10.7067
我以前	-10.7068
册	-10.7068
真可怜	-10.7068
六点	-10.7071
仗	-10.7082
搞不懂	-10.7089
心情好	-10.7091
坏蛋	-10.7092
不应该	-10.7095
刘海	-10.7097
怎么就	-10.71
中山	-10.7103
冯	-10.7104
销魂	-10.7104
参观	-10.7106
玩微博	-10.7109
丸子	-10.7116
▁好嘛	-10.712
我可是	-10.7126
发个	-10.7127
涨价	-10.7131
肉肉	-10.7134
这样的人	-10.7137
师父	-10.7138
稳定	-10.7139
我只能	-10.7139
谁呢	-10.7142
才对	-10.7145
自杀	-10.7146
蒋	-10.7147
肉麻	-10.7148
中毒	-10.715
商量	-10.7158
▁那就是	-10.7159
理性	-10.7162
拒	-10.7165
哪些	-10.7165
阔	-10.7169
合理	-10.7187
全身	-10.7188
宏	-10.719
让自己	-10.7191
虚伪	-10.7192
天秤	-10.7193
广播	-10.7194
醒来	-10.7195
胡子	-10.7198
▁生活	-10.72
企	-10.7204
保养	-10.7205
奏	-10.721
妃	-10.7212
闺女	-10.7216
悲催了	-10.7216
你儿子	-10.7218
很期待	-10.7218
来不及	-10.7218
不远	-10.7221
有得	-10.7222
唔知	-10.7224
恭喜恭喜	-10.7224
跟她	-10.7226
好饿	-10.7231
▁当然是	-10.7233
沉默	-10.7234
不是我的	-10.7236
太美了	-10.7237
纪	-10.7247
看不出	-10.7248
券	-10.7256
恐怕	-10.726
▁我们都	-10.7261
我也不想	-10.7262
崩溃了	-10.7266
放过	-10.7269
夫人	-10.727
总比	-10.7277
好样的	-10.728
26	-10.7282
浙江	-10.7282
▁个么	-10.7285
屁屁	-10.7286
天真	-10.7289
打扮	-10.7295
洒	-10.7299
盟	-10.73
床上	-10.7309
大姨妈	-10.7312
都不想	-10.7312
不通	-10.7317
手上	-10.7318
可怜的娃	-10.732
吐了	-10.7321
招呼	-10.7325
统一	-10.7328
好快	-10.733
休假	-10.7334
真理	-10.7335
分子	-10.7339
语文	-10.734
沈	-10.7342
挺好看的	-10.7342
渡	-10.7344
弄得	-10.7347
怪我	-10.7352
中医	-10.7361
繁	-10.7366
一瓶	-10.7366
五毛	-10.7369
要买	-10.7371
刺激我	-10.7372
真可爱	-10.7374
已经是	-10.7379
奋	-10.7386
北方	-10.7386
镜子	-10.7389
更美	-10.7389
创业	-10.7389
你又不	-10.739
总算	-10.739
伟大的	-10.7392
电视台	-10.7392
均	-10.7394
马路	-10.7395
长发	-10.7397
夜宵	-10.7402
你肯定	-10.7404
辣的	-10.7405
的世界	-10.7405
构	-10.7406
煎	-10.7409
打击我	-10.7409
世道	-10.7409
召	-10.741
脆弱	-10.741
没吃过	-10.741
规律	-10.741
带点	-10.741
傻了	-10.7412
纠结了	-10.7414
体现	-10.7419
边上	-10.7419
棒子	-10.7427
播出	-10.7429
九点	-10.7431
引起	-10.7431
回归	-10.7438
这么久	-10.7441
▁我还没	-10.7448
天堂	-10.7449
等着你	-10.7449
椒	-10.7449
融	-10.7451
搞基	-10.7452
喉咙	-10.7454
坨	-10.7454
雀	-10.7454
权力	-10.7455
利用	-10.7456
可能会	-10.7456
没文化	-10.7456
耍流氓	-10.7462
黄色	-10.7463
呜	-10.7476
壁	-10.7476
热爱	-10.7494
没去过	-10.7495
外婆	-10.7498
科技	-10.7499
寸	-10.7499
纵	-10.7499
▁朋友	-10.7501
就好啦	-10.7502
也是一种	-10.7502
汇报	-10.7505
5555	-10.7509
改名	-10.7513
还有个	-10.7514
序	-10.752
温馨	-10.7522
地上	-10.7523
同感	-10.7524
超好	-10.7526
梦里	-10.7535
这年头	-10.7535
在微博上	-10.7539
怎么可以	-10.7539
栏	-10.7544
海底捞	-10.7544
巷	-10.7544
杠	-10.7544
赠	-10.7544
扯淡	-10.7547
都不能	-10.7552
原来你	-10.7561
验	-10.7562
猪头	-10.7564
路口	-10.7564
号线	-10.7565
▁那不是	-10.7566
雾	-10.7566
的手机	-10.7567
化了	-10.7569
农村	-10.757
在哪里啊	-10.7585
外卖	-10.7585
嫂子	-10.7588
怡	-10.7589
特殊	-10.759
天天都	-10.7602
身高	-10.7605
援	-10.7612
颖	-10.7612
▁你今天	-10.7613
还好吧	-10.7613
很赞	-10.7614
前天	-10.7616
往事	-10.7618
无语了	-10.7618
抽烟	-10.7619
请我吃饭	-10.762
力气	-10.762
赞一个	-10.7624
其他人	-10.7626
鉴	-10.7631
忠	-10.7632
▁天啊	-10.7633
珊	-10.7634
讽刺	-10.7634
贤惠	-10.7635
明早	-10.7636
暗恋	-10.7636
肌肉	-10.7637
胜利	-10.764
好友	-10.7642
临时	-10.7646
后悔了	-10.7648
当真	-10.7652
芝	-10.7656
抠	-10.7657
碍	-10.7657
肖	-10.7657
▁我也很	-10.7659
虐待	-10.766
他俩	-10.7664
真够	-10.7664
呼呼	-10.7664
就该	-10.7665
555555	-10.7666
帽	-10.7666
自从	-10.7667
安静	-10.7668
我才不	-10.7669
手里	-10.7669
某些人	-10.767
累死	-10.7671
罢	-10.7673
日日	-10.7674
点解	-10.7674
察	-10.7675
茫	-10.7678
一齐	-10.7679
不了解	-10.7679
悄悄	-10.768
快女	-10.768
治疗	-10.7681
而不是	-10.7681
密码	-10.7682
老乡	-10.7683
形式	-10.7684
三亚	-10.7693
长期	-10.7697
你信不信	-10.7703
攻击	-10.7704
超越	-10.7708
十三	-10.771
被你发现了	-10.7711
某个	-10.7712
早上好	-10.7713
正义	-10.7717
深深	-10.7719
手艺	-10.7722
怂	-10.7726
万恶的	-10.7726
拉拉	-10.7727
公平	-10.7727
艳遇	-10.7733
谎	-10.7747
祥	-10.7748
我宁愿	-10.7748
感触	-10.7751
个毛	-10.7754
到最后	-10.7759
保安	-10.7771
炉	-10.7772
塘	-10.7772
``	-10.7772
妹儿	-10.7774
▁是哦	-10.7776
所以才	-10.778
女友	-10.7782
频道	-10.7782
即将	-10.7785
▁我看到	-10.7788
一时	-10.7789
掩	-10.7794
奖励	-10.7795
太过分了	-10.7799
生物	-10.7799
段时间	-10.7803
楚	-10.7805
有病	-10.7808
好好的	-10.7808
真是太	-10.7816
碧	-10.7818
辟谣	-10.7818
高跟鞋	-10.7818
因为你	-10.7818
真是个	-10.7821
深度	-10.7823
当地	-10.7824
混乱	-10.7825
再看	-10.7828
喜欢她	-10.783
不错吧	-10.783
那么久	-10.7833
几岁	-10.7835
好久没见	-10.784
这部	-10.7841
贡献	-10.7841
反映	-10.7842
制作	-10.7844
光棍	-10.7846
好好玩	-10.7849
暴雨	-10.7851
▁你自己	-10.7852
在做	-10.7857
泼	-10.7861
▁海	-10.7862
谢谢夸奖	-10.7862
衫	-10.7864
玻璃	-10.7864
痘痘	-10.7864
答应	-10.7867
吃火锅	-10.7868
心事	-10.7872
我就喜欢	-10.7873
傻瓜	-10.7876
和尚	-10.7877
我们这些	-10.788
导致	-10.7883
后果	-10.7887
过瘾	-10.789
地区	-10.789
强烈要求	-10.789
进来	-10.7892
面膜	-10.7893
个个都	-10.7901
请我吃	-10.7905
营业	-10.7909
我刚刚	-10.7909
坡	-10.7911
宴	-10.7911
愈	-10.7911
立马	-10.7911
感觉到	-10.7913
出国	-10.7917
限制	-10.7917
好好吃	-10.7918
高速	-10.7918
超喜欢	-10.792
如今	-10.7921
要不你	-10.7927
石头	-10.7934
橙	-10.7934
栋	-10.7934
获	-10.7934
辞职	-10.7935
劳资	-10.7935
女王	-10.7938
白菜	-10.794
一号	-10.794
和你们	-10.7943
不愿意	-10.7945
回北京	-10.7948
参考	-10.7953
对着	-10.7954
不幸	-10.7962
▁是阿	-10.7965
握手	-10.7966
系米	-10.7969
喝水	-10.7971
鸭子	-10.7975
你也可以	-10.7978
尽快	-10.7979
衬	-10.7981
雯	-10.7981
▁我觉得我	-10.7982
犯罪	-10.7984
酸奶	-10.7988
消灭	-10.799
我也去	-10.7993
不要再	-10.7994
我知道你	-10.7995
我不喜欢	-10.7998
天空	-10.8004
扶	-10.8004
宇宙	-10.8004
有一天	-10.8005
我还以为是	-10.8008
格格	-10.8011
和谁	-10.8016
▁不是说	-10.8023
集团	-10.8024
滩	-10.8027
日本人	-10.8028
霜	-10.8028
馒头	-10.8028
▁嗯嗯嗯	-10.8031
坐等	-10.8033
中央	-10.8034
丸	-10.8038
这段	-10.8042
做法	-10.8043
我的最爱	-10.8054
孩子们	-10.8055
交警	-10.8059
的力量	-10.8059
放下	-10.8065
烦死了	-10.8065
的节目	-10.8066
体力	-10.8071
看见你	-10.8071
筋	-10.8074
▁你妹的	-10.8074
愚	-10.8075
压抑	-10.8076
找人	-10.808
的眼神	-10.8082
股票	-10.8084
缺德	-10.8085
人气	-10.8085
▁我们是	-10.8091
霉	-10.8096
宰	-10.8099
默契	-10.8099
要不要这么	-10.81
▁哇靠	-10.8101
胆子	-10.8103
27	-10.8106
还有什么	-10.8107
千万	-10.811
尴尬	-10.8123
谈恋爱	-10.8126
心思	-10.813
推广	-10.813
跟你们	-10.8135
累死了	-10.8136
就是这个	-10.814
榜	-10.8144
装嫩	-10.8145
幻想	-10.8145
右边的	-10.8146
我儿子	-10.8146
都木有	-10.8146
掏	-10.8147
^^	-10.8147
这周	-10.8149
信仰	-10.8151
承受	-10.8152
聚聚	-10.8152
低调低调	-10.8153
触	-10.8166
有必要	-10.8167
教你	-10.8168
大多数	-10.8171
判断	-10.8173
提示	-10.8175
就对了	-10.8176
不完	-10.8179
搭配	-10.8179
完整	-10.8181
看懂	-10.8182
这种事	-10.8186
晚餐	-10.8188
电信	-10.8191
一个星期	-10.8191
薪	-10.8195
好好学习	-10.8195
在网上	-10.8199
想象力	-10.8202
答对了	-10.8211
不重要	-10.8212
清纯	-10.8213
坐车	-10.8215
针对	-10.8216
没良心的	-10.8218
▁你终于	-10.8218
逮	-10.8219
抓狂	-10.8225
您是	-10.8234
对话	-10.8239
真幸福	-10.824
猪肉	-10.824
赤	-10.8243
移民	-10.8245
噶啦	-10.8247
的确是	-10.8257
珍	-10.8258
翠	-10.8267
诈	-10.8267
纯粹	-10.8267
亲戚	-10.8269
女神	-10.827
值班	-10.8271
手段	-10.8275
开业	-10.8276
无数	-10.8278
包邮	-10.8279
头上	-10.828
百年	-10.8281
一双	-10.8282
反而	-10.8289
是指	-10.8289
蹲	-10.8291
就不用	-10.8293
感恩	-10.8293
组合	-10.8296
食欲	-10.8298
下午茶	-10.8301
黄瓜	-10.8305
别太	-10.8306
骗你	-10.8307
没看懂	-10.8307
年底	-10.8307
算什么	-10.8309
骗人的	-10.8311
滨	-10.8315
显然	-10.8318
听话	-10.8318
扰	-10.8327
▁谢谢您的	-10.8328
杯子	-10.8334
孝	-10.8339
旋	-10.834
强悍	-10.8343
好惨	-10.8345
半小时	-10.8346
很难过	-10.8346
门票	-10.8348
很难受	-10.8352
我好想	-10.8353
做事	-10.8358
忐忑	-10.8364
彭	-10.8364
憔悴	-10.8364
并且	-10.8366
周围	-10.8375
有关系	-10.8376
说的话	-10.8383
男友	-10.8386
竟	-10.8387
扇	-10.8394
九月	-10.8398
孩儿	-10.8401
基友	-10.8407
会变	-10.8411
舟	-10.8413
拽	-10.8413
漠	-10.8413
蘑菇	-10.8413
专辑	-10.8413
中华	-10.8418
穷人	-10.8422
认同	-10.8423
一般都	-10.8426
真美	-10.8431
最佳	-10.8431
嘿嘿嘿	-10.8433
爪子	-10.8435
劝	-10.8438
气氛	-10.8438
忧郁	-10.8438
一刻	-10.8439
这么快	-10.8452
钱包	-10.8452
显摆	-10.8457
33	-10.8457
迎	-10.8459
很明显	-10.8463
群里	-10.847
2011	-10.8476
很高兴	-10.848
造成	-10.8485
不理我	-10.849
玩具	-10.8491
太棒了	-10.8492
小米	-10.8492
这个名字	-10.8499
就那么	-10.8504
弄死	-10.8507
当然是	-10.8509
下雨了	-10.8509
富二代	-10.8512
凄凉	-10.8512
编辑	-10.8512
闷骚	-10.8515
我都快	-10.8515
记性	-10.8517
在等	-10.8521
▁别这样	-10.8526
你老婆	-10.8526
办事	-10.8528
真不知道	-10.8531
宠	-10.8535
糟	-10.8536
崔	-10.8537
煤	-10.8537
缝	-10.8537
吞	-10.8537
出事	-10.8537
嘉宾	-10.8537
作孽	-10.8538
嘲笑	-10.8539
太有才了	-10.854
冰箱	-10.854
嗓子	-10.854
出息	-10.8541
几个月	-10.8542
几个人	-10.8545
伤不起呀	-10.8554
不太好	-10.8556
我还想	-10.8556
灭了	-10.8557
学期	-10.8557
▁谢谢哈	-10.856
障	-10.856
微笑	-10.8561
一碗	-10.8563
去医院	-10.8563
生病了	-10.8566
原则	-10.8567
流口水	-10.8568
有同感	-10.8571
斯文	-10.8575
向往	-10.8575
不睡觉	-10.8577
你啥时候	-10.8586
撕	-10.8586
热烈欢迎	-10.8586
牺牲	-10.8586
卢	-10.8586
恐惧	-10.8586
素颜	-10.859
宝贝儿	-10.8594
在广州	-10.8597
代价	-10.8599
一下子	-10.8599
夸我	-10.86
下手	-10.86
挺喜欢	-10.861
默	-10.861
)	-10.8611
螺	-10.8611
鉴定完毕	-10.8611
一个小时	-10.8613
刚开始	-10.8619
背影	-10.862
公交车	-10.8622
河南	-10.8624
那些人	-10.8625
那段	-10.8631
打工	-10.8633
婶	-10.8636
豁	-10.8636
馅	-10.8636
抗议	-10.8637
鼓掌	-10.8637
头疼	-10.8638
问一下	-10.8638
留给	-10.864
尾巴	-10.8641
拿着	-10.8641
善良的	-10.8644
重点是	-10.8644
公共	-10.8647
是多么	-10.8649
别忘了	-10.8654
酱油	-10.8655
我估计	-10.8656
在里面	-10.8659
侯	-10.8662
辱	-10.8662
矫情	-10.8662
贪官	-10.8664
女主角	-10.8665
龙虾	-10.8667
级别	-10.8671
给钱	-10.8672
我身边	-10.8673
玉米	-10.8676
光临	-10.8678
炫	-10.8687
彬	-10.8687
叨	-10.8687
辐射	-10.8687
驾驶	-10.8687
迟早	-10.8689
想买	-10.869
去找你	-10.8691
过两天	-10.8708
出手	-10.8709
撤	-10.8712
真诚	-10.8719
意思是	-10.8722
地下	-10.8723
喜感	-10.8726
谁呀	-10.8731
慈	-10.8736
污染	-10.8738
不叫我	-10.874
有限	-10.874
饮料	-10.8741
没机会	-10.8742
▁同问	-10.8748
桌子	-10.8752
恐	-10.8753
有几个	-10.8762
扒	-10.8763
灿烂	-10.8763
宠物	-10.8764
幸亏	-10.8765
队伍	-10.8768
29	-10.8772
相片	-10.8781
加油吧	-10.8782
学姐	-10.8784
有一种	-10.8788
壶	-10.8788
我手机	-10.8793
靓仔	-10.8795
这只	-10.8797
点击	-10.88
这个可以有	-10.8809
他家	-10.8812
蒽	-10.8814
霞	-10.8814
何况	-10.8816
你们两个	-10.8818
很强大	-10.882
排骨	-10.8822
最新	-10.8829
奈	-10.8829
最怕	-10.883
唔到	-10.8831
假装	-10.8833
淹	-10.8839
替你	-10.8845
凭什么	-10.8847
相对	-10.8849
贴心	-10.885
极品	-10.8851
有意义	-10.8852
丢脸	-10.8857
粘	-10.8865
御	-10.8865
震撼	-10.8865
僵尸	-10.8865
像个	-10.8866
亲爱滴	-10.8866
根本不	-10.8866
早晚	-10.8866
复习	-10.8866
郑州	-10.8867
▁传说中的	-10.8867
太平	-10.8869
师妹	-10.887
什么地方	-10.8871
增肥	-10.8871
制造	-10.8872
我就说	-10.8873
下次去	-10.8875
福气	-10.8877
随意	-10.888
一晚上	-10.8881
值钱	-10.8887
55555	-10.8888
乡下	-10.8888
促	-10.8891
拦	-10.8891
至今	-10.8895
慢慢来	-10.8901
作者	-10.8905
称呼	-10.8913
说啥	-10.8914
讯	-10.8916
缺乏	-10.8917
不上班	-10.893
已婚	-10.8935
尺	-10.8939
喝咖啡	-10.8944
翻来	-10.8944
好期待	-10.8945
在床上	-10.8952
收入	-10.8954
泡面	-10.896
是伐	-10.8963
整理	-10.8965
请吃饭	-10.8967
妳	-10.8968
论文	-10.8969
产生	-10.8969
按摩	-10.897
平台	-10.8973
恭喜你	-10.8976
很快就	-10.8984
来上海	-10.8985
坚决不	-10.8987
红包	-10.8989
纠	-10.899
的人儿	-10.8993
自觉	-10.8993
楠	-10.8994
干部	-10.8999
哲学	-10.9003
应该会	-10.9005
仔细看	-10.9008
有点儿	-10.9009
菊	-10.9013
停电	-10.9015
全球	-10.9018
管用	-10.902
熙	-10.902
秦	-10.902
蹦	-10.902
物价	-10.9024
今早	-10.903
典型的	-10.9038
我要吃	-10.9044
▁不要这样	-10.9046
肩	-10.9046
惬意	-10.9046
伸	-10.9046
没事儿	-10.9048
可不可以	-10.905
补充	-10.9051
星期一	-10.9055
房价	-10.9057
对他	-10.9062
结合	-10.9063
最重要的	-10.9064
济	-10.9069
麻木	-10.9071
攒	-10.9072
煲	-10.9072
番茄	-10.9072
是什么意思	-10.9075
互粉	-10.9076
原创	-10.9076
一看就是	-10.908
那么快	-10.9081
个性	-10.9085
小清新	-10.9087
统	-10.9089
去不了	-10.9093
早点睡	-10.9093
好多年	-10.9098
步步惊心	-10.9099
逢	-10.9099
高度	-10.91
年级	-10.9102
好日子	-10.9105
吃完了	-10.9108
秘书	-10.9108
太可怜了	-10.9109
系边	-10.9109
太重	-10.911
预定	-10.9113
挣	-10.9118
就是因为	-10.9119
太狠了	-10.9122
忌	-10.9125
玄	-10.9125
一岁	-10.9125
干嘛呢	-10.9125
论坛	-10.9126
阻止	-10.9126
▁就你	-10.9127
灵魂	-10.9127
仲有	-10.9128
意境	-10.9135
效率	-10.914
糕	-10.914
不错不错	-10.9148
▁你是说	-10.9151
计算	-10.9151
早说	-10.9153
给你买	-10.9154
鸽子	-10.9155
我们班	-10.9162
阿哥	-10.9162
听见	-10.9163
年后	-10.917
接近	-10.917
太帅了	-10.9177
阻	-10.9177
吕	-10.9178
誓	-10.9178
材料	-10.918
成日	-10.9186
会员	-10.9191
不错嘛	-10.9194
更健康	-10.9195
在外	-10.9197
才看到	-10.9198
振	-10.9204
刊	-10.9204
等会	-10.9206
无力	-10.9206
抵制	-10.9207
欲望	-10.9207
小黑	-10.9211
带个	-10.9212
广大	-10.9213
我正在	-10.9226
躁	-10.9226
小样	-10.9226
孕	-10.9229
这个词	-10.9231
眼熟	-10.9232
资本主义	-10.9232
发财	-10.9233
于是	-10.9234
潜水	-10.9241
小伙子	-10.9243
周四	-10.9244
消化	-10.9247
每周	-10.9248
固	-10.9251
好困	-10.9252
拌	-10.9258
鑫	-10.9258
鹿	-10.9258
平常	-10.9258
这家伙	-10.9258
范围	-10.926
一道	-10.9261
光头	-10.9261
享	-10.9264
投票	-10.9271
确	-10.9272
▁我觉得你	-10.9274
谱	-10.9279
坐着	-10.928
我天天	-10.928
为神马	-10.9281
涵	-10.9281
下次再	-10.9284
首先	-10.9286
好伤心	-10.9289
好难受	-10.9291
外表	-10.9301
很简单	-10.9302
时期	-10.9303
走走	-10.9305
晋	-10.9311
洪辰	-10.9311
老年人	-10.9313
什么时候回来	-10.9317
相互	-10.9317
不急	-10.9325
饭店	-10.9326
地儿	-10.9327
用手机	-10.9327
洗洗	-10.9329
买不起	-10.9332
男子	-10.9334
生个	-10.9335
拉黑	-10.9338
囖	-10.9338
筒	-10.9338
硕	-10.9338
没空	-10.934
济南	-10.934
家属	-10.934
动物园	-10.9341
再加	-10.935
创新	-10.9354
真系好	-10.936
星期五	-10.9363
逐	-10.9365
可见	-10.937
柏	-10.9392
给他们	-10.9395
清新	-10.9396
主角	-10.9402
很郁闷	-10.9405
嗨皮	-10.9405
试下	-10.9412
免得	-10.9415
▁那你就	-10.9417
爱死	-10.9419
幂	-10.9419
摸摸	-10.9423
我们公司	-10.9429
加油加油	-10.9433
嗯嗯	-10.9433
改成	-10.9434
你都不	-10.9435
这回	-10.9435
同桌	-10.9437
吃多了	-10.944
你帮我	-10.944
少吃	-10.9442
扩	-10.9446
趋势	-10.9446
我还是喜欢	-10.9451
哪来的	-10.9452
祝您	-10.9453
介么	-10.9458
同行	-10.9458
没必要	-10.946
还有很多	-10.9464
请你吃饭	-10.9465
很好听	-10.9469
有何	-10.947
径	-10.9473
来得及	-10.9474
人民币	-10.9476
不能说	-10.9478
夜晚	-10.9481
父亲	-10.9482
包养	-10.9491
好的好的	-10.9491
一副	-10.9493
▁这是哪	-10.9494
毅	-10.9501
唇	-10.9501
这玩意	-10.9503
看不起	-10.9504
你比我	-10.9507
一部分	-10.9509
很遗憾	-10.9513
天地	-10.9517
原谅我	-10.9518
替我	-10.952
肺	-10.9528
不方便	-10.9529
勉强	-10.9529
分开	-10.9531
对比	-10.9532
靠近	-10.9535
报警	-10.9539
金钱	-10.9545
相思	-10.9546
品种	-10.9547
虽	-10.9553
束	-10.9554
绑	-10.9554
一帮	-10.956
带上我	-10.9565
动手	-10.9566
我们这里	-10.957
唱得	-10.957
确认	-10.9571
底线	-10.9572
做咩	-10.9575
度假	-10.958
对手	-10.9583
扛	-10.9583
抚	-10.9583
▁其实是	-10.9584
一致	-10.9589
不久	-10.9595
乐意	-10.9599
先把	-10.9602
超人	-10.9608
这款	-10.9609
给你带	-10.961
措	-10.9611
意大利	-10.9611
我怕我	-10.9619
很怀念	-10.9619
能否	-10.9622
买单	-10.9631
述	-10.9638
共勉	-10.9639
招人	-10.964
上升	-10.964
交给	-10.9642
也是个	-10.9643
爱国	-10.9647
爱你们	-10.9654
把握	-10.9655
很强	-10.9659
街上	-10.9662
执着	-10.9662
不理你	-10.9664
场面	-10.9666
▁如果你	-10.9669
大声	-10.9672
好几天	-10.9675
预约	-10.9675
▁恩恩恩	-10.9675
安全感	-10.9675
猫咪	-10.9675
我终于	-10.9676
好消息	-10.968
一圈	-10.9687
信任	-10.969
还是蛮	-10.9692
碟	-10.9694
外星人	-10.9694
兼职	-10.9695
考察	-10.9697
感悟	-10.97
想问	-10.9701
罪过	-10.9706
要小心	-10.9707
心动	-10.9709
南宁	-10.971
小心点	-10.9718
太恶心了	-10.9718
厨房	-10.9718
从此	-10.972
萧	-10.9722
卸	-10.9722
一趟	-10.9723
到北京	-10.9725
正太	-10.9726
帝都	-10.9726
金融	-10.9727
▁你确定	-10.9734
▁我是说	-10.9735
忧伤	-10.9739
我妹	-10.9743
吃屎	-10.9745
西湖	-10.9746
好想吃	-10.9748
一言难尽	-10.975
’	-10.975
早点休息	-10.9757
玩的开心	-10.9757
节快乐	-10.9769
不承认	-10.977
这也是	-10.9773
期间	-10.9774
还需要	-10.9775
我也没	-10.9776
娟	-10.9778
惆怅	-10.9778
翼	-10.9778
菇	-10.9778
碑	-10.9778
莫名其妙	-10.9778
接触	-10.9781
网友	-10.9782
必须要	-10.9783
暂	-10.9784
性别	-10.9794
大半夜的	-10.9795
宗	-10.98
在干嘛	-10.9802
须	-10.9805
才叫	-10.9806
哑	-10.9806
都被你	-10.9807
合影	-10.9811
跑去	-10.9813
学长	-10.9821
咋地	-10.9822
笑得	-10.9824
诗人	-10.9825
通常	-10.9826
头痛	-10.983
星巴克	-10.9835
廉	-10.9835
雕	-10.9835
豆豆	-10.9835
呼吸	-10.9836
很无聊	-10.9839
价钱	-10.9841
客观	-10.9844
祝你生日快乐	-10.9845
大胆	-10.9847
出版	-10.9848
风雨	-10.9855
就够了	-10.9855
外国人	-10.9856
前两天	-10.9859
穿上	-10.986
傲	-10.9863
莹	-10.9863
庙	-10.9863
夜猫子	-10.9863
▁那是因为	-10.9865
打错了	-10.9865
抱怨	-10.9866
讲究	-10.9866
星期天	-10.9873
好些	-10.9874
十四	-10.9876
府	-10.9891
沦	-10.9891
瑶	-10.9891
缠	-10.9891
qq	-10.9891
榴莲	-10.9892
掌握	-10.9892
忍住	-10.9892
预计	-10.9894
流浪	-10.9901
挥	-10.9906
诱人	-10.9912
伦家	-10.9915
台词	-10.9917
姐们	-10.992
氏	-10.992
吓唬	-10.992
残酷	-10.9923
专一	-10.9923
大腿	-10.9926
微信	-10.9926
小弟	-10.9927
今天下午	-10.9932
猜猜	-10.9939
勤劳	-10.9947
抛	-10.9948
哉	-10.9948
挂住	-10.995
有味道	-10.9951
让你们	-10.9952
可耻	-10.9959
好不容易	-10.9959
不好玩	-10.996
说的对	-10.9964
300	-10.9974
剃	-10.9977
接到	-10.9982
是不是很	-10.9986
不正常	-10.9986
指点	-10.9988
的要死	-10.9988
狗屁	-10.9996
好冷	-10.9997
杀手	-11.0005
媛	-11.0006
哈尔滨	-11.0006
蒜	-11.0006
锤	-11.0006
刘忻	-11.0006
非洲	-11.0008
印度	-11.0014
脑壳	-11.0017
屏幕	-11.0019
温度	-11.0019
乱说	-11.0026
生存	-11.0027
方案	-11.0027
逸	-11.0032
肌	-11.0032
小狗	-11.0033
僧	-11.0035
庸	-11.0035
盯	-11.0035
麻痹	-11.0035
忽然	-11.0037
徒弟	-11.0037
饮食	-11.005
中年	-11.0053
极度	-11.0056
课程	-11.0059
白白	-11.006
八月	-11.0066
真开心	-11.0069
好烦	-11.007
是男的	-11.0073
喜欢就好	-11.0073
好几个	-11.0075
孩	-11.0081
应该不会	-11.0084
走起	-11.0084
伍	-11.0086
▁您好	-11.0088
遵	-11.0093
鞭	-11.0093
稀罕	-11.0093
新浪微博	-11.0094
这么多人	-11.0094
评委	-11.0095
你说我	-11.0095
张照片	-11.0096
诚意	-11.0099
一定要去	-11.0102
好难过	-11.0107
不必	-11.0109
35	-11.0109
腔	-11.012
写得	-11.0121
厄	-11.0122
新加坡	-11.0122
覆	-11.0122
披	-11.0122
抄袭	-11.0122
也祝你	-11.0122
这件事	-11.0126
想不到	-11.0132
那啥	-11.0133
就是传说中的	-11.0135
最帅	-11.014
生活中	-11.0142
一点也不	-11.0143
啦啦啦啦啦	-11.0146
黑社会	-11.0147
痘	-11.015
伏	-11.015
斌	-11.0151
棋	-11.0151
燥	-11.0151
弥	-11.0151
计较	-11.0151
月初	-11.0155
篮	-11.0157
所以要	-11.0159
吓死我了	-11.0163
早已	-11.0167
做不到	-11.0167
报应	-11.0169
粗口	-11.0171
必要	-11.0172
夕	-11.0178
辞	-11.0179
点评	-11.018
袁	-11.018
光明	-11.0186
已经开始	-11.019
那么多人	-11.0192
珠海	-11.0194
想当年	-11.0196
骂他	-11.0198
没找到	-11.0199
物质	-11.02
那么晚	-11.0206
肯定要	-11.0207
不顺	-11.0208
彻	-11.0208
小妹	-11.0208
▁这是哪里	-11.021
老爷	-11.0214
单反	-11.0221
咋这么	-11.0225
和我一样	-11.0226
刚从	-11.0228
每一天	-11.0229
45	-11.0234
这么多年	-11.0238
到达	-11.0238
枝	-11.0239
蝴蝶	-11.0239
含蓄	-11.0239
行程	-11.0239
准时	-11.0241
常常	-11.0245
耻	-11.0247
你说呢	-11.0248
远离	-11.0254
没劲	-11.0254
瓶子	-11.0255
一首	-11.0258
囊	-11.0268
骑车	-11.0269
吐槽	-11.027
觉悟	-11.0272
股市	-11.0272
那是相当	-11.0282
很爽	-11.0283
大厦	-11.0284
果果	-11.0286
品位	-11.0289
裂	-11.0293
是最好的	-11.0296
箭	-11.0298
毛线	-11.0298
规划	-11.0299
我都不知道	-11.0299
桂林	-11.03
谢谢亲	-11.0301
带走	-11.0302
著名	-11.0305
去上海	-11.0312
凌	-11.0318
还木有	-11.0319
包装	-11.0322
缺少	-11.0326
友情	-11.0327
崩	-11.0327
乱七八糟	-11.0327
伺候	-11.0327
恶劣	-11.0329
膜拜	-11.0331
传染	-11.0331
报销	-11.0334
安徽	-11.0334
很伤心	-11.0341
迷人	-11.0348
情节	-11.035
带回来	-11.0351
怎么又	-11.0356
拯救	-11.0357
肾	-11.0357
驻	-11.0357
近期	-11.0361
送给你	-11.0369
欢迎来	-11.0372
万达	-11.038
会计	-11.0384
踪	-11.0386
霖	-11.0387
关机	-11.0388
煽情	-11.0389
是好事	-11.0389
还好啦	-11.0393
这个样子	-11.0394
背着	-11.0394
你爸	-11.0397
发达	-11.0398
秒杀	-11.0402
底下	-11.0403
下次来	-11.0406
里面有	-11.0407
赞成	-11.0412
服装	-11.0417
使劲	-11.0417
幼	-11.0417
k	-11.0417
赞助	-11.0423
都未	-11.0432
好无聊	-11.0433
差别	-11.0433
聪	-11.0435
提到	-11.0436
部长	-11.0439
乐乐	-11.044
能找到	-11.0442
肤	-11.0444
现在还在	-11.0446
耀	-11.0447
燃	-11.0447
谭	-11.0447
钥匙	-11.0447
造孽	-11.0448
温泉	-11.0449
发短信	-11.045
很厉害	-11.0451
今天早上	-11.0451
▁哇噻	-11.0453
挣钱	-11.0454
现在开始	-11.0454
我当时	-11.0461
娜娜	-11.0461
瘦子	-11.0463
相爱	-11.0463
喝醉	-11.0464
抓住	-11.0467
坛	-11.0476
大片	-11.0477
男银	-11.0477
周年	-11.048
心脏	-11.048
出口	-11.0485
浑身	-11.0487
我们俩	-11.0488
难听	-11.0491
真的假的	-11.0498
一般人	-11.0499
大方	-11.0501
奥特曼	-11.0507
璐	-11.0507
咒	-11.0507
筹	-11.0507
越南	-11.0509
年纪大了	-11.051
庭	-11.0511
充实	-11.0513
晕死	-11.0513
好辛苦	-11.0515
大牌	-11.0521
我妈说	-11.0523
做广告	-11.0528
足够	-11.0529
符	-11.0535
苦命	-11.0537
岳	-11.0538
铃	-11.0538
质疑	-11.0539
澳门	-11.054
在意	-11.0549
看成	-11.055
贴切	-11.0551
大学生	-11.0563
舅	-11.0568
熏	-11.0568
诸	-11.0568
南昌	-11.0572
发布会	-11.0575
微波	-11.0576
舞台	-11.0579
小美女	-11.0579
党员	-11.0581
美容	-11.0584
处女	-11.0586
花生	-11.0587
重视	-11.0591
地位	-11.0596
是用来	-11.0598
携	-11.0599
捷	-11.0599
平静	-11.0605
班主任	-11.0606
客人	-11.0628
污	-11.0628
涩	-11.0629
锐	-11.0629
酱紫	-11.063
互动	-11.0634
拼命	-11.064
关门	-11.0643
天然	-11.0643
发觉	-11.0645
两张	-11.0651
阅	-11.0652
此刻	-11.0654
滋	-11.0655
躺着	-11.0656
超爱	-11.0657
舌	-11.0658
落后	-11.0659
仍	-11.0659
师弟	-11.0659
思路	-11.0659
辰	-11.066
小胖	-11.066
啦啦啦啦	-11.066
邦	-11.066
麦当劳	-11.066
▁对对对	-11.066
果个	-11.0661
很多人都	-11.0664
寿司	-11.0666
文学	-11.0666
祝你们	-11.0667
谁能	-11.0668
马甲	-11.067
想吐	-11.0674
神仙	-11.0675
只剩	-11.0678
你的微博	-11.0682
这事儿	-11.0686
庚	-11.0691
规则	-11.0692
朝鲜	-11.0693
鉴定	-11.0695
换成	-11.0696
步步	-11.0699
相同	-11.07
那次	-11.0702
表哥	-11.0704
方便面	-11.0705
小宝	-11.0706
这个月	-11.0707
年年	-11.071
获得	-11.0715
一辆	-11.0715
恭	-11.072
搅	-11.0721
一路顺风	-11.0721
彼此	-11.0723
决赛	-11.0724
基因	-11.0725
服务员	-11.0729
怕被	-11.0729
设计师	-11.073
联想	-11.0734
结论	-11.0737
口气	-11.0746
还不睡觉	-11.0747
必须滴	-11.075
斑	-11.0752
唠	-11.0752
岭	-11.0752
魏	-11.0752
下辈子	-11.0753
可别	-11.0753
模仿	-11.0753
常识	-11.0763
恶毒	-11.0764
诚实	-11.0776
疗	-11.078
艰	-11.078
佩	-11.0782
柱	-11.0783
统计	-11.0784
庆幸	-11.0785
程序	-11.0786
精力	-11.0789
应用	-11.079
不告诉你	-11.0794
传播	-11.0795
深奥	-11.0795
哪敢	-11.0797
忆	-11.0806
我以为是	-11.0808
当然要	-11.0808
齿	-11.0813
噜	-11.0815
做完	-11.0816
让别人	-11.0818
滋味	-11.0819
十点	-11.0821
依家	-11.0823
好棒	-11.0827
真聪明	-11.0829
投入	-11.0829
搬家	-11.0832
看不清	-11.0835
说我是	-11.0838
很忙	-11.084
衡	-11.0844
友谊	-11.0846
电梯	-11.0847
男主角	-11.085
买票	-11.0851
零食	-11.0854
不知道怎么	-11.0855
揭穿	-11.0856
小家伙	-11.0858
和你一样	-11.0859
校园	-11.086
挺不错的	-11.086
整容	-11.086
黑白	-11.0865
接下来	-11.0867
一直都是	-11.0871
见证	-11.0872
人人都	-11.0873
郊	-11.0877
芬	-11.0877
贯	-11.0877
琢磨	-11.0877
同胞	-11.0878
我也要去	-11.0884
相似	-11.0889
该死的	-11.089
充分	-11.0892
认不出	-11.0901
在哪呢	-11.0905
非得	-11.0906
早日康复	-11.0909
袄	-11.0909
疾	-11.0909
始终	-11.0909
这类	-11.0917
怎么没有	-11.0927
笑容	-11.0933
偿	-11.0938
▁哦哟	-11.0938
继	-11.094
绣	-11.094
兑	-11.094
诊	-11.094
淘汰	-11.094
打牌	-11.0941
签证	-11.0947
太可怕了	-11.0948
黑暗	-11.0957
这条微博	-11.0957
去你家	-11.0959
赞美	-11.0967
湘	-11.0972
一塌糊涂	-11.0972
惩罚	-11.0972
清晰	-11.0972
姐妹们	-11.0973
处女座	-11.0973
轻易	-11.0975
危机	-11.0975
提议	-11.0976
31	-11.0977
民众	-11.098
一般般	-11.0982
老板娘	-11.0989
欺	-11.099
欺负人	-11.0991
基情	-11.0995
真好看	-11.0996
澡	-11.0997
拥	-11.1001
让我想起	-11.1001
屈	-11.1003
慕	-11.1004
鹰	-11.1004
墓	-11.1004
坚定	-11.101
几十	-11.1013
今天又	-11.1014
工作人员	-11.1015
同学们	-11.102
半个	-11.1022
香水	-11.1023
期待你的	-11.103
坏话	-11.1031
腊	-11.1035
誉	-11.1035
酿	-11.1035
越看越	-11.1036
潜力	-11.1042
两条	-11.1043
跟我一样	-11.1045
教训	-11.1047
神马时候	-11.1049
夜班	-11.1049
只是觉得	-11.105
很舒服	-11.1051
不肯	-11.1067
胳膊	-11.1067
澳洲	-11.1068
小伙	-11.1068
系甘	-11.1068
江南	-11.1073
戒指	-11.1073
明天早上	-11.1079
审美	-11.1086
理智	-11.1088
想太多	-11.1088
问候	-11.109
是亮点	-11.109
递	-11.109
枣	-11.1099
孟	-11.1099
辅	-11.1099
考验	-11.1103
榜样	-11.1103
海报	-11.1103
胖胖	-11.1104
很冷	-11.1109
才怪	-11.1109
生产	-11.1109
助理	-11.1116
好厉害	-11.112
在车上	-11.112
铁路	-11.1121
妞儿	-11.1123
幽	-11.1131
剥	-11.1132
_	-11.1132
为主	-11.1137
歌曲	-11.1139
相反	-11.114
明明就是	-11.1142
在现场	-11.1143
普通话	-11.1146
重要的是	-11.1151
归来	-11.1155
烤肉	-11.1157
豹	-11.1164
出租车	-11.1164
牙齿	-11.1165
认证	-11.1178
祝你好运	-11.1181
册那	-11.1182
难道不是	-11.1188
地产	-11.1188
危	-11.1193
越来越多	-11.1193
你们学校	-11.1194
贩	-11.1196
挣扎	-11.1197
舞蹈	-11.1197
还是不错的	-11.1202
霸道	-11.1203
▁哇哇	-11.1204
透露	-11.1205
真棒	-11.1217
料理	-11.1217
嫁给	-11.1217
很好玩	-11.1218
▁天哪	-11.122
看清楚	-11.1225
一起吃饭	-11.1225
志愿者	-11.1229
敷	-11.1229
还以为是	-11.1232
好主意	-11.1235
指教	-11.1235
都不行	-11.1246
第一时间	-11.1247
买不到	-11.125
半个月	-11.1253
55	-11.1259
血腥	-11.1262
求真相	-11.1264
太远了	-11.1266
吃不到	-11.1272
请注意	-11.128
你们都是	-11.128
些什么	-11.1287
涅	-11.1294
茅	-11.1294
阿弥陀佛	-11.1294
臣	-11.1294
阶级	-11.1295
最后一个	-11.1297
别乱	-11.1297
不介意	-11.1299
皇帝	-11.13
江苏	-11.1303
拉肚子	-11.1309
脏话	-11.1313
怎么弄	-11.1314
透明	-11.1314
也是这样	-11.1316
见不到	-11.1319
绩	-11.132
劲儿	-11.1325
不易	-11.1327
寡	-11.1327
鼻涕	-11.1327
为止	-11.1331
怪兽	-11.1332
凑合	-11.1332
很可怜	-11.1332
微博控	-11.1333
航班	-11.134
典型	-11.1342
去死吧	-11.1345
津	-11.1347
同志们	-11.1356
大半夜	-11.1359
框	-11.136
鼎	-11.136
世上	-11.136
中秋节快乐	-11.1363
画画	-11.1366
肯定不是	-11.1366
鸡冻	-11.1371
眼力	-11.1374
魔鬼	-11.1378
你也喜欢	-11.138
因为他	-11.1381
陪伴	-11.1385
低调点	-11.1387
谅	-11.1391
屌	-11.1393
帆	-11.1393
捂	-11.1393
莫名的	-11.1395
战争	-11.1399
小编	-11.14
头脑	-11.1415
盆友	-11.1417
丫丫	-11.1419
某某	-11.142
慰问	-11.1422
就是为了	-11.1422
跃	-11.1423
虹	-11.1424
1000	-11.1424
凳	-11.1426
椅	-11.1426
菌	-11.1426
小资	-11.1428
忠实	-11.1429
那就好	-11.1431
合照	-11.1437
教师	-11.1438
导游	-11.144
乱讲	-11.1441
昆	-11.1448
封杀	-11.1448
单车	-11.1448
自私	-11.1455
茂	-11.1459
梗	-11.1459
颁	-11.1459
萝莉	-11.1459
详情	-11.1463
热水	-11.1463
可笑	-11.1465
狠狠	-11.1473
我们两个	-11.1479
表妹	-11.148
本来想	-11.148
路边	-11.1481
没素质	-11.1485
没准	-11.1487
植	-11.1491
呛	-11.1492
蓝精灵	-11.1492
颈	-11.1492
饶	-11.1492
吉祥	-11.1493
小女孩	-11.1496
概	-11.1496
退休	-11.1497
都是这样	-11.1499
气愤	-11.1503
期望	-11.1507
死亡	-11.1511
38	-11.1518
在成都	-11.152
奢	-11.1526
非诚勿扰	-11.1526
妖孽	-11.1526
惦记	-11.1527
凑热闹	-11.1527
机构	-11.1531
给我打电话	-11.1531
左手	-11.1534
光荣	-11.1536
这话说的	-11.1538
晚睡	-11.1538
上瘾	-11.1545
真假	-11.1547
癫	-11.1559
东莞	-11.156
堕落	-11.156
一不小心	-11.156
当事人	-11.1561
打针	-11.1561
太无聊了	-11.1568
不舍得	-11.1571
和我说	-11.1577
场景	-11.1587
色彩	-11.159
样儿	-11.159
督	-11.1592
巡	-11.1593
柯	-11.1593
憨	-11.1593
挫	-11.1593
斜	-11.1593
情感	-11.1598
对不对	-11.1609
十月	-11.1612
王老师	-11.1617
我想要	-11.1618
右手	-11.1618
要学会	-11.1624
这么早就	-11.1624
蛙	-11.1625
试试看	-11.1627
▁回答正确	-11.1627
漫长	-11.1627
米国	-11.1631
至于你信不信	-11.1631
天涯	-11.1631
是故意的	-11.1632
商务	-11.1632
内地	-11.1635
表面	-11.1645
贵阳	-11.1645
张老师	-11.1647
裁	-11.166
卵	-11.1661
沫	-11.1661
欣慰	-11.1661
失踪	-11.1662
宾馆	-11.1662
户口	-11.1667
粉色	-11.1675
部队	-11.1679
过一次	-11.1679
袖	-11.1692
艺术家	-11.1694
闯	-11.1695
地沟油	-11.1695
葫芦	-11.1695
究竟	-11.1695
蔬菜	-11.1695
讲座	-11.1696
品尝	-11.1698
不堪	-11.1699
突破	-11.1699
君子	-11.1703
甜品	-11.1708
败家	-11.1709
开门	-11.1709
在深圳	-11.1712
高端	-11.1716
是好人	-11.1718
有眼光	-11.1721
虫子	-11.1721
这名字	-11.1724
猎	-11.1729
失误	-11.1732
一斤	-11.1736
起哄	-11.1745
周二	-11.1748
戒酒	-11.1749
▁说的好	-11.1755
饼干	-11.1757
不是故意的	-11.176
555555555	-11.1763
蛮好看的	-11.1763
咗	-11.1763
乌龟	-11.1764
普遍	-11.1765
房地产	-11.1765
冒充	-11.1767
官网	-11.1767
每一个	-11.1768
太牛了	-11.1768
地道	-11.177
男性	-11.1774
去香港	-11.1777
很想念	-11.1779
具有	-11.1782
潮流	-11.1783
屋里	-11.1789
公车	-11.1789
很辛苦	-11.1796
郁	-11.1796
堡	-11.1797
莪	-11.1797
舔	-11.1797
辨	-11.1797
犹豫	-11.1797
保障	-11.1799
午餐	-11.1801
艰难	-11.1801
初恋	-11.1803
注意点	-11.1806
千年	-11.1814
听起来	-11.1823
聊聊	-11.1828
合肥	-11.1832
坤	-11.1832
巫	-11.1832
搜索	-11.1834
去哪儿	-11.1834
中秋节	-11.1844
在杭州	-11.1845
民工	-11.1845
同步	-11.1855
脱离	-11.1859
知己	-11.1862
基金	-11.1864
哪样	-11.1865
姆	-11.1866
喺	-11.1867
丈	-11.1867
抑郁	-11.1867
共产党	-11.1867
沧桑	-11.1867
外套	-11.1867
国产	-11.1868
一小时	-11.187
校友	-11.1872
杨洋	-11.1873
我们一起去	-11.1874
观音	-11.1877
第一天	-11.1879
恐怖片	-11.1883
妞妞	-11.1888
始	-11.1891
解救	-11.1894
踹	-11.1901
磊	-11.1901
三国杀	-11.1901
我想去	-11.1903
分裂	-11.1907
春节	-11.1907
电台	-11.191
突然觉得	-11.191
恩恩	-11.191
想多了	-11.1913
养生	-11.1919
婆娘	-11.1921
不管你信不信	-11.1921
干妈	-11.1922
接待	-11.1922
景色	-11.1923
爬山	-11.1926
叮	-11.1936
亭	-11.1936
爱死你了	-11.1944
喜剧	-11.1944
删除	-11.195
详	-11.1965
八爷	-11.1966
阶	-11.1968
改革	-11.1972
开通	-11.1974
怀旧	-11.1975
物理	-11.1975
极端	-11.1976
无锡	-11.1978
桃子	-11.1979
没注意	-11.1984
这么快就	-11.1988
请不要	-11.1989
味儿	-11.1991
少爷	-11.2004
萍	-11.2006
信用卡	-11.2006
设置	-11.2007
十分钟	-11.2009
深入	-11.2011
装备	-11.2015
下星期	-11.2016
巴黎	-11.2023
记错	-11.2026
办公	-11.2033
这方面	-11.2034
娘娘	-11.2038
完毕	-11.2039
煞	-11.2041
邻居	-11.2042
我也很喜欢	-11.2042
瞧瞧	-11.2042
丰盛	-11.2043
山路	-11.2044
活跃	-11.2045
被抓	-11.2057
祝愿	-11.2061
卑	-11.207
很有爱	-11.2071
哭死	-11.2072
俺家	-11.2075
涉	-11.2076
幸灾乐祸	-11.2077
碳	-11.2077
菠萝	-11.2077
马桶	-11.2085
七月	-11.2087
这也太	-11.2095
对付	-11.2096
跳楼	-11.2098
好想去	-11.2099
98	-11.2101
西北	-11.2102
三角	-11.2104
比例	-11.2106
家门口	-11.2107
爱你爱你	-11.2109
择	-11.211
明天开始	-11.211
打错字	-11.2112
维护	-11.2115
航空	-11.2123
被偷	-11.2124
教室	-11.2126
集合	-11.2133
浦东	-11.214
杏	-11.2148
招聘	-11.2149
邮件	-11.2151
实用	-11.2153
操心	-11.2156
特意	-11.2157
长相	-11.216
化学	-11.2161
现身	-11.2167
和你说	-11.2175
味道不错	-11.2175
贷	-11.2183
探讨	-11.2185
档次	-11.2194
品质	-11.2194
敢问	-11.2194
吃不下	-11.2195
啥样	-11.2198
盗版	-11.2199
下次一起	-11.2202
山西	-11.2206
陀	-11.2219
衷	-11.2219
:)	-11.222
玩得开心	-11.2222
震惊	-11.2223
他爹	-11.2223
陪着	-11.2228
阅读	-11.2228
女士	-11.2234
套餐	-11.2236
这么严重	-11.2236
千万不要	-11.2236
制服	-11.2238
同乐	-11.2239
自豪	-11.2241
排名	-11.2242
可靠	-11.2246
汽	-11.2248
奉	-11.2255
垄断	-11.2255
棵	-11.2255
芽	-11.2255
一直都很	-11.2255
摩托	-11.2256
预测	-11.2259
商场	-11.2259
咋整	-11.2263
宁愿	-11.2267
有什么关系	-11.2276
真漂亮	-11.2277
狮	-11.2278
天平	-11.2279
补课	-11.2282
都不好意思	-11.2283
少数	-11.2287
污蔑	-11.2291
黄牛	-11.2291
唉唉唉	-11.2292
局长	-11.2293
绿豆	-11.2298
我承认我	-11.2304
沉重	-11.2311
这段时间	-11.2321
联合	-11.2323
际	-11.2323
宝马	-11.2327
羽毛球	-11.2328
掰	-11.2328
旭	-11.2328
贞	-11.2328
麻辣烫	-11.2328
钢琴	-11.2329
我也这么觉得	-11.2329
钓鱼	-11.233
发上来	-11.233
紫色	-11.2337
嘴里	-11.2359
堪	-11.236
时差	-11.2361
歌手	-11.2363
仨	-11.2364
厢	-11.2364
哼哼哼	-11.2366
汉奸	-11.2366
运营	-11.2368
没有办法	-11.2374
一看就知道	-11.2378
太恐怖了	-11.2379
好有爱	-11.2396
竞	-11.24
李老师	-11.24
a	-11.24
嘢	-11.24
咽	-11.24
缸	-11.24
巢	-11.24
枪毙	-11.2401
损失	-11.2404
公民	-11.2406
预告	-11.2407
悲观	-11.2408
脸皮	-11.2408
优点	-11.2412
团结	-11.2414
角度问题	-11.2417
灰机	-11.242
阳台	-11.2428
节课	-11.243
吃辣	-11.2432
劣	-11.2436
侵	-11.2436
伱	-11.2437
莓	-11.2437
规矩	-11.2437
丝袜	-11.2437
灵感	-11.2441
很适合	-11.2446
受不鸟	-11.2454
之处	-11.2462
告诉他	-11.2469
谨	-11.2474
窃	-11.2474
魄	-11.2474
网址	-11.2474
这种感觉	-11.2489
喝完	-11.249
第四	-11.2492
协会	-11.2507
面条	-11.2507
成果	-11.2508
崇	-11.251
勺	-11.2511
绳	-11.2511
睿	-11.2511
客服	-11.2511
正解	-11.2514
上镜	-11.2517
明天晚上	-11.2523
突然发现	-11.2535
娜姐	-11.2535
600	-11.2538
名单	-11.2539
迁	-11.2547
蒲	-11.2548
内疚	-11.2548
映	-11.2549
扑街	-11.2551
妖精	-11.2555
逃课	-11.2557
市区	-11.2559
奶粉	-11.2561
成立	-11.2562
贪心	-11.2575
老湿	-11.2579
美景	-11.2581
培	-11.2581
降温	-11.2582
同情心	-11.2583
胀	-11.2585
吸血鬼	-11.2585
裁判	-11.2585
平等	-11.2586
捣乱	-11.2588
委员	-11.2589
古代	-11.2604
精神病	-11.2611
呆着	-11.2613
孽	-11.2618
地步	-11.2621
泛	-11.2622
畏	-11.2622
演技	-11.2626
怎能	-11.2644
告知	-11.2644
封面	-11.2645
禅	-11.266
沿	-11.266
茜	-11.266
铜	-11.266
蜜蜂	-11.266
舌头	-11.2662
青菜	-11.2663
校区	-11.2667
因素	-11.2669
▁为嘛	-11.267
书店	-11.2677
麻辣	-11.2685
长江	-11.2687
重复	-11.2688
定位	-11.2693
栗	-11.2697
噩梦	-11.2698
咪咪	-11.2698
袜子	-11.2703
豆浆	-11.2704
高峰	-11.2704
韩剧	-11.2705
是对的	-11.2707
推出	-11.2712
系咪	-11.2726
给你打电话	-11.2726
男士	-11.2731
啰	-11.2735
搏	-11.2735
王八蛋	-11.2735
诡异	-11.2735
充电	-11.2737
河蟹	-11.2738
经历过	-11.2743
和你一起	-11.2744
学妹	-11.2753
公益	-11.2753
食饭	-11.2759
闲着	-11.2759
新郎	-11.2761
他爸	-11.2772
罚款	-11.2777
祸害	-11.2778
习惯就好	-11.2778
追尾	-11.2778
叛	-11.281
疫	-11.2811
芋	-11.2811
瘾	-11.2823
匪	-11.2848
彪	-11.2849
橘	-11.2849
塌	-11.2849
疤	-11.2887
槽	-11.2923
蓉	-11.2926
纷	-11.2926
什	-11.2945
唧	-11.2965
坟	-11.3003
毕	-11.3036
昧	-11.3042
谓	-11.3079
犹	-11.3081
泣	-11.3081
驱	-11.3081
斩	-11.3081
铭	-11.3081
蝎	-11.3104
婉	-11.312
羽	-11.316
押	-11.3199
觅	-11.3199
塑	-11.3238
捅	-11.3239
捕	-11.3239
牧	-11.3279
蜂	-11.3358
瓷	-11.3359
阁	-11.3359
樱	-11.3397
兆	-11.3399
渴	-11.3439
毙	-11.3439
卤	-11.348
拓	-11.348
翁	-11.348
痕	-11.3521
削	-11.3521
祈	-11.3521
漆	-11.3521
颇	-11.3521
滥	-11.3562
淀	-11.3562
毫	-11.3586
饺	-11.359
"	-11.3603
拟	-11.3603
朕	-11.3603
涌	-11.3603
仆	-11.3645
靴	-11.3645
贬	-11.3645
脆	-11.3681
聘	-11.3685
掘	-11.3686
寨	-11.3724
袭	-11.3728
妨	-11.3728
浇	-11.3728
唷	-11.377
嚼	-11.377
脉	-11.377
钞	-11.377
挠	-11.3812
盈	-11.3812
氧	-11.3812
央	-11.3842
喵	-11.3854
殴	-11.3854
膜	-11.3881
桐	-11.3896
撩	-11.3939
绍	-11.398
钉	-11.3982
垂	-11.3982
裹	-11.3982
妓	-11.3982
鸿	-11.4025
侄	-11.4028
淮	-11.4068
凹	-11.4111
彤	-11.4111
掂	-11.4111
酥	-11.4111
彼	-11.4152
>	-11.4154
撸	-11.4154
揉	-11.4154
枕	-11.4188
叠	-11.4198
瞄	-11.4198
埃	-11.4198
唤	-11.4241
婴	-11.4242
览	-11.4285
嚷	-11.4286
慎	-11.433
苑	-11.433
屑	-11.433
俏	-11.4375
嬷	-11.4375
恁	-11.4419
瘫	-11.4419
储	-11.4419
频	-11.4459
翅	-11.4461
腕	-11.4464
掺	-11.4464
邀	-11.4486
捣	-11.4505
朋	-11.4508
枉	-11.4509
夷	-11.4509
嗒	-11.4509
榨	-11.4554
邱	-11.4554
砂	-11.4555
撇	-11.46
矣	-11.46
钓	-11.4643
椰	-11.4646
磕	-11.4646
‘	-11.4691
贾	-11.4738
嚒	-11.4738
嫖	-11.4738
倦	-11.4784
薛	-11.4784
肆	-11.4784
役	-11.483
辽	-11.483
泊	-11.483
辫	-11.4877
渔	-11.4877
钩	-11.4924
挽	-11.4924
刹	-11.4971
磁	-11.4971
澳	-11.5015
糸	-11.5019
攀	-11.5019
慰	-11.5062
挪	-11.5114
谦	-11.5161
峡	-11.5162
炜	-11.521
傍	-11.5259
屠	-11.5259
幺	-11.5308
匹	-11.5308
囡	-11.5357
瞳	-11.5357
芭	-11.5357
炼	-11.5405
嘻	-11.5406
荤	-11.5406
驼	-11.5406
鲍	-11.5406
骆	-11.5456
仿	-11.5504
竖	-11.5505
鸦	-11.5505
钙	-11.5505
抒	-11.5505
络	-11.5553
瞪	-11.5555
授	-11.56
卜	-11.5606
淳	-11.5606
怜	-11.5645
疏	-11.5656
陵	-11.5707
摁	-11.5758
酬	-11.5758
尤	-11.5805
缴	-11.5809
厮	-11.5809
遛	-11.5809
坝	-11.5809
噗	-11.582
恼	-11.5851
媒	-11.5855
凝	-11.5861
揪	-11.5901
^	-11.5912
骏	-11.5913
锡	-11.5954
乏	-11.5963
梳	-11.5965
毯	-11.5965
琼	-11.5965
描	-11.6017
猿	-11.6017
键	-11.6065
译	-11.6067
嘲	-11.6117
楞	-11.6122
皱	-11.6122
绘	-11.6122
甭	-11.6176
筷	-11.6176
蒂	-11.6176
芒	-11.6227
澈	-11.6229
瞒	-11.6229
癌	-11.6283
戈	-11.6283
搁	-11.6283
钝	-11.6283
斋	-11.6283
究	-11.6331
凸	-11.6337
斥	-11.6337
饥	-11.6391
t	-11.6391
拎	-11.6391
矿	-11.6391
询	-11.6391
琦	-11.6446
勃	-11.6446
癖	-11.6446
倡	-11.6446
刁	-11.6446
藤	-11.6446
脂	-11.6501
葬	-11.6501
梯	-11.6552
恤	-11.6556
坎	-11.6556
婿	-11.6556
坪	-11.6612
裕	-11.6612
宵	-11.6659
曰	-11.6668
呈	-11.6668
妄	-11.6668
爵	-11.6668
敛	-11.6668
蜗	-11.6668
迅	-11.6723
喉	-11.6724
糙	-11.6724
袍	-11.6724
剖	-11.6724
顽	-11.6724
颓	-11.6724
丐	-11.6724
渺	-11.6724
啤	-11.6771
谣	-11.6775
乍	-11.678
宪	-11.678
糯	-11.678
蹄	-11.6834
嬲	-11.6837
拧	-11.6837
馨	-11.6893
懵	-11.6894
蝶	-11.6894
剁	-11.6894
廊	-11.6894
脊	-11.6894
辟	-11.695
秃	-11.6952
辙	-11.6952
厉	-11.7066
沐	-11.7068
沃	-11.7068
诱	-11.7071
—	-11.7126
眯	-11.7126
豚	-11.7126
铲	-11.7126
俱	-11.7126
拢	-11.7185
陋	-11.7185
勋	-11.7244
帘	-11.7244
潭	-11.7244
贡	-11.7303
枫	-11.7304
垮	-11.7304
藕	-11.7304
赴	-11.7304
冥	-11.7304
狐	-11.7363
璇	-11.7363
庞	-11.7364
渊	-11.7364
妍	-11.7424
廖	-11.7424
愣	-11.7424
馍	-11.7424
瑟	-11.7452
潇	-11.7484
乙	-11.7484
逊	-11.7484
娥	-11.7484
挚	-11.7484
蓬	-11.7484
雁	-11.7484
浑	-11.7525
徽	-11.7531
摄	-11.7534
喻	-11.7537
厘	-11.7541
卿	-11.7545
栽	-11.7607
喘	-11.7607
皂	-11.7607
鹤	-11.7607
淑	-11.7658
娱	-11.7665
剔	-11.7668
椎	-11.7668
艇	-11.7668
遣	-11.7668
榴	-11.773
寓	-11.7785
镖	-11.7793
儒	-11.7793
穴	-11.7793
啧	-11.7856
舱	-11.7856
拘	-11.7856
浸	-11.7856
蓄	-11.7919
萱	-11.7919
喏	-11.7919
棚	-11.7919
滞	-11.7919
缅	-11.7919
茹	-11.7919
髓	-11.7919
枯	-11.7919
乞	-11.7983
丘	-11.8047
沪	-11.8047
窥	-11.8047
旱	-11.8047
睹	-11.8047
臂	-11.8083
绪	-11.8104
杭	-11.811
睬	-11.8112
侨	-11.8112
蜡	-11.8176
搂	-11.8176
辜	-11.8233
募	-11.8242
拣	-11.8242
趾	-11.8242
昊	-11.8308
亢	-11.8308
昕	-11.8308
瑜	-11.8374
坠	-11.8374
衍	-11.8374
昵	-11.844
葵	-11.844
溢	-11.844
厦	-11.8472
汕	-11.8568
芯	-11.8575
畸	-11.8575
籽	-11.8575
邵	-11.8575
憎	-11.8575
浏	-11.8575
肇	-11.8575
谬	-11.8575
脖	-11.8629
拾	-11.864
综	-11.8641
絮	-11.8643
韶	-11.8643
恕	-11.8643
澜	-11.8643
沸	-11.8712
驳	-11.8712
谊	-11.8779
狭	-11.8781
穆	-11.8781
僚	-11.8781
炭	-11.8781
萎	-11.8781
邹	-11.8781
涯	-11.884
旬	-11.8847
曦	-11.8849
肢	-11.885
蹂	-11.885
玮	-11.885
纱	-11.8919
芥	-11.892
茬	-11.892
涮	-11.892
疮	-11.892
窜	-11.892
盾	-11.899
韭	-11.899
浆	-11.9049
畜	-11.9052
澄	-11.9059
蕉	-11.9059
佑	-11.906
<	-11.9061
枰	-11.9061
柚	-11.9061
筝	-11.9061
韦	-11.9061
鳖	-11.9061
辑	-11.9131
寂	-11.9133
娴	-11.9133
梭	-11.9133
帕	-11.9133
o	-11.9205
篷	-11.9205
哨	-11.9205
旷	-11.9205
翰	-11.9205
械	-11.9205
甸	-11.9205
鱿	-11.9205
岔	-11.9277
槟	-11.9277
倪	-11.9277
朔	-11.9277
栈	-11.9277
慨	-11.9339
疆	-11.9343
嗷	-11.935
捶	-11.935
遂	-11.935
拷	-11.935
芸	-11.9424
牡	-11.9424
践	-11.9496
庐	-11.9498
殿	-11.9498
嚎	-11.9498
姗	-11.9498
惶	-11.9498
颤	-11.9498
沛	-11.9498
悉	-11.9571
q	-11.9572
痞	-11.9572
茉	-11.9572
褒	-11.9572
吟	-11.9572
橡	-11.9572
狒	-11.9572
c	-11.9648
屯	-11.9648
丛	-11.9648
嚟	-11.9648
窄	-11.9648
耿	-11.9648
啸	-11.9648
窦	-11.9648
暮	-11.9723
哋	-11.9723
馈	-11.9723
绒	-11.9723
荆	-11.9723
括	-11.9796
歹	-11.9797
寝	-11.9799
呱	-11.98
眷	-11.98
揣	-11.98
敞	-11.9877
蚝	-11.9877
卅	-11.9877
嘀	-11.9877
囤	-11.9877
湛	-11.9877
钦	-11.9877
侦	-11.9954
恍	-11.9954
绎	-11.9954
析	-12.0027
虑	-12.0028
歧	-12.0031
瞅	-12.0032
掀	-12.0032
肋	-12.0032
祭	-12.0032
臀	-12.0032
尹	-12.0111
腩	-12.0111
纲	-12.0111
嚣	-12.0187
咕	-12.019
盔	-12.019
拇	-12.019
煽	-12.0266
苟	-12.027
嗜	-12.027
焚	-12.027
革	-12.0343
僵	-12.0351
吆	-12.0351
捎	-12.0351
熄	-12.0351
眨	-12.0351
纤	-12.0351
灿	-12.0431
契	-12.0432
姥	-12.0432
柿	-12.0432
腺	-12.0432
轴	-12.0432
稻	-12.0432
愉	-12.0506
侣	-12.051
铅	-12.0514
悍	-12.0586
颂	-12.0597
跤	-12.0597
弦	-12.0597
牲	-12.0597
茄	-12.0666
懊	-12.068
昭	-12.068
酌	-12.068
桔	-12.068
峨	-12.068
浒	-12.068
黛	-12.068
肃	-12.0764
敦	-12.0764
淼	-12.0764
裆	-12.0764
骤	-12.0764
鲨	-12.0764
&	-12.0764
唾	-12.0764
谜	-12.0764
榄	-12.0764
匀	-12.0849
蜀	-12.0849
魁	-12.0849
豌	-12.0849
锣	-12.0849
驰	-12.0934
伽	-12.0934
岚	-12.0935
靖	-12.0935
雇	-12.0935
曝	-12.1011
魅	-12.1017
唆	-12.1021
勉	-12.1104
渠	-12.1105
墩	-12.1108
悼	-12.1108
旨	-12.1108
笋	-12.1108
弘	-12.1108
畔	-12.1108
傅	-12.1135
袜	-12.1181
嗓	-12.1182
讽	-12.1195
惧	-12.1195
嚯	-12.1195
禹	-12.1195
漾	-12.1195
嫦	-12.1195
浙	-12.1266
芙	-12.1284
噱	-12.1284
杉	-12.1284
焉	-12.1284
诀	-12.1284
楂	-12.1284
戚	-12.1367
撮	-12.1373
隶	-12.1373
黏	-12.1373
厕	-12.146
抑	-12.1462
烛	-12.1463
弓	-12.1463
俞	-12.1463
梧	-12.1463
痣	-12.1463
肘	-12.1463
叽	-12.1554
窍	-12.1554
膘	-12.1554
谛	-12.1554
逞	-12.1554
舰	-12.1554
谐	-12.1628
弊	-12.1643
猥	-12.1646
菠	-12.1646
函	-12.1646
焰	-12.1646
禾	-12.1646
雍	-12.1646
翡	-12.1646
奕	-12.1739
姬	-12.1739
泻	-12.1739
擎	-12.1739
殊	-12.1829
憾	-12.1832
兮	-12.1832
殃	-12.1832
躯	-12.1832
雹	-12.1832
棕	-12.1832
枚	-12.184
粤	-12.1924
昔	-12.1926
阉	-12.1926
转	-12.1926
恬	-12.1926
梓	-12.1926
鳄	-12.1926
碌	-12.2018
煌	-12.2021
吱	-12.2022
闽	-12.2022
蔚	-12.2022
衲	-12.2022
郝	-12.2022
迩	-12.2022
惺	-12.2022
溃	-12.2118
刨	-12.2118
晦	-12.2118
冉	-12.2118
谍	-12.2118
雌	-12.2118
咦	-12.2198
粹	-12.2214
鄙	-12.2214
邻	-12.2214
妒	-12.2215
廷	-12.2215
缉	-12.2215
瓢	-12.2215
袅	-12.2215
沧	-12.2312
蔽	-12.2313
噎	-12.2313
叙	-12.2313
妾	-12.2313
淇	-12.2313
盏	-12.2313
蝈	-12.2313
麟	-12.2313
狈	-12.2313
耕	-12.2313
鸽	-12.2398
媳	-12.2411
疹	-12.2412
馊	-12.2412
瘸	-12.2412
聂	-12.2412
芹	-12.2412
笛	-12.2412
屡	-12.2412
腥	-12.251
瘩	-12.2512
衩	-12.2512
彦	-12.2512
徊	-12.2512
泯	-12.2512
湃	-12.2512
疙	-12.2613
瘪	-12.2613
侍	-12.2613
冈	-12.2613
吭	-12.2613
蓓	-12.2613
励	-12.2712
侃	-12.2713
嗑	-12.2715
晤	-12.2715
霄	-12.2715
稣	-12.2715
泸	-12.2818
扼	-12.2818
署	-12.2818
俯	-12.2818
膀	-12.2885
羡	-12.2922
谂	-12.2922
仑	-12.2922
懈	-12.2922
朽	-12.2922
绰	-12.2922
莽	-12.2922
讹	-12.2922
亨	-12.2922
晖	-12.2922
晟	-12.2922
株	-12.3027
茵	-12.3027
蛾	-12.3027
绅	-12.3027
蕴	-12.3027
酪	-12.3027
绊	-12.3027
狸	-12.3134
忏	-12.3134
痰	-12.3134
腌	-12.3134
闵	-12.3134
吠	-12.3134
咚	-12.3134
滔	-12.3134
闺	-12.3224
秤	-12.3229
址	-12.323
嘟	-12.3241
娆	-12.3241
蝠	-12.3241
僻	-12.3241
咏	-12.3241
吨	-12.3241
旳	-12.3241
苛	-12.3241
蝙	-12.335
泌	-12.335
哆	-12.335
柄	-12.335
準	-12.335
惩	-12.3459
驶	-12.346
筛	-12.346
膨	-12.346
衔	-12.346
乒	-12.346
芦	-12.346
喀	-12.346
瀑	-12.346
瞻	-12.346
斧	-12.346
磅	-12.346
赋	-12.3552
茸	-12.3571
贿	-12.3571
钮	-12.3571
娼	-12.3571
彰	-12.3571
绽	-12.3571
飚	-12.3571
仕	-12.3571
烘	-12.3571
痔	-12.3571
埔	-12.3683
楷	-12.3683
佣	-12.3683
纶	-12.3796
p	-12.3797
g	-12.3797
棠	-12.3797
惕	-12.3797
竿	-12.3797
兹	-12.3797
獒	-12.3797
揽	-12.3797
殷	-12.3797
m	-12.3912
稽	-12.3912
荧	-12.3912
搵	-12.3912
棱	-12.3912
俭	-12.3912
婧	-12.3912
鞍	-12.3912
喧	-12.4028
鲸	-12.4028
桩	-12.4028
伶	-12.4028
婕	-12.4028
捆	-12.4028
聋	-12.4028
b	-12.4028
窒	-12.4028
詹	-12.4028
啲	-12.4146
嚓	-12.4146
瘤	-12.4146
糗	-12.4146
闸	-12.4146
龚	-12.4146
沽	-12.4146
羹	-12.4146
腆	-12.4146
懦	-12.4146
荐	-12.4264
挞	-12.4265
窑	-12.4385
汶	-12.4385
翩	-12.4385
乾	-12.4385
芜	-12.4385
菁	-12.4385
噩	-12.4505
趋	-12.4507
琐	-12.4507
淆	-12.4507
溺	-12.4507
锯	-12.4507
丙	-12.4631
瓣	-12.4631
伢	-12.4631
蔓	-12.4631
蕊	-12.4631
黯	-12.4631
噪	-12.4631
焖	-12.4631
蜕	-12.4631
蝌	-12.4631
涕	-12.4755
罕	-12.4756
汰	-12.4756
霹	-12.4756
灸	-12.4756
腮	-12.4756
拙	-12.4756
恳	-12.4756
鳗	-12.4756
狱	-12.487
睛	-12.4878
努	-12.4879
允	-12.4881
狡	-12.4882
镯	-12.4882
乓	-12.4882
拱	-12.4882
敖	-12.4882
棺	-12.4882
卦	-12.5008
u	-12.5011
犒	-12.5011
皓	-12.5011
惰	-12.5011
遐	-12.5011
耸	-12.5011
韧	-12.5011
粽	-12.5127
犀	-12.5139
寞	-12.514
咻	-12.514
玫	-12.514
娄	-12.514
崛	-12.514
樊	-12.514
犊	-12.514
甄	-12.514
捻	-12.5141
腼	-12.5141
蟆	-12.5141
铝	-12.5141
匆	-12.5272
镐	-12.5272
坞	-12.5272
惚	-12.5272
笙	-12.5272
俐	-12.5272
胚	-12.5272
腚	-12.5272
赎	-12.5272
窟	-12.5405
拗	-12.5405
哺	-12.5405
鞠	-12.5405
渝	-12.5405
蚕	-12.5405
碘	-12.5541
臊	-12.5541
堤	-12.5541
憧	-12.5541
憬	-12.5541
栖	-12.5541
惟	-12.5678
柬	-12.5678
靶	-12.5678
匿	-12.5678
姣	-12.5678
崖	-12.5678
诵	-12.5678
靡	-12.5678
矛	-12.5816
汝	-12.5816
躬	-12.5816
缚	-12.5816
阮	-12.5816
骁	-12.5816
诛	-12.5816
酵	-12.5816
蛀	-12.5816
襄	-12.5816
捍	-12.5816
歉	-12.5953
禺	-12.5957
虔	-12.5957
倔	-12.5957
榕	-12.5957
孜	-12.61
灶	-12.61
阎	-12.61
渗	-12.61
溶	-12.61
缕	-12.61
腑	-12.61
芊	-12.61
呻	-12.6245
曙	-12.6245
匠	-12.6245
渎	-12.6245
竭	-12.6245
轶	-12.6245
辖	-12.6245
聆	-12.6245
漓	-12.6245
凄	-12.6386
尧	-12.6392
烨	-12.6392
鲫	-12.6392
沂	-12.6392
嫣	-12.6392
姻	-12.654
丶	-12.6541
屉	-12.6541
暇	-12.6541
琛	-12.6541
脐	-12.6541
藉	-12.6541
°	-12.6541
梵	-12.6541
眸	-12.6541
绷	-12.6541
嘈	-12.6541
摧	-12.6691
嫉	-12.6693
崎	-12.6693
锈	-12.6693
啫	-12.6693
弗	-12.6693
禽	-12.6846
羯	-12.6846
壤	-12.6847
溅	-12.6847
碉	-12.6847
蜓	-12.6847
蹬	-12.6847
痨	-12.6847
阑	-12.6847
晾	-12.6847
羁	-12.6847
啱	-12.7003
隧	-12.7003
祟	-12.7003
禄	-12.7003
炕	-12.7003
炬	-12.7003
圭	-12.7003
毋	-12.7003
芮	-12.7003
诬	-12.7003
硫	-12.7003
萝	-12.7161
耽	-12.7161
祺	-12.7162
沁	-12.7162
嗝	-12.7162
宥	-12.7162
淌	-12.7162
赘	-12.7162
髅	-12.7162
绞	-12.7162
蛊	-12.7162
掠	-12.7162
囚	-12.7323
蔑	-12.7323
奎	-12.7323
欸	-12.7323
轿	-12.7323
骷	-12.7323
丞	-12.7323
剽	-12.7323
嗬	-12.7323
巅	-12.7323
杞	-12.7323
瑾	-12.7323
烩	-12.7323
哔	-12.7487
佘	-12.7487
焕	-12.7487
眶	-12.7487
孬	-12.7487
痧	-12.7487
撰	-12.7487
豫	-12.7653
囗	-12.7654
祢	-12.7654
醇	-12.7654
卉	-12.7654
啪	-12.7654
漳	-12.7654
箍	-12.7654
跆	-12.7654
霆	-12.7654
饲	-12.7654
鹦	-12.7654
唬	-12.7822
膝	-12.7822
幌	-12.7823
烙	-12.7823
鸠	-12.7823
洽	-12.7823
猾	-12.7823
硪	-12.7823
绮	-12.7823
晗	-12.7823
汹	-12.7823
牟	-12.7823
痿	-12.7823
荟	-12.7823
蝉	-12.7823
陛	-12.7823
骄	-12.7995
蚀	-12.7995
鄂	-12.7995
匡	-12.7995
巍	-12.7995
嗖	-12.7996
惘	-12.7996
琶	-12.7996
崴	-12.7996
巩	-12.7996
暨	-12.7996
纬	-12.7996
菱	-12.7996
裳	-12.7996
亥	-12.8171
槛	-12.8171
祛	-12.8171
恙	-12.8171
缪	-12.8171
赦	-12.8171
沌	-12.8171
烹	-12.8171
麓	-12.8171
弈	-12.8171
循	-12.8349
刃	-12.8349
斐	-12.8349
堰	-12.8349
桦	-12.835
漱	-12.835
怯	-12.835
橱	-12.835
矶	-12.835
窘	-12.835
亩	-12.835
沥	-12.8531
嚏	-12.8531
吏	-12.8531
咔	-12.8531
咿	-12.8531
耙	-12.8531
裔	-12.8531
谗	-12.8531
偕	-12.8531
蘸	-12.8531
嵩	-12.8531
摞	-12.8531
镶	-12.8531
纽	-12.8715
堕	-12.8715
嘱	-12.8716
糜	-12.8716
嘚	-12.8717
锕	-12.8717
俑	-12.8717
挝	-12.8717
筐	-12.8717
讳	-12.8717
霾	-12.8717
祷	-12.8905
倚	-12.8905
哽	-12.8905
枸	-12.8905
滤	-12.8905
灬	-12.8905
窖	-12.8905
缀	-12.8905
萤	-12.8905
诲	-12.8905
蹉	-12.8905
寇	-12.8905
幢	-12.8905
栓	-12.8905
碜	-12.8905
邋	-12.8905
珑	-12.8905
脾	-12.9093
矫	-12.9093
筑	-12.9097
泱	-12.9097
驹	-12.9097
冕	-12.9097
禧	-12.9097
裴	-12.9097
诧	-12.9097
鹊	-12.9097
麒	-12.9097
潍	-12.9097
闫	-12.9097
呲	-12.9098
婵	-12.9098
滇	-12.9098
炅	-12.9098
翊	-12.9098
肛	-12.9098
稚	-12.9293
猬	-12.9294
颐	-12.9294
喈	-12.9294
慷	-12.9294
喳	-12.9294
廓	-12.9494
娅	-12.9494
壹	-12.9494
蜈	-12.9494
铮	-12.9494
馁	-12.9494
奠	-12.9494
炯	-12.9494
琵	-12.9494
峻	-12.9494
诞	-12.9691
菩	-12.9697
鳞	-12.9698
秉	-12.9698
苔	-12.9698
锥	-12.9698
撬	-12.9698
柒	-12.9698
褪	-12.9698
遢	-12.9698
鹭	-12.9698
诡	-12.9905
淤	-12.9906
珈	-12.9906
庵	-12.9906
晏	-12.9906
滚	-12.9906
绚	-12.9906
涡	-12.9906
翟	-12.9906
莘	-12.9906
阐	-12.9906
霏	-12.9906
韬	-12.9906
蹈	-13.0113
胞	-13.0113
蝇	-13.0118
哝	-13.0119
檐	-13.0119
唏	-13.0119
撅	-13.0119
瘟	-13.0119
钰	-13.0119
昼	-13.0119
邢	-13.0119
醺	-13.0119
履	-13.0119
檀	-13.0119
殉	-13.0119
睦	-13.0119
跷	-13.0119
顶	-13.0119
冶	-13.0119
悄	-13.0336
蛔	-13.0336
岑	-13.0336
搀	-13.0336
撂	-13.0336
佟	-13.0336
弧	-13.0336
沵	-13.0336
秧	-13.0336
衙	-13.0336
恺	-13.0336
缆	-13.0336
茨	-13.0336
埠	-13.0336
珂	-13.0336
臻	-13.0336
蛆	-13.0336
寐	-13.0558
懿	-13.0558
瑕	-13.0558
彷	-13.0558
揾	-13.0558
跎	-13.0558
铛	-13.0558
嬉	-13.0558
籁	-13.0558
蔷	-13.0558
婢	-13.0558
琥	-13.0558
纺	-13.0558
蚌	-13.0558
陕	-13.0761
谴	-13.0785
n	-13.0786
茁	-13.0786
杖	-13.0786
赣	-13.0786
岐	-13.0786
虞	-13.0786
讷	-13.0786
嗟	-13.0786
搽	-13.0786
眩	-13.0786
粟	-13.0786
荫	-13.0786
貂	-13.0786
碾	-13.0786
羔	-13.0786
旮	-13.0786
恢	-13.1017
狙	-13.1018
珉	-13.1018
怠	-13.1018
戆	-13.1018
扳	-13.1018
苞	-13.1018
赃	-13.1018
郡	-13.1018
涟	-13.1018
霓	-13.1018
膳	-13.1018
逻	-13.1256
浊	-13.1256
隙	-13.1256
玥	-13.1256
璧	-13.1256
嗰	-13.1256
涝	-13.1256
脓	-13.1256
踊	-13.1256
阜	-13.1256
吝	-13.1256
夭	-13.1256
悯	-13.1256
汀	-13.1256
稠	-13.1256
荔	-13.15
玺	-13.15
卒	-13.15
锄	-13.15
宛	-13.15
帜	-13.15
汐	-13.15
嗅	-13.15
凋	-13.15
炳	-13.15
跋	-13.15
镑	-13.15
昙	-13.15
艘	-13.15
婊	-13.1736
钵	-13.175
硅	-13.175
筱	-13.175
蔼	-13.175
镁	-13.175
迦	-13.175
瞬	-13.2005
痱	-13.2007
砣	-13.2007
婺	-13.2007
孵	-13.2007
擒	-13.2007
烁	-13.2007
瞥	-13.2007
祁	-13.2007
葡	-13.2007
%	-13.2007
钊	-13.2007
傣	-13.2007
呒	-13.2007
寥	-13.2007
碱	-13.2007
藻	-13.2007
羚	-13.227
芷	-13.227
蚂	-13.227
衢	-13.227
遁	-13.227
扉	-13.227
苓	-13.227
鲤	-13.227
鹃	-13.227
黔	-13.227
绸	-13.227
舜	-13.227
俪	-13.227
瑚	-13.227
辘	-13.227
旯	-13.227
樵	-13.227
撵	-13.254
擂	-13.254
哏	-13.254
图	-13.254
摒	-13.254
飒	-13.254
伎	-13.254
幹	-13.254
溯	-13.254
狞	-13.254
狰	-13.254
蒿	-13.254
姘	-13.254
庇	-13.254
隍	-13.254
陌	-13.281
惭	-13.2818
e	-13.2818
裱	-13.2818
沓	-13.2818
鳝	-13.2818
媲	-13.2818
灏	-13.2818
灼	-13.2818
炊	-13.2818
粕	-13.2818
茗	-13.2818
蕃	-13.2818
釜	-13.2818
萃	-13.2818
郸	-13.2818
簧	-13.2818
邯	-13.2818
雏	-13.2818
呷	-13.2818
矩	-13.3103
膊	-13.3104
嗮	-13.3104
榆	-13.3104
鸥	-13.3104
狄	-13.3104
濡	-13.3104
臆	-13.3104
逾	-13.3104
坂	-13.3104
卟	-13.3104
蔗	-13.3104
崂	-13.3398
蹿	-13.3398
脯	-13.3398
佰	-13.3398
诫	-13.3398
钳	-13.3398
剿	-13.3398
戟	-13.3398
藐	-13.3398
驯	-13.3398
悸	-13.3398
箩	-13.3398
迭	-13.3398
栎	-13.3398
篡	-13.3398
茧	-13.3398
莞	-13.3698
滕	-13.3701
钥	-13.3701
倘	-13.3701
咂	-13.3701
杷	-13.3701
贰	-13.3701
馥	-13.3701
鳅	-13.3701
咐	-13.3701
譬	-13.3701
骡	-13.3701
坍	-13.3701
抡	-13.3701
拴	-13.3701
蚱	-13.3701
咎	-13.3701
氰	-13.3701
汾	-13.3701
漪	-13.3701
莺	-13.3701
勘	-13.3701
荼	-13.3701
孰	-13.3701
擅	-13.3995
姊	-13.4011
槐	-13.4013
唰	-13.4013
渲	-13.4013
琉	-13.4013
峪	-13.4013
褂	-13.4013
枭	-13.4013
肴	-13.4013
瞟	-13.4013
屙	-13.4336
捱	-13.4336
榻	-13.4336
簸	-13.4336
喆	-13.4336
孺	-13.4336
疵	-13.4336
钧	-13.4336
甫	-13.4336
墅	-13.466
蔬	-13.4665
氓	-13.4666
忻	-13.4667
猖	-13.4668
撼	-13.4669
泾	-13.4669
秽	-13.4669
咀	-13.4669
嗳	-13.4669
珞	-13.4669
垒	-13.4669
擞	-13.4669
棘	-13.4669
焗	-13.4669
嗄	-13.4669
兀	-13.4669
洼	-13.4669
倭	-13.5014
朦	-13.5014
锚	-13.5014
褶	-13.5014
骰	-13.5014
簋	-13.5014
羲	-13.5014
瘁	-13.5014
蔫	-13.5014
炙	-13.5014
薰	-13.5014
饕	-13.5014
驿	-13.5014
洱	-13.5371
噌	-13.5371
尬	-13.5371
螂	-13.5371
叁	-13.5371
嘶	-13.5371
屹	-13.5371
俘	-13.5371
匙	-13.5741
蚁	-13.5741
屿	-13.5741
琢	-13.6126
啷	-13.736
惦	-13.7365
柠	-13.7377
粑	-13.7377
哮	-13.7378
璃	-13.7378
叭	-13.7831
悚	-13.8307
胁	-13.8807
垃	-13.8808
晰	-13.9326
猩	-13.9335
吁	-13.989
檬	-14.0478
龊	-14.0478
舆	-14.1769
啡	-14.2484
睫	-14.325
伺	-14.3253
拭	-14.3253
苹	-14.4085
驭	-14.4086
蛛	-14.4087
痹	-14.4995
葩	-14.4995
喱	-14.4996
瑰	-14.4996
玻	-14.4996
怅	-14.4996
讶	-14.5995
黍	-14.5996
鸳	-14.5996
馒	-14.7099
宙	-14.7107
螃	-14.7107
凰	-14.7107
怖	-14.7107
锻	-14.7107
胳	-14.7107
矜	-14.8357
惮	-14.8357
胧	-14.8357
氛	-14.978
磋	-14.9784
绯	-14.9785
忑	-15.1452
咆	-15.1452
圳	-15.345
垄	-15.3451
讪	-15.3451
侮	-15.3452
蹋	-15.3452
蘑	-15.3452
坷	-15.3452
龌	-15.3452
诽	-15.3452
咨	-15.5952
葫	-15.5952
圾	-15.5952
谤	-15.5952
疚	-15.9283
逍	-15.9285
蟑	-15.9286
悴	-15.9286
尴	-15.9286
鸯	-15.9286
暧	-16.4286
咙	-16.4286
牺	-16.4286
蜘	-16.4286
饨	-16.4286
惆	-16.4286
馄	-16.4286
鄞	-17.4217
鬟	-17.4218
涎	-17.4219
枇	-17.422
啬	-17.4221
酗	-17.4222
暹	-17.4223
饪	-17.4224
搐	-17.4225
鸵	-17.4226
缭	-17.4227
牦	-17.4228
邃	-17.4229
讼	-17.423
蛳	-17.4231
叵	-17.4232
龈	-17.4233
迢	-17.4234
肓	-17.4235
痊	-17.4236
徨	-17.4237
俨	-17.4238
飕	-17.4239
谩	-17.424
蚣	-17.4241
莅	-17.4242
猕	-17.4243
侥	-17.4244
慑	-17.4245
绉	-17.4246
榔	-17.4247
婪	-17.4248
鹉	-17.4249
缔	-17.425
抉	-17.4251
蜻	-17.4252
阱	-17.4253
疡	-17.4254
抨	-17.4255
恿	-17.4256
痪	-17.4257
袱	-17.4258
雳	-17.4259
蚪	-17.426
惋	-17.4261
玷	-17.4262
橄	-17.4263
畴	-17.4264
隘	-17.4265
澎	-17.4266
沮	-17.4267
徘	-17.4268
诠	-17.4269
肮	-17.427
邂	-17.4271
逅	-17.4272
秩	-17.4273
亵	-17.4274
躏	-17.4275
瞌	-17.4275
髦	-17.4276
妩	-17.4277
诋	-17.4278
酝	-17.4279
殖	-17.428
甥	-17.4281
惫	-17.4282
衅	-17.4283
惬	-17.4284
忐	-17.4284
拯	-17.4284
础	-17.4285
辐	-17.4285
嗽	-17.4285
诅	-17.4285
蝴	-17.4286
赂	-17.4286
憔	-17.4286
肪	-17.4286
侈	-17.4286
萄	-17.4286
