<unk>	0
<s>	0
</s>	0
,	-2.89504
▁	-3.05733
!	-3.47133
。	-3.71084
?	-4.03223
的	-4.0773
啊	-4.31501
了	-4.34602
我	-4.78036
~	-4.83246
你	-4.91046
▁哈哈	-5.15454
...	-5.21388
是	-5.28098
呢	-5.55067
吧	-5.55863
哈哈	-5.57801
▁你	-5.72303
啦	-5.75236
▁我	-5.75939
不	-5.76524
吗	-5.88108
就	-5.93618
有	-5.96196
都	-6.03103
呀	-6.03315
好	-6.03824
哦	-6.09171
去	-6.1138
在	-6.18064
......	-6.2128
要	-6.2153
么	-6.2269
嘛	-6.25252
也	-6.26925
人	-6.31335
和	-6.31658
来	-6.37552
没	-6.38308
。。。	-6.40627
~~	-6.4478
还	-6.46956
哈	-6.49149
那	-6.50114
.	-6.51361
就是	-6.51821
大	-6.51829
他	-6.52211
、	-6.52734
。。	-6.55861
我们	-6.56254
小	-6.58316
还是	-6.59358
会	-6.62208
到	-6.63593
▁哈哈哈	-6.63698
看	-6.68646
上	-6.69053
得	-6.69911
个	-6.70518
说	-6.71085
吃	-6.74145
这个	-6.75929
这	-6.76739
不是	-6.77515
多	-6.79119
点	-6.8004
太	-6.8635
又	-6.8766
阿	-6.8795
你们	-6.89302
一	-6.90734
没有	-6.91699
很	-6.92301
下	-6.92408
哈哈哈	-6.92864
一个	-6.93497
现在	-6.9631
可以	-6.9655
做	-6.96729
过	-6.96741
▁呵呵	-6.9728
老	-6.9905
自己	-6.99165
呵呵	-7.01486
咯	-7.02074
她	-7.02888
!!!	-7.07348
哥	-7.09597
想	-7.1078
中	-7.13998
姐	-7.1422
能	-7.14265
被	-7.14921
真	-7.15273
什么	-7.15301
▁哎	-7.16552
▁恩	-7.1766
的人	-7.19062
滴	-7.20299
比	-7.22204
都是	-7.24016
把	-7.25006
给	-7.26454
▁那	-7.2651
用	-7.27831
▁是啊	-7.29823
对	-7.30101
▁这	-7.30689
▁嘿嘿	-7.32122
那个	-7.33102
▁唉	-7.33982
不过	-7.34637
再	-7.35617
怎么	-7.35806
子	-7.36303
才	-7.37097
▁这个	-7.37179
今天	-7.37748
打	-7.39582
这么	-7.40093
▁是	-7.40366
发	-7.40892
一下	-7.41163
跟	-7.41274
叫	-7.41859
死	-7.43531
的时候	-7.44691
着	-7.45403
拉	-7.45457
还有	-7.45991
开	-7.47575
出	-7.47807
爱	-7.48351
地	-7.51682
儿	-7.5194
买	-7.52436
玩	-7.52633
哎	-7.53338
已经	-7.5444
也是	-7.54602
后	-7.5481
更	-7.56516
这样	-7.56826
真的	-7.57058
别	-7.57539
先	-7.58011
里	-7.58647
回来	-7.59321
▁嗯	-7.59434
无	-7.60161
▁好	-7.61081
他们	-7.61354
可	-7.61455
~~~	-7.61622
天	-7.62674
家	-7.63466
最	-7.63611
头	-7.64747
▁谢谢	-7.64977
但	-7.65615
水	-7.66278
为	-7.66977
走	-7.67702
喜欢	-7.68042
谢谢	-7.69078
老师	-7.69118
快	-7.694
不要	-7.69671
应该	-7.69876
..	-7.70064
你的	-7.70266
心	-7.71126
出来	-7.72035
我的	-7.73279
搞	-7.73337
人家	-7.73544
有点	-7.73726
不能	-7.74568
给你	-7.7578
美	-7.76059
一起	-7.7618
号	-7.76346
哇	-7.7688
谁	-7.76929
噶	-7.77887
喝	-7.7807
▁是的	-7.78337
高	-7.78564
当	-7.78754
带	-7.79196
嘿嘿	-7.79368
三	-7.79746
只是	-7.79766
我是	-7.79769
我也	-7.80058
像	-7.80213
但是	-7.81296
真是	-7.81764
明天	-7.81885
那么	-7.8196
时	-7.82029
等	-7.82051
车	-7.82598
▁你们	-7.83041
路	-7.83365
回	-7.83415
给我	-7.84075
以后	-7.84478
所以	-7.84531
一样	-7.84731
花	-7.84815
▁不是	-7.84836
系	-7.8552
撒	-7.85551
长	-7.86059
成	-7.86167
▁有	-7.86312
亲	-7.86467
加	-7.86769
请	-7.87092
您	-7.87758
不错	-7.89192
只	-7.89294
总	-7.89425
找	-7.90112
男人	-7.90922
起	-7.91213
放	-7.92066
前	-7.9299
姐姐	-7.9358
哟	-7.95316
▁我们	-7.9537
从	-7.9541
2	-7.95563
钱	-7.95745
微博	-7.96338
我就	-7.97405
时间	-7.98131
话	-7.98171
???	-7.98418
它	-7.987
生	-7.98908
学	-7.98992
女人	-7.99467
让	-7.99599
啥	-7.99821
是不是	-8.00097
讲	-8.00124
看到	-8.00488
吖	-8.00613
这是	-8.0112
女	-8.01341
听	-8.01427
日	-8.01788
▁他	-8.01893
喔	-8.02125
事	-8.03085
开始	-8.03582
与	-8.04207
拍	-8.04295
之	-8.04643
黑	-8.04666
穿	-8.04746
拿	-8.04981
▁这是	-8.04983
呗	-8.05052
不会	-8.05595
分	-8.05936
▁今天	-8.06194
▁我也	-8.06462
感觉	-8.06821
了吧	-8.07054
唉	-8.07392
不知道	-8.07657
见	-8.07816
需要	-8.08069
▁就是	-8.081
觉得	-8.08376
的话	-8.08391
手	-8.0862
这种	-8.08624
新	-8.0877
▁现在	-8.09244
弄	-8.09667
晚上	-8.10117
哪	-8.10234
我要	-8.10392
5	-8.10883
起来	-8.1156
噢	-8.11944
比较	-8.12126
面	-8.1337
不好	-8.13524
工作	-8.14383
问题	-8.14522
白	-8.15213
▁我是	-8.1546
干	-8.15716
生活	-8.15873
下次	-8.16191
加油	-8.16287
少	-8.16782
一点	-8.17113
月	-8.17227
装	-8.17558
连	-8.17897
而已	-8.17926
早	-8.18491
变	-8.18507
回家	-8.18584
写	-8.18841
肯定	-8.19213
好像	-8.19233
只有	-8.1946
▁哇	-8.19492
美女	-8.19602
们	-8.19644
希望	-8.19761
中国	-8.19981
气	-8.20148
年	-8.20176
去了	-8.20205
最近	-8.20227
全	-8.21126
睡	-8.21133
酒	-8.21213
狗	-8.21235
▁其实	-8.21685
让我	-8.21754
回去	-8.21857
住	-8.21995
准备	-8.22497
二	-8.22554
开心	-8.22618
可是	-8.2376
很多	-8.2385
看看	-8.24244
行	-8.24316
▁你是	-8.24329
卖	-8.24461
挺	-8.24582
3	-8.25155
送	-8.25255
我都	-8.25423
▁没有	-8.25552
刚	-8.25799
▁小	-8.2583
你是	-8.2598
▁嘻嘻	-8.26132
同	-8.26266
因为	-8.26963
山	-8.26987
换	-8.27544
求	-8.27636
还要	-8.27755
张	-8.27956
▁不	-8.28354
两	-8.28434
其实	-8.29211
直接	-8.29212
红	-8.29576
▁怎么	-8.29657
朋友	-8.29734
一直	-8.2994
怕	-8.3026
幸福	-8.30634
而	-8.30859
照	-8.31016
鸟	-8.31166
可能	-8.31657
“	-8.31987
够	-8.3199
▁对	-8.32672
别人	-8.32679
孩子	-8.32807
肉	-8.33265
死了	-8.33593
问	-8.33802
算	-8.34053
毛	-8.34663
支持	-8.34715
”	-8.34928
包	-8.34986
男	-8.34989
知道	-8.3505
几	-8.35053
一定	-8.35442
菜	-8.35911
笑	-8.35938
米	-8.36182
同学	-8.36297
飞	-8.38231
特	-8.38402
天天	-8.38697
手机	-8.38956
该	-8.38977
▁没	-8.3944
▁那你	-8.39785
海	-8.40085
▁额	-8.40388
偶	-8.40676
咱	-8.4076
风	-8.40904
坐	-8.41095
者	-8.41141
一次	-8.41295
过来	-8.41357
马	-8.41602
俺	-8.4165
估计	-8.41652
脸	-8.41866
照片	-8.41895
有人	-8.42166
吃的	-8.42764
上班	-8.42843
▁别	-8.42905
乱	-8.43311
记得	-8.4339
东西	-8.4366
神	-8.43921
性	-8.44307
好了	-8.44719
些	-8.44857
还没	-8.44932
▁在	-8.44971
甘	-8.45132
火	-8.453
五	-8.45363
活动	-8.45378
信	-8.45519
左	-8.45651
额	-8.45754
超	-8.45881
关注	-8.46052
快乐	-8.46118
你也	-8.46378
内	-8.4723
门	-8.4731
口	-8.47533
呐	-8.47597
班	-8.47706
类	-8.4776
▁因为	-8.48393
完	-8.4848
期待	-8.48508
咩	-8.48602
食	-8.48738
错	-8.49417
光	-8.49528
▁她	-8.49576
跑	-8.50153
了吗	-8.50232
▁我觉得	-8.50379
昨天	-8.50468
进	-8.50588
假	-8.50623
西	-8.50713
金	-8.50748
咋	-8.50891
好看	-8.51102
重	-8.51326
▁那是	-8.51439
公司	-8.51451
骂	-8.51569
眼	-8.51612
可爱	-8.5167
法	-8.5248
而且	-8.52577
王	-8.5308
鬼	-8.53117
道	-8.53731
然后	-8.53942
卡	-8.54017
名	-8.54482
吃了	-8.54521
这些	-8.54618
书	-8.54803
不用	-8.54973
猪	-8.55097
以	-8.55328
难	-8.55783
如此	-8.55859
▁嗯嗯	-8.55935
▁好吧	-8.55955
出去	-8.55979
继续	-8.56329
哭	-8.56478
唱	-8.56575
确实	-8.56664
各种	-8.56807
饭	-8.56884
帅	-8.56904
都有	-8.57208
养	-8.57211
妹	-8.57342
一天	-8.57362
的事	-8.574
我觉得	-8.57529
丫	-8.57678
10	-8.57894
正	-8.57927
国	-8.58114
▁真	-8.58289
嘻嘻	-8.58345
外	-8.58345
亲爱的	-8.58458
收	-8.58468
乐	-8.58769
好好	-8.58777
越	-8.59039
可惜	-8.59166
看了	-8.59199
▁不要	-8.59223
整	-8.5927
木有	-8.59272
四	-8.59353
捏	-8.59575
那些	-8.59813
管	-8.59949
1	-8.60422
力	-8.60484
只能	-8.60503
粉	-8.60542
说的	-8.60741
吃饭	-8.6091
色	-8.61046
▁哈	-8.61079
脚	-8.61298
4	-8.61415
鸡	-8.61588
掉	-8.61803
强	-8.62005
热	-8.62243
我喜欢	-8.62321
胖	-8.62908
是个	-8.63292
机	-8.63368
为什么	-8.63422
必须	-8.63525
妈	-8.63616
咧	-8.64029
领导	-8.64075
鱼	-8.64082
本	-8.64273
过去	-8.64439
老板	-8.64454
这样的	-8.64674
以前	-8.64888
▁真的	-8.65074
之前	-8.65106
哥哥	-8.65338
度	-8.6541
自	-8.65602
结婚	-8.65692
店	-8.65694
8	-8.65869
的地方	-8.65985
如何	-8.66035
诶	-8.66226
都没	-8.66236
油	-8.66356
今晚	-8.66896
北京	-8.66902
妈妈	-8.66977
▁亲爱的	-8.67097
▁哦	-8.67129
电话	-8.67182
哪个	-8.67817
边	-8.67826
生日快乐	-8.6801
于	-8.68013
来了	-8.68197
受	-8.68299
你就	-8.68461
的是	-8.68474
减肥	-8.68565
定	-8.68624
▁要	-8.68739
▁为什么	-8.68813
▁太	-8.68947
向	-8.68985
特别	-8.69145
总是	-8.69328
让你	-8.69401
入	-8.69473
如果	-8.69598
好吃	-8.70418
一个人	-8.7052
多了	-8.70642
什么时候	-8.70953
学习	-8.70959
伤	-8.71054
文	-8.71119
▁所以	-8.71275
的东西	-8.71292
也不	-8.71436
7	-8.71611
▁生日快乐	-8.71677
结果	-8.71705
皮	-8.71812
==	-8.71953
累	-8.7207
你要	-8.72132
选	-8.72341
睡觉	-8.72528
▁那就	-8.72542
改	-8.72626
那是	-8.72866
发现	-8.72963
伐	-8.73001
倒	-8.7319
条	-8.73225
到了	-8.73227
情	-8.73337
差	-8.73517
克	-8.7365
看来	-8.73791
爷	-8.73816
哼	-8.74013
猫	-8.74037
满	-8.74186
勒	-8.74605
片	-8.74685
学校	-8.74945
也有	-8.75038
台	-8.75067
哪里	-8.75108
不然	-8.75214
漂亮	-8.75491
表	-8.75566
瘦	-8.75677
越来越	-8.75704
黄	-8.76389
咱们	-8.76407
翻	-8.76415
做的	-8.76626
▁恩恩	-8.76723
傻	-8.77079
货	-8.77171
安	-8.77332
是什么	-8.77567
喊	-8.77744
抢	-8.7779
牛	-8.77831
好多	-8.77832
报	-8.78133
▁不知道	-8.78321
怎么办	-8.78384
化	-8.78597
▁哎呀	-8.78603
心情	-8.78728
貌似	-8.78779
难道	-8.78931
说话	-8.78951
好的	-8.79203
明	-8.79265
字	-8.79484
痛	-8.79499
冷	-8.79641
办	-8.80013
应该是	-8.80233
相	-8.80237
▁如果	-8.8046
我现在	-8.8051
考	-8.80837
懂	-8.81051
雨	-8.81165
切	-8.81187
拍的	-8.81199
还在	-8.81255
下午	-8.81546
不行	-8.81589
原来	-8.81637
如	-8.81733
社会	-8.81851
纠结	-8.81894
活	-8.82128
喝酒	-8.82156
药	-8.82301
的感觉	-8.82325
无聊	-8.8234
次	-8.8247
都不	-8.82629
画	-8.82665
肥	-8.82672
木	-8.82786
票	-8.82898
靠	-8.82959
排	-8.82971
将	-8.8301
耶	-8.83052
杀	-8.83113
岁	-8.83187
宝	-8.83362
▁谁	-8.83513
▁又	-8.83514
▁看来	-8.83618
▁什么	-8.83684
野	-8.83955
上海	-8.84003
多少	-8.84048
八	-8.84065
所	-8.84378
还能	-8.84406
我在	-8.84413
清	-8.84416
或者	-8.84482
城	-8.84506
体	-8.84641
站	-8.84641
反正	-8.84803
也要	-8.84815
流	-8.84856
妹妹	-8.84857
晚	-8.84902
好吧	-8.85126
场	-8.85157
不了	-8.8516
每天	-8.8521
个人	-8.85271
▁还有	-8.85314
敢	-8.8534
一定要	-8.8568
香	-8.85684
有个	-8.86215
把我	-8.86265
交	-8.86301
--	-8.86339
非常	-8.86464
▁对啊	-8.86852
蛮	-8.86996
▁我要	-8.87076
不敢	-8.87111
名字	-8.87295
当然	-8.87475
都要	-8.87491
绝对	-8.87569
晒	-8.8767
是谁	-8.87789
跟你	-8.87807
费	-8.87858
身	-8.87917
远	-8.87932
闹	-8.8825
是我	-8.88273
很好	-8.88273
空	-8.8853
▁明天	-8.88641
华	-8.88731
里面	-8.88765
帮我	-8.8881
屎	-8.88821
知	-8.88875
我会	-8.88952
人民	-8.89045
接	-8.89062
部	-8.89087
真好	-8.89185
一些	-8.8937
教	-8.89464
李	-8.89471
才能	-8.89618
就好	-8.89916
龙	-8.8995
已	-8.89997
跟我	-8.90026
我想	-8.90321
两个	-8.90331
我还	-8.90333
不想	-8.90336
'	-8.90375
努力	-8.90567
▁亲	-8.90577
▁我也是	-8.90726
组织	-8.90744
歌	-8.90825
病	-8.90835
终于	-8.90992
贵	-8.91056
样	-8.91195
来的	-8.91245
就好了	-8.91288
为了	-8.91316
线	-8.91364
永远	-8.91387
作	-8.91515
心里	-8.91551
忙	-8.91598
耍	-8.91616
帅哥	-8.91657
▁我喜欢	-8.91761
球	-8.91905
▁可以	-8.92144
游	-8.9221
▁人家	-8.92267
干嘛	-8.92297
参加	-8.92363
看着	-8.92397
元	-8.92624
休息	-8.9288
伤心	-8.92914
帮	-8.9309
有木有	-8.93182
▁您	-8.93246
怎么样	-8.93295
▁姐	-8.93299
方	-8.9349
叫我	-8.93509
可怜	-8.93615
最后	-8.9371
唔	-8.94005
怪	-8.94172
▁加油	-8.94294
电	-8.94309
离	-8.94415
神马	-8.94511
精神	-8.94559
让人	-8.94634
不够	-8.94718
我已经	-8.94856
动	-8.94859
老公	-8.95048
表示	-8.95156
既	-8.9541
仔	-8.95491
6	-8.95539
▁是呀	-8.95629
却	-8.95669
爱你	-8.9582
楼	-8.95833
好不好	-8.96019
的嘛	-8.96166
罗	-8.9619
东	-8.96196
狠	-8.96447
传	-8.96452
去看	-8.96497
老婆	-8.9675
周末	-8.97002
讨厌	-8.97049
不懂	-8.97127
洗	-8.97403
世界	-8.97585
一般	-8.97632
房	-8.97668
衣服	-8.97678
补	-8.97702
居然	-8.97962
经常	-8.97998
在家	-8.98039
网	-8.98073
成功	-8.98144
过了	-8.98208
▁尼玛	-8.98219
苦	-8.98303
平	-8.98613
茶	-8.98629
今年	-8.98696
粉丝	-8.98899
非	-8.9895
莫	-8.99314
林	-8.99425
伤不起	-8.99537
区	-8.99579
提	-8.99643
我家	-8.9965
地方	-9
把你	-9.00064
的事情	-9.00081
半	-9.00263
感	-9.00469
混	-9.00512
贱	-9.00517
国家	-9.00591
低	-9.00674
广告	-9.0125
破	-9.01289
坏	-9.01318
▁靠	-9.01357
人生	-9.01403
▁你也	-9.01619
▁原来	-9.01778
▁好的	-9.01853
单	-9.01867
几个	-9.02112
不到	-9.02124
》	-9.02194
赶紧	-9.02275
之后	-9.02364
留	-9.02424
数	-9.0249
深	-9.02594
党	-9.0262
都没有	-9.02648
认识	-9.0268
时候	-9.02784
乖	-9.02916
饿	-9.03049
实在	-9.0318
相信	-9.03268
▁晕	-9.03324
▁可惜	-9.03418
蛋	-9.03756
贴	-9.03929
南	-9.04092
主	-9.04134
是你	-9.04172
命	-9.04252
关	-9.04521
▁看	-9.04529
汤	-9.04608
痛苦	-9.0461
这次	-9.04855
最好	-9.04942
味	-9.05043
不知	-9.05088
爽	-9.05106
谈	-9.05324
眼睛	-9.05455
腿	-9.05566
不同	-9.05672
要求	-9.05725
▁最近	-9.05739
梦	-9.05761
的日子	-9.0591
兄弟	-9.06059
超级	-9.06234
围脖	-9.06276
那么多	-9.06284
有没有	-9.06308
课	-9.06602
要是	-9.06717
就不	-9.06791
版	-9.06851
万	-9.07016
种	-9.07064
有些	-9.07074
公	-9.0708
恶心	-9.07101
早上	-9.07155
还好	-9.07418
▁还是	-9.07516
双	-9.07516
通	-9.07592
节目	-9.07648
▁那我	-9.07662
此	-9.07855
妞	-9.08031
你懂的	-9.08043
宝宝	-9.08188
羡慕	-9.08234
电影	-9.0824
评论	-9.0828
郁闷	-9.08297
约	-9.08442
块	-9.08523
未	-9.08742
其他	-9.08758
距	-9.08936
声	-9.09067
没事	-9.09083
▁下次	-9.0923
你还	-9.09419
血	-9.09478
买了	-9.0952
配	-9.09637
读	-9.09695
近	-9.09782
演	-9.09864
德	-9.09887
节	-9.0992
▁我已经	-9.09927
夜	-9.10113
▁请问	-9.10122
云	-9.10174
生日	-9.10414
烦	-9.10443
▁求	-9.10467
儿子	-9.10502
你说	-9.1068
某	-9.10707
就要	-9.10931
落	-9.11291
完了	-9.11329
▁我想	-9.11342
招	-9.11363
给力	-9.11437
萌	-9.11459
9	-9.11478
联系	-9.11543
《	-9.11633
味道	-9.11644
太多	-9.11701
▁希望	-9.11936
嘴	-9.12088
宝贝	-9.12399
理解	-9.12539
事情	-9.12607
才是	-9.12749
往	-9.12798
▁可是	-9.12816
抓	-9.12949
说我	-9.12992
街	-9.12994
新闻	-9.13097
后面	-9.13109
波	-9.13162
▁昨天	-9.13312
选择	-9.13323
理	-9.13562
教育	-9.13705
政府	-9.13748
练	-9.13864
帮你	-9.13865
的问题	-9.14087
等你	-9.14128
臭	-9.14524
那天	-9.14775
伤不起啊	-9.14811
准	-9.15017
喽	-9.15055
那里	-9.15098
▁请	-9.15099
自己的	-9.15143
电脑	-9.15169
先生	-9.15246
完全	-9.15293
没人	-9.15359
上课	-9.15361
走了	-9.15368
列	-9.15399
等我	-9.15602
位	-9.15706
麻	-9.15955
周	-9.16001
记	-9.16455
反	-9.16591
看的	-9.16733
告诉我	-9.1685
买的	-9.17015
北	-9.17036
我们的	-9.17045
烂	-9.17152
▁我现在	-9.17221
找到	-9.17314
试试	-9.17324
修	-9.17426
头发	-9.17649
就可以	-9.17669
叫你	-9.17698
忘记	-9.17927
素	-9.17956
专业	-9.18134
值得	-9.18256
抽	-9.18286
和你	-9.18314
查	-9.18401
我妈	-9.18415
小心	-9.18484
雪	-9.18544
架	-9.18576
陪	-9.18629
陈	-9.18733
关系	-9.18734
牙	-9.18825
在哪里	-9.1885
挂	-9.1893
逼	-9.18992
紧	-9.19157
星	-9.19256
20	-9.19381
烧	-9.19381
算了	-9.19529
套	-9.19734
的照片	-9.19749
跳	-9.19777
有空	-9.19842
随便	-9.2018
背	-9.20244
▁我在	-9.20286
好啊	-9.20347
容易	-9.20387
语	-9.20393
除了	-9.20457
象	-9.20757
到时候	-9.20766
你家	-9.20891
不得	-9.21113
果	-9.21158
他的	-9.21192
第一	-9.21215
身体	-9.21262
安排	-9.21304
虽然	-9.21393
效果	-9.21404
工	-9.21431
加班	-9.21467
寂寞	-9.21503
报名	-9.21513
机会	-9.21671
推荐	-9.21834
也可以	-9.21912
疼	-9.22045
苹果	-9.22137
▁老	-9.22144
老大	-9.22259
偷	-9.22282
晕	-9.22304
某人	-9.22347
▁那个	-9.22422
或	-9.22548
就会	-9.22551
局	-9.22584
娘	-9.22605
爆	-9.2272
有什么	-9.22768
▁以后	-9.2285
代表	-9.2295
▁哼	-9.22966
很难	-9.23048
注意	-9.23317
▁你要	-9.23324
那种	-9.23346
土	-9.235
赶	-9.23511
▁确实	-9.23671
出门	-9.23751
大学	-9.23759
不喜欢	-9.2379
祝福	-9.23864
▁矮油	-9.23931
要不	-9.23959
了么	-9.24051
坚持	-9.24066
我也是	-9.24144
了解	-9.24318
看你	-9.24366
江	-9.24377
团	-9.24387
▁怎么了	-9.24458
变态	-9.24586
摆	-9.24674
女生	-9.24707
▁难道	-9.24713
纸	-9.24762
昨晚	-9.24863
的孩子	-9.2488
欢迎	-9.24957
慢慢	-9.25166
型	-9.25314
看见	-9.25665
▁当然	-9.25676
丑	-9.2568
介绍	-9.25977
到底	-9.26101
队	-9.2635
意思	-9.2635
品	-9.26394
九	-9.26464
出现	-9.26507
阿姨	-9.26634
那就	-9.26641
单身	-9.26649
悲剧	-9.26687
几天	-9.26687
那你	-9.2671
派	-9.26865
上次	-9.26877
▁刚	-9.26954
▁是不是	-9.26957
古	-9.27007
放假	-9.27232
还可以	-9.27286
决定	-9.273
▁呃	-9.2733
追	-9.27388
恨	-9.27555
量	-9.276
赞	-9.27723
微薄	-9.2773
小孩	-9.27915
的吗	-9.27943
考试	-9.27955
的说	-9.28024
老子	-9.28183
鞋	-9.28204
怀念	-9.2825
明年	-9.28322
也没	-9.28337
突然	-9.28347
适合	-9.28552
马上	-9.28596
技术	-9.28795
真的是	-9.28826
还真	-9.28891
只要	-9.28916
七	-9.28925
俩	-9.28931
晚安	-9.29078
其	-9.29079
计划	-9.29202
▁你不是	-9.29202
垃圾	-9.29265
是吧	-9.29383
六	-9.29457
无法	-9.29676
刷	-9.29746
怎样	-9.29757
疯	-9.29872
调	-9.29902
合	-9.29902
差不多	-9.29951
▁等	-9.29962
处	-9.29973
▁我都	-9.2998
聊	-9.29989
冲	-9.30074
淡定	-9.30103
比我	-9.30132
感情	-9.30326
她们	-9.30502
抱	-9.30512
穷	-9.30558
感谢	-9.30627
当时	-9.30637
上了	-9.30672
会不会	-9.30705
我去	-9.30709
有机会	-9.30753
11	-9.3096
那样	-9.31067
那边	-9.31074
什么的	-9.31082
冒	-9.31106
喂	-9.31182
在一起	-9.31334
▁喜欢	-9.31337
遇到	-9.31427
吾	-9.3166
这么多	-9.31672
学生	-9.3173
没办法	-9.31731
真心	-9.31733
文化	-9.31742
急	-9.31804
不如	-9.3182
▁真是	-9.31929
师	-9.31941
▁哥	-9.32011
期	-9.32017
难受	-9.32106
你妹	-9.32125
得很	-9.32183
告诉你	-9.32277
果然	-9.32335
姑娘	-9.3236
牌	-9.32482
▁切	-9.32602
影响	-9.32656
▁你又	-9.32799
恩	-9.32811
影	-9.32906
下来	-9.33111
睇	-9.33158
言	-9.33402
研究	-9.33539
12	-9.33598
迷	-9.33772
被你	-9.33774
习惯	-9.33776
吹	-9.33822
说你	-9.3389
市场	-9.34057
变成	-9.34097
找个	-9.34097
价	-9.34153
情况	-9.34266
取	-9.34363
戏	-9.3439
中午	-9.34438
运动	-9.34465
▁姐姐	-9.34469
流氓	-9.34485
桥	-9.34507
▁不错	-9.34516
正在	-9.34534
青	-9.34564
达	-9.34593
美丽	-9.34624
辣	-9.34762
杂	-9.34823
出来的	-9.34929
斯	-9.34955
厉害	-9.35024
代	-9.35082
的样子	-9.35293
忘了	-9.35298
这里	-9.35328
现实	-9.35399
不怕	-9.35429
高兴	-9.35447
军	-9.35457
▁这么	-9.35561
开车	-9.35595
短	-9.35639
鄙视	-9.35721
都在	-9.35728
嘎	-9.35748
民	-9.35985
和我	-9.35986
瞎	-9.36029
▁期待	-9.36045
健康	-9.36127
市	-9.36153
见到	-9.3616
意	-9.36171
吐	-9.36273
戴	-9.36277
的小	-9.36305
博	-9.36348
疯了	-9.36385
按	-9.36417
激动	-9.36507
旅游	-9.36529
严重	-9.36543
十	-9.36567
毒	-9.36707
挖	-9.36738
的那个	-9.36779
百	-9.3694
在哪	-9.36998
下去	-9.37023
刘	-9.37025
直	-9.37185
说了	-9.37188
精	-9.37432
说明	-9.3749
▁晚上	-9.37561
安全	-9.37615
的女人	-9.37659
冰	-9.37753
省	-9.37769
▁我的	-9.37831
说是	-9.37855
▁没事	-9.37855
一张	-9.37889
集	-9.37908
泡	-9.37939
亮	-9.37962
▁恭喜	-9.37983
的呀	-9.38019
还不	-9.38141
遗憾	-9.38197
爸爸	-9.3821
不在	-9.38216
常	-9.38232
饮	-9.38282
麻烦	-9.38364
好吗	-9.38373
▁呜呜	-9.38412
享受	-9.38461
还不错	-9.38494
视频	-9.38548
竟然	-9.38582
拍照	-9.38586
减	-9.38592
▁他们	-9.38806
我没	-9.38986
想念	-9.39045
自然	-9.39051
▁想	-9.3908
比你	-9.39092
美国	-9.39415
明白	-9.39505
▁大	-9.3951
群	-9.3954
官	-9.39541
娃	-9.3959
给他	-9.39993
感动	-9.40003
炒	-9.40024
领	-9.40042
利	-9.40094
一条	-9.40111
嫩	-9.4019
提前	-9.4021
飞机	-9.40224
难过	-9.403
银	-9.40304
回来了	-9.404
▁你这	-9.40483
宁	-9.40532
惨	-9.40613
不一样	-9.40667
考虑	-9.4073
现场	-9.40789
悲催	-9.40945
摸	-9.40985
以为	-9.41032
战	-9.41123
骗	-9.41131
哒	-9.41148
泪	-9.41173
回忆	-9.41197
剪	-9.41271
骚	-9.41345
便宜	-9.41459
快点	-9.41496
找你	-9.41544
证	-9.41939
树	-9.42023
都会	-9.42054
女儿	-9.42242
服务	-9.42294
建议	-9.42302
兄	-9.42412
浪费	-9.42422
爱情	-9.42461
物	-9.42531
巴	-9.42668
睡不着	-9.42674
睡了	-9.42777
结	-9.42784
简单	-9.42844
一年	-9.42861
会有	-9.42922
实	-9.42926
关心	-9.42957
家里	-9.42978
细	-9.42999
分享	-9.43183
狂	-9.4319
还得	-9.43261
解释	-9.43269
年轻	-9.43295
何	-9.43493
秀	-9.43521
童鞋	-9.436
不来	-9.43632
我不	-9.43644
正常	-9.4375
聪明	-9.43768
▁哎哟	-9.43779
祝	-9.43857
雷	-9.43931
盘	-9.43963
听到	-9.44101
谢谢你	-9.4423
唱歌	-9.44444
小朋友	-9.44448
出来了	-9.44504
板	-9.44515
间	-9.44667
是在	-9.44685
阳	-9.44775
不像	-9.44865
一切	-9.44887
▁你个	-9.45034
又要	-9.45052
老了	-9.45071
归	-9.45185
▁什么时候	-9.45201
打电话	-9.45285
你在	-9.45288
指	-9.45303
脑残	-9.45325
硬	-9.45408
▁可怜的	-9.45538
园	-9.45552
去吧	-9.45602
刀	-9.45697
比赛	-9.45723
哪天	-9.45792
刚刚	-9.45802
试	-9.45881
丢	-9.45961
建	-9.45974
笨	-9.46042
各	-9.46048
▁支持	-9.4619
奶	-9.46194
欣赏	-9.46329
▁已经	-9.4648
客	-9.465
媒体	-9.4657
爬	-9.46594
嘞	-9.46656
露	-9.46661
醉	-9.46674
怎么了	-9.46819
缺	-9.46828
还没有	-9.46852
妹子	-9.46859
得到	-9.46886
煮	-9.47013
是否	-9.47071
想想	-9.47095
▁还	-9.4716
明显	-9.47206
至少	-9.47209
你又	-9.47239
事实	-9.47248
堵	-9.47258
要去	-9.47293
杨	-9.47419
艺术	-9.47542
乃	-9.47548
感冒	-9.47555
要不要	-9.47608
挑	-9.47631
可怜的	-9.47687
所有	-9.47699
失眠	-9.48013
欺负	-9.48014
胖子	-9.48067
福	-9.48082
立	-9.48086
▁必须的	-9.48095
狗狗	-9.48116
错了	-9.48166
发展	-9.48258
窝	-9.48321
再说	-9.48338
▁从	-9.48372
下班	-9.48417
写的	-9.48463
属于	-9.48476
好久	-9.48619
让他	-9.48783
▁好像	-9.48817
应	-9.48988
医院	-9.48993
根	-9.48999
尽	-9.49003
▁貌似	-9.49011
后来	-9.49025
肚子	-9.49246
收到	-9.49377
呜呜	-9.4938
糖	-9.49552
真的很	-9.49569
+	-9.49577
▁你怎么	-9.49589
自由	-9.4965
上网	-9.49676
游戏	-9.49712
咖啡	-9.49748
底	-9.49774
一只	-9.4979
▁你的	-9.49823
来着	-9.49883
日子	-9.49884
大叔	-9.49902
日本	-9.49916
原	-9.49961
你个	-9.50261
经典	-9.50273
解	-9.50786
科	-9.50787
不准	-9.50853
沙	-9.50855
待	-9.50928
叔	-9.51007
纯	-9.51084
烟	-9.51163
重要	-9.51178
圈	-9.51375
30	-9.51377
长得	-9.51455
广州	-9.51471
当年	-9.51531
并	-9.5155
困	-9.51585
组	-9.51597
成为	-9.51625
相当	-9.51648
有钱	-9.51731
谢	-9.5177
铁	-9.51869
好玩	-9.519
没得	-9.51963
剧	-9.52072
赛	-9.52111
衣	-9.52122
也会	-9.52265
担心	-9.52313
河	-9.5246
警察	-9.52518
绝	-9.52562
▁木有	-9.52563
贼	-9.52569
那我	-9.52579
颜色	-9.52581
女的	-9.52645
蛋糕	-9.52745
啥子	-9.52798
蓝	-9.52825
布	-9.52852
什么都	-9.529
接受	-9.53011
辛苦	-9.53167
猜	-9.53409
呆	-9.53423
难得	-9.53448
咱俩	-9.53477
锅	-9.53499
静	-9.53519
医生	-9.53531
低调	-9.53535
床	-9.5359
喇	-9.53633
无奈	-9.53827
设计	-9.53891
太阳	-9.539
▁很	-9.53961
小时候	-9.5401
▁应该	-9.54029
听说	-9.54034
借	-9.54043
甜	-9.54164
也不错	-9.54189
消息	-9.54234
同事	-9.54293
不好意思	-9.54367
啥时候	-9.54385
一起去	-9.54414
由	-9.54449
下雨	-9.545
就行	-9.54504
失	-9.5459
玉	-9.54716
劲	-9.54767
豆	-9.54848
宣传	-9.54909
斗	-9.54914
上的	-9.55003
表情	-9.55019
简直	-9.55062
微	-9.55158
熊	-9.55318
主要是	-9.55328
打算	-9.55464
杯	-9.55631
记者	-9.55708
控	-9.5573
▁俺	-9.5575
句	-9.5576
则	-9.55783
嫉妒	-9.55793
礼物	-9.55795
▁我靠	-9.55837
去吃	-9.55841
改变	-9.55848
男的	-9.55947
世	-9.55972
后悔	-9.56155
围观	-9.56158
头像	-9.56239
酒店	-9.56284
▁但是	-9.56362
私信	-9.56389
▁偶	-9.56406
看过	-9.56453
投	-9.56465
君	-9.56503
的生活	-9.56537
▁估计	-9.56544
款	-9.56583
停	-9.56788
都可以	-9.57075
免费	-9.57184
使	-9.57199
旁边	-9.57242
着呢	-9.57337
操	-9.5735
尼	-9.5738
石	-9.57417
就有	-9.57436
很有	-9.57454
哭了	-9.57536
级	-9.57542
塞	-9.5759
嫁	-9.57596
砸	-9.57617
坑	-9.57706
嗨	-9.57863
电视	-9.57993
院	-9.57999
脑子	-9.58119
基本	-9.58167
得瑟	-9.58169
一边	-9.58235
权	-9.58318
▁今晚	-9.58583
友	-9.58607
刺激	-9.58629
夏天	-9.58642
绿	-9.5865
经	-9.58688
离开	-9.58795
恶	-9.58833
找不到	-9.58934
然	-9.59008
▁甘	-9.59014
水平	-9.59015
就能	-9.59023
等着	-9.59079
你都	-9.59102
话说	-9.59135
你怎么	-9.59153
傻逼	-9.59179
具体	-9.59194
的朋友	-9.59199
份	-9.5923
人的	-9.59273
我地	-9.59287
很美	-9.59304
湖	-9.5937
明星	-9.59444
推	-9.59479
环境	-9.59567
暴	-9.59578
酸	-9.59585
赢	-9.59668
想到	-9.59779
必	-9.59789
下周	-9.5985
城市	-9.59894
搭	-9.59907
灯	-9.60023
尔	-9.60156
念	-9.60157
闲	-9.60168
第一次	-9.60205
慢	-9.60236
哩	-9.60282
涨	-9.60396
你妈	-9.60441
冬天	-9.60511
佛	-9.60531
工资	-9.60581
羊	-9.60675
早点	-9.60764
胸	-9.60984
喃	-9.61006
村	-9.61063
啊哈哈	-9.61108
粗	-9.61112
折腾	-9.6124
▁都是	-9.61251
证明	-9.61315
长的	-9.61447
一个月	-9.61449
亚	-9.61768
每次	-9.6185
你自己	-9.61866
播	-9.61894
懒	-9.61897
同意	-9.61944
叔叔	-9.62015
输	-9.62049
的男人	-9.62066
春	-9.62076
潮	-9.62076
吵	-9.62214
祝你	-9.62246
到时	-9.62257
▁为啥	-9.62384
屁股	-9.62414
网络	-9.62451
▁这就是	-9.62494
舒服	-9.62533
回答	-9.62613
奖	-9.62635
小姐	-9.62805
宿舍	-9.62806
不可	-9.62856
口味	-9.62875
虎	-9.6293
佳	-9.63002
▁我也想	-9.63081
座	-9.63127
害怕	-9.63146
你这	-9.63168
通知	-9.63184
天气	-9.63288
很喜欢	-9.63344
大师	-9.63422
千	-9.6344
汗	-9.63481
服	-9.63542
这张	-9.63571
▁你好	-9.63685
单位	-9.63706
胡	-9.63739
能力	-9.63761
清楚	-9.6389
你好	-9.63938
思想	-9.63959
娃娃	-9.64007
;	-9.64013
散	-9.64082
不信	-9.64091
心疼	-9.64148
进去	-9.64162
看不到	-9.64284
里的	-9.64289
18	-9.64373
拖	-9.64389
醒	-9.64472
扯	-9.64491
造	-9.64527
料	-9.64649
90	-9.64666
没什么	-9.64676
式	-9.64703
音乐	-9.64719
大概	-9.6476
的吧	-9.64787
感慨	-9.64828
训	-9.64833
整个	-9.6488
似	-9.65036
同志	-9.65056
擦	-9.6509
顺	-9.65141
退	-9.65186
坏了	-9.65205
状态	-9.6522
▁哟	-9.65227
本人	-9.6523
扣	-9.65304
斤	-9.65411
我们都	-9.65411
改天	-9.65452
田	-9.655
有时间	-9.65512
骂我	-9.65513
不算	-9.65586
报道	-9.65707
被人	-9.65723
阳光	-9.65736
你可以	-9.65755
都能	-9.65811
形象	-9.65831
屁	-9.6587
起床	-9.65902
我这	-9.65915
▁快	-9.65979
目前	-9.66031
挤	-9.66128
你不是	-9.66212
中国人	-9.66295
素质	-9.66385
这句话	-9.66433
▁多谢	-9.66449
▁中国	-9.66519
发生	-9.66567
半夜	-9.66773
浪	-9.66793
秋	-9.66795
▁跟	-9.66836
老百姓	-9.66907
掉了	-9.66921
讨论	-9.67006
我还是	-9.67078
历史	-9.67086
今日	-9.6715
▁你还	-9.67177
毕业	-9.67177
身材	-9.67282
脑	-9.67313
全部	-9.67508
的好	-9.67511
很开心	-9.67526
信息	-9.67568
每	-9.67654
搬	-9.67656
的很	-9.67671
姐妹	-9.67703
房子	-9.67708
眼泪	-9.67734
100	-9.67816
不起	-9.67842
腰	-9.67885
▁谢谢你	-9.67965
速度	-9.68011
识	-9.68027
是因为	-9.68031
你来	-9.68072
司机	-9.6809
路上	-9.68107
▁对的	-9.68204
经济	-9.68261
治	-9.6828
前面	-9.68393
姓	-9.68408
政治	-9.68461
又是	-9.68467
女朋友	-9.68519
认真	-9.68594
挺好的	-9.68645
▁必须	-9.68692
▁你就	-9.6875
培训	-9.68761
▁话说	-9.68767
▁哪个	-9.68793
自恋	-9.68795
撞	-9.68891
现	-9.68962
用的	-9.68999
喜	-9.69023
喝了	-9.69053
想你	-9.69153
▁据说	-9.69172
首	-9.69215
搞笑	-9.69249
放心	-9.6928
▁不是吧	-9.69345
我很	-9.69345
这边	-9.69455
发的	-9.69489
稳	-9.6949
不晓得	-9.69537
▁好啊	-9.69558
欺负我	-9.69589
对不起	-9.69629
▁我也觉得	-9.69672
灵	-9.69728
腐败	-9.69897
他是	-9.69913
国庆	-9.69947
保	-9.69959
晓得	-9.70013
思	-9.70033
这就是	-9.70035
也很	-9.70132
你们的	-9.70145
兰	-9.70164
成熟	-9.70168
、、	-9.70265
地址	-9.70267
的确	-9.70269
圆	-9.70321
不吃	-9.70348
加入	-9.70423
卷	-9.70425
解决	-9.70452
巨	-9.7046
早就	-9.70475
结束	-9.70581
岛	-9.70586
枪	-9.70635
银行	-9.70659
▁你说	-9.70715
防	-9.70819
为啥	-9.70856
失望	-9.70902
平时	-9.70947
瘦了	-9.70968
价格	-9.70977
了嘛	-9.71085
▁看到	-9.71103
问问	-9.71176
诗	-9.71183
压	-9.71392
吓	-9.71394
遭	-9.71434
在北京	-9.71487
一半	-9.71526
▁感谢	-9.71533
▁主要是	-9.71599
羡慕嫉妒恨	-9.71659
时代	-9.71847
肿么	-9.71868
望	-9.71899
可爱的	-9.7198
我今天	-9.72
负责	-9.72058
骂人	-9.72062
聚会	-9.721
熟	-9.72137
喷	-9.72224
你会	-9.72234
就没	-9.72258
恭喜	-9.72281
被我	-9.7233
娱乐	-9.72358
▁老子	-9.72463
▁北京	-9.72502
▁这样	-9.72535
不太	-9.72545
广	-9.72559
▁啥	-9.72604
碰到	-9.72633
就在	-9.72756
想去	-9.72757
全是	-9.72785
小时	-9.72829
丽	-9.72845
聚	-9.72977
极	-9.72995
业	-9.73054
▁一个	-9.7308
不管	-9.73172
我自己	-9.73179
顺便	-9.73181
我又	-9.73184
校	-9.732
男朋友	-9.73203
存	-9.73212
15	-9.73215
猥琐	-9.73305
两天	-9.73334
▁哪里	-9.73349
要么	-9.73355
咁	-9.73443
直播	-9.73471
干啥	-9.7348
爹	-9.73642
恐怖	-9.73643
瓶	-9.73648
麽	-9.73739
是一个	-9.73824
多谢	-9.73856
惊	-9.73985
胃	-9.74205
差点	-9.74211
火锅	-9.74256
景	-9.74292
雅	-9.74345
上来	-9.74393
好吃的	-9.74399
地铁	-9.74422
必须的	-9.74492
埋	-9.74532
看到了	-9.74636
音	-9.74756
找我	-9.74765
尼玛	-9.74771
未来	-9.74772
就行了	-9.74829
八卦	-9.74838
给我们	-9.74862
一种	-9.74902
不容易	-9.74914
▁咋	-9.74954
读书	-9.74956
▁祝	-9.75031
▁应该是	-9.7513
似的	-9.75194
做了	-9.75216
咬	-9.75252
的意思	-9.75358
附近	-9.75387
带着	-9.75405
▁这不是	-9.7545
脱	-9.75504
出发	-9.75552
多多	-9.75603
升	-9.75676
左右	-9.75682
我怕	-9.75699
件	-9.75792
我有	-9.75798
男生	-9.75811
是真的	-9.75831
想要	-9.75847
认	-9.75868
肯定是	-9.75898
仲	-9.75965
也许	-9.76157
▁爱	-9.76227
管理	-9.76235
更加	-9.76245
国际	-9.76252
是要	-9.76287
师傅	-9.76303
香港	-9.7632
有问题	-9.76334
去看看	-9.76396
潇洒	-9.76424
心理	-9.76493
你这个	-9.76505
酷	-9.76533
真相	-9.76539
商	-9.76539
饼	-9.76586
动物	-9.7671
你去	-9.76718
有时候	-9.76718
一场	-9.76809
觉	-9.76844
一家	-9.76881
过的	-9.76886
▁还好	-9.7703
侬	-9.77091
▁哎呦	-9.77199
产品	-9.77314
玩的	-9.77323
死你	-9.77325
开会	-9.77351
宫	-9.77384
青春	-9.77407
吴	-9.77447
▁反正	-9.77459
行动	-9.77484
一会	-9.77499
想吃	-9.77573
▁终于	-9.77581
断	-9.77743
▁弄	-9.77792
80	-9.77847
救	-9.7788
▁再	-9.7797
让我们	-9.77975
就像	-9.77991
生气	-9.78076
苏	-9.78094
弟弟	-9.7815
美食	-9.78211
及	-9.78281
舞	-9.78342
狼	-9.78424
太好了	-9.78442
段	-9.78468
旧	-9.78552
▁你在	-9.78771
休	-9.78825
词	-9.78836
逛	-9.78844
`	-9.78869
扎	-9.78873
点儿	-9.78878
洋	-9.78898
嗲	-9.78904
藏	-9.7892
陪你	-9.78952
右	-9.79031
▁你可以	-9.79052
瓜	-9.79086
英语	-9.79137
忘	-9.79186
餐	-9.79268
格	-9.7927
角	-9.79329
折	-9.7934
新浪	-9.79379
霸气	-9.79393
在这里	-9.79476
刚才	-9.79523
馆	-9.79625
批	-9.79669
▁擦	-9.79698
一样的	-9.79706
客户	-9.79713
虾	-9.79719
朝	-9.7972
去买	-9.79766
太多了	-9.79781
产	-9.79796
水果	-9.79798
军训	-9.79824
又不是	-9.79889
笔	-9.79948
愿意	-9.79954
▁系	-9.79956
企业	-9.80028
发了	-9.80097
女孩	-9.80144
浪漫	-9.8022
更好	-9.80312
风格	-9.80318
故意	-9.80322
猛	-9.80329
▁我不	-9.80374
真系	-9.80493
▁没错	-9.80519
故事	-9.80563
一定会	-9.80624
到现在	-9.80634
▁我还	-9.80641
倒是	-9.80724
参与	-9.80776
这么说	-9.80804
你看	-9.80838
伤感	-9.80901
▁老师	-9.80904
踢	-9.80918
见过	-9.80927
至	-9.80952
也能	-9.81087
随	-9.81093
分钟	-9.81093
坏人	-9.81096
撑	-9.81113
不对	-9.81115
论	-9.81175
看起来	-9.81177
正好	-9.81195
坑爹	-9.81275
▁我家	-9.81296
订	-9.81311
保护	-9.81366
母	-9.81393
就知道	-9.81545
很少	-9.81596
上面	-9.81629
重口味	-9.81715
任	-9.81821
闷	-9.81894
步	-9.81989
堂	-9.82011
员	-9.82039
身上	-9.82068
系统	-9.82113
别的	-9.8213
▁我没	-9.82146
本来	-9.82148
对面	-9.82271
逃	-9.82282
▁我知道	-9.82353
▁可怜的孩子	-9.82377
主要	-9.82384
星座	-9.82447
月饼	-9.82461
变化	-9.82467
我也想	-9.82467
法律	-9.8253
不上	-9.82558
回头	-9.82693
目标	-9.8272
任何	-9.82742
受不了	-9.82761
白痴	-9.8277
成都	-9.82773
威	-9.82819
不过我	-9.8288
父母	-9.82881
我也要	-9.82915
这不是	-9.82915
年龄	-9.83235
很大	-9.83314
你现在	-9.83334
我错了	-9.8344
杭州	-9.83482
反应	-9.83493
来说	-9.83558
▁你这个	-9.83586
还不如	-9.83648
有意思	-9.83653
▁同	-9.83722
厚	-9.83747
天下	-9.83768
我看	-9.83802
不开心	-9.83871
还说	-9.83899
保持	-9.8394
性感	-9.83962
久	-9.83984
悲哀	-9.8405
紧张	-9.84059
珍惜	-9.84065
港	-9.84091
忽悠	-9.84107
中心	-9.8412
欢	-9.84155
原因	-9.84215
50	-9.84229
一直在	-9.84268
的心	-9.843
否则	-9.8435
争	-9.84364
犯	-9.84365
很不错	-9.84372
奇	-9.84377
网上	-9.84395
不住	-9.84402
是我的	-9.84429
见面	-9.84447
能不能	-9.84482
很多人	-9.84645
拼	-9.84676
月份	-9.84718
盐	-9.8474
麻将	-9.84749
争取	-9.84774
打击	-9.84804
门口	-9.84818
导	-9.84849
发微博	-9.84864
看完	-9.8491
凉	-9.84969
▁可怜	-9.84982
鼓励	-9.85063
▁最	-9.8509
昂	-9.85109
最爱	-9.8511
题	-9.85201
富	-9.85212
川	-9.85219
灰	-9.85225
而是	-9.85307
你想	-9.8532
完美	-9.85364
方法	-9.85386
过年	-9.85391
▁这张	-9.85403
不出	-9.85441
结局	-9.85442
请你	-9.85448
赖	-9.85495
烤	-9.8552
办公室	-9.85626
害	-9.85706
申请	-9.85719
我怎么	-9.85727
称	-9.85729
上去	-9.85731
▁哇塞	-9.85743
不去	-9.85798
陪我	-9.85807
出差	-9.8581
回家了	-9.85818
根本	-9.85823
做个	-9.85828
质量	-9.85844
专	-9.85865
好听	-9.85899
不说	-9.85916
的么	-9.8595
十一	-9.85972
交流	-9.86027
盖	-9.86032
表现	-9.8611
彻底	-9.8623
得了	-9.86272
起来了	-9.86356
想法	-9.86586
哪儿	-9.86612
很像	-9.86647
吃货	-9.86718
一块	-9.86748
叶	-9.86776
兔	-9.86789
经验	-9.86812
▁一	-9.86824
▁可怜的娃	-9.86867
苦逼	-9.86942
▁不过	-9.87025
文艺	-9.87098
婚	-9.87285
也就	-9.87372
还挺	-9.87399
有多	-9.87436
都系	-9.87463
少了	-9.87471
兴奋	-9.87531
曲	-9.87537
高中	-9.87622
他妈	-9.87645
才会	-9.87649
就这样	-9.8765
一句	-9.87686
不大	-9.87855
不是我	-9.87859
项目	-9.87861
知识	-9.87871
果断	-9.87909
看不懂	-9.87925
压力	-9.87952
暴力	-9.87953
▁美	-9.87964
的名字	-9.87973
展	-9.87978
外面	-9.8798
标准	-9.88018
棒	-9.88032
更新	-9.88255
志	-9.8827
惨了	-9.88351
内容	-9.88378
兴	-9.88387
没钱	-9.88392
就去	-9.8843
她的	-9.8844
凶	-9.88452
签	-9.88462
制	-9.88469
偶尔	-9.88506
吃过	-9.88524
▁被	-9.88547
▁要是	-9.88556
也没有	-9.88558
笑话	-9.88644
▁这个是	-9.88686
对你	-9.88774
口水	-9.8884
通过	-9.88853
专家	-9.88877
▁昨晚	-9.88907
还会	-9.88952
开学	-9.88954
悲	-9.88954
骨	-9.88956
轻	-9.88977
不可能	-9.89016
淘宝	-9.89024
我真的	-9.89083
▁感觉	-9.89101
逗	-9.89176
第一个	-9.89187
动作	-9.89188
没法	-9.89244
界	-9.89258
▁以前	-9.89279
等待	-9.89301
▁其实我	-9.89387
罪	-9.89403
靓	-9.89406
方便	-9.89435
还真是	-9.89468
▁欢迎	-9.89516
确定	-9.89573
不多	-9.89636
夏	-9.89662
生命	-9.89795
淡	-9.89838
炒作	-9.8984
几时	-9.89869
举	-9.89879
赚	-9.89888
游泳	-9.89942
奥	-9.89994
仙	-9.9001
专门	-9.9003
▁无	-9.90201
梅	-9.90254
诱惑	-9.90345
▁听说	-9.90346
兵	-9.90358
嘉	-9.90496
武	-9.90512
路过	-9.90525
一把	-9.90561
事儿	-9.9068
好人	-9.9074
我就是	-9.90794
▁不用	-9.90844
怀疑	-9.90849
我知道	-9.90873
你呢	-9.9099
善	-9.91034
弹	-9.91061
程	-9.91066
▁呵呵呵	-9.91074
鸡蛋	-9.91168
是不	-9.91182
虚	-9.91186
▁咱	-9.91192
靠谱	-9.913
歪	-9.91301
挨	-9.91324
的哦	-9.91372
泥	-9.91419
▁哪有	-9.91426
便	-9.9143
▁恭喜恭喜	-9.91471
告诉	-9.9151
禁	-9.91532
咖	-9.91559
▁可能	-9.916
惹	-9.91616
作业	-9.91672
骑	-9.91687
人物	-9.91766
控制	-9.91786
舍不得	-9.9179
占	-9.91843
这事	-9.91941
初	-9.91979
▁为了	-9.92168
湿	-9.92191
▁天	-9.92235
是啥	-9.92341
虐	-9.9235
强大	-9.92416
搞得	-9.9243
是为了	-9.92449
投资	-9.92461
黎	-9.92491
就这么	-9.92496
小学	-9.92529
联	-9.92597
不需要	-9.92627
才知道	-9.92677
公布	-9.92698
重庆	-9.92736
这几天	-9.92778
方向	-9.92785
哪有	-9.92806
忍	-9.92809
更多	-9.92828
▁绝对	-9.92839
放弃	-9.9285
老娘	-9.92857
共	-9.92873
▁对不起	-9.92924
怒	-9.92928
你们都	-9.92942
懂得	-9.9295
我们是	-9.92963
器	-9.9299
重点	-9.9303
思考	-9.931
▁同意	-9.93105
晓	-9.93117
赚钱	-9.9312
西瓜	-9.93124
还是要	-9.93144
真实	-9.93163
能吃	-9.9322
中的	-9.93283
▁难道你	-9.93307
位置	-9.93363
开了	-9.9347
▁是吗	-9.93555
活着	-9.93658
作为	-9.93675
累了	-9.93721
▁我今天	-9.93765
▁这种	-9.93785
▁能	-9.93789
长大	-9.93806
删	-9.93838
兔子	-9.93848
私	-9.93907
回到	-9.93948
多久	-9.93968
面对	-9.93989
之一	-9.94009
踩	-9.94036
观	-9.94042
都不知道	-9.9405
欠	-9.94084
没想到	-9.94107
▁所以说	-9.94131
▁女人	-9.94158
轮	-9.94266
怎么会	-9.94295
▁你不	-9.94305
聊天	-9.94326
曾经	-9.94345
我帮你	-9.94495
对我	-9.94497
处理	-9.94576
在这	-9.94631
做什么	-9.94677
标	-9.94741
几点	-9.94749
据说	-9.94783
合作	-9.94795
说出来	-9.94925
▁关键是	-9.94945
船	-9.9495
后天	-9.95036
追求	-9.95085
演员	-9.95092
冻	-9.95139
去的	-9.95185
疯狂	-9.95191
好事	-9.95251
大人	-9.95423
认为	-9.9548
▁我也要	-9.95507
辛苦了	-9.95515
你不	-9.95517
愁	-9.95532
你有	-9.95534
媳妇	-9.95582
现在的	-9.9568
呦	-9.95706
路线	-9.95727
大了	-9.95741
佩服	-9.9577
进入	-9.95807
样子	-9.95825
心痛	-9.95836
假期	-9.95864
不好看	-9.95884
婆	-9.95894
喝茶	-9.95901
支	-9.95904
可能是	-9.95923
钟	-9.95958
▁哪	-9.95967
炸	-9.95972
看到你	-9.95987
我们一起	-9.96058
温	-9.96077
干吗	-9.96156
就算	-9.9617
下面	-9.96174
无语	-9.96216
吃得	-9.96358
有事	-9.96451
是最	-9.96561
人才	-9.96583
▁记得	-9.96597
喊你	-9.96645
愿	-9.96657
一群	-9.96722
不成	-9.96768
想起	-9.96791
偏	-9.96796
孤独	-9.96826
眼镜	-9.96841
封	-9.96857
老是	-9.96872
介	-9.96885
脏	-9.96887
是一种	-9.9689
奶奶	-9.9707
很漂亮	-9.97081
层	-9.97091
软	-9.97098
算是	-9.97102
洗澡	-9.97112
永	-9.97132
丁	-9.97147
▁今年	-9.97155
麦	-9.97268
财	-9.97396
人都	-9.97405
暗	-9.97413
声音	-9.9744
悲催的	-9.97505
▁早	-9.97514
你也是	-9.9758
▁我去	-9.97607
最大的	-9.97634
演出	-9.97649
因为我	-9.97676
不少	-9.97679
我说	-9.97691
到处	-9.97713
什么啊	-9.97719
反正我信了	-9.97741
跟着	-9.97763
犀利	-9.97807
排队	-9.9782
就知道了	-9.97849
足	-9.97898
▁不会	-9.97933
旅行	-9.97943
白天	-9.97976
说不定	-9.98025
▁美女	-9.98063
夸	-9.98086
嗯	-9.98158
我只是	-9.98176
▁啊哈哈	-9.98197
感到	-9.98214
嘴巴	-9.98271
▁讨厌	-9.98281
好伐	-9.98289
心态	-9.98328
独	-9.98408
有关	-9.98428
缘	-9.98446
答案	-9.98458
我爱你	-9.98527
英	-9.98541
付	-9.98553
送我	-9.98586
衰	-9.9861
很累	-9.98635
鸭	-9.98636
宅	-9.98658
▁有人	-9.98778
短信	-9.98792
不让	-9.98938
良心	-9.98955
s	-9.98974
戳	-9.99087
表达	-9.99169
平安	-9.99192
▁我说	-9.99296
▁是滴	-9.99309
爸	-9.99327
把他	-9.99346
我也觉得	-9.9935
那时候	-9.99356
现在是	-9.99377
复	-9.99386
没问题	-9.99407
拆	-9.99479
副	-9.99531
都很	-9.99542
条件	-9.99576
恋	-9.99591
范	-9.99615
你太	-9.99649
▁上海	-9.99767
学会	-9.9978
才有	-9.99809
无关	-9.99923
了个	-9.99977
动车	-9.99985
上学	-10.0002
▁我擦	-10.0009
很可爱	-10.0018
国内	-10.0021
每个	-10.0024
公开	-10.0025
那时	-10.0025
▁还没	-10.0026
测	-10.0035
巧	-10.0036
▁下午	-10.0041
▁我爱	-10.0043
死我了	-10.0049
美丽的	-10.0057
团购	-10.0061
13	-10.0062
也不能	-10.0066
好像是	-10.0066
生意	-10.0067
一件	-10.0071
部门	-10.0072
寄	-10.0075
害羞	-10.0076
源	-10.0081
每天都	-10.0082
彩	-10.0085
▁你家	-10.0088
精彩	-10.0103
分析	-10.0104
快递	-10.0113
呵	-10.0113
深圳	-10.0117
公园	-10.0119
▁真的假的	-10.0122
第二	-10.0123
插	-10.0127
行业	-10.0127
▁谢谢啦	-10.0128
集体	-10.0128
谁啊	-10.0134
自我	-10.0139
弟	-10.0142
去过	-10.015
说过	-10.015
不许	-10.0153
魔	-10.0154
方式	-10.0155
▁你想	-10.0158
抄	-10.0164
空调	-10.0171
运	-10.0172
赔	-10.0172
股	-10.018
去年	-10.0185
暑假	-10.0187
不认识	-10.0193
家庭	-10.0195
新的	-10.02
忘记了	-10.0206
在那里	-10.0209
自信	-10.0211
▁我就是	-10.0211
到你	-10.0213
丝	-10.0214
墙	-10.0218
真正	-10.0219
相机	-10.0223
品牌	-10.0223
月亮	-10.0224
奔	-10.0225
因	-10.0233
松	-10.0234
送你	-10.0235
做梦	-10.0239
汉	-10.0247
赌	-10.0249
拥有	-10.025
胖了	-10.0256
好久没	-10.0263
许	-10.0265
丹	-10.0267
出了	-10.0271
危险	-10.0271
想我	-10.0272
有啥	-10.0272
心酸	-10.0274
密	-10.0278
使用	-10.0282
啊亲	-10.0291
时尚	-10.0294
吊	-10.0295
也不是	-10.0296
软件	-10.0303
身边	-10.0303
顺利	-10.0307
录	-10.0313
易	-10.0317
评	-10.0317
嘿	-10.0319
骗子	-10.0321
问你	-10.0322
多好	-10.0322
孙	-10.0325
尾	-10.0325
随时	-10.0328
替	-10.0329
我和	-10.0329
▁准备	-10.0341
一辈子	-10.0345
下了	-10.0346
告	-10.0351
扔	-10.0358
容	-10.0358
和谐	-10.0363
梦想	-10.0384
韩国	-10.0385
智商	-10.0385
网站	-10.0392
的时间	-10.0396
家人	-10.0397
顿	-10.0406
皮肤	-10.0407
好可爱	-10.0408
爷爷	-10.0408
麻麻	-10.0409
编	-10.0409
屋	-10.041
吓人	-10.0415
亏	-10.0418
吼吼	-10.0418
幼儿园	-10.0422
请问	-10.0431
肿	-10.0434
▁你太	-10.0435
若	-10.0445
换个	-10.0445
唱的	-10.0446
跌	-10.0448
等到	-10.0451
好不	-10.0455
员工	-10.0458
磨	-10.0459
也好	-10.0459
备	-10.046
农	-10.0462
曾	-10.0464
▁你咋	-10.0469
严	-10.0472
响	-10.0476
面包	-10.0486
闻	-10.0488
悲伤	-10.0491
虫	-10.0493
没关系	-10.0494
乜	-10.0496
贱人	-10.0503
要看	-10.0504
人啊	-10.0505
稀饭	-10.0506
胜	-10.0515
▁你真	-10.0516
消	-10.0519
在那	-10.0521
另外	-10.0525
再去	-10.0533
美好	-10.0537
夹	-10.0543
内心	-10.0543
为你	-10.0545
显	-10.0551
噻	-10.0566
你那	-10.0568
委屈	-10.0569
亮点	-10.057
城管	-10.0572
的微博	-10.0575
一份	-10.0576
怎么能	-10.0576
整天	-10.058
▁可惜我	-10.0589
感受	-10.0591
发型	-10.0592
烦恼	-10.0595
在上海	-10.0596
泪奔	-10.0598
不出来	-10.06
▁妈的	-10.0602
就是这样	-10.0609
零	-10.0611
蚊子	-10.0618
▁你敢	-10.0619
否	-10.062
▁等我	-10.0622
好累	-10.0626
▁你妹	-10.0626
约会	-10.0629
你说的	-10.063
依然	-10.0634
欧	-10.0641
人类	-10.0647
青年	-10.0649
▁哦哦	-10.0649
▁知道	-10.065
民主	-10.0651
赶快	-10.0653
▁男人	-10.0655
提供	-10.066
实现	-10.0666
之间	-10.0667
南京	-10.0669
有很多	-10.0669
律师	-10.0669
纳	-10.0671
瓦	-10.0672
进行	-10.0673
明明	-10.0673
三天	-10.0675
忒	-10.068
都被	-10.0681
一人	-10.0683
就开始	-10.0685
碗	-10.0698
您的	-10.0699
没啥	-10.0703
职业	-10.0703
杯具	-10.0709
锻炼	-10.0714
▁是啊是啊	-10.0718
给她	-10.0721
杰	-10.0723
裤	-10.0723
食堂	-10.0728
肿么办	-10.073
▁点解	-10.0735
很快	-10.0737
同时	-10.0744
三个	-10.0745
▁虽然	-10.0749
很好吃	-10.075
照顾	-10.0753
萨	-10.0755
高铁	-10.0758
不错哦	-10.076
不爽	-10.0768
降	-10.0773
不给	-10.0774
很给力	-10.0777
甩	-10.0777
都说	-10.0781
飘	-10.0787
▁我也喜欢	-10.0799
还不是	-10.0803
男女	-10.0811
都快	-10.0813
挺好	-10.0819
税	-10.0819
夫	-10.0824
拔	-10.0824
好想	-10.0825
▁我有	-10.0827
也在	-10.0828
批评	-10.083
16	-10.0847
我没有	-10.0847
登	-10.0853
看得	-10.0854
月底	-10.0871
么么	-10.0875
添	-10.0877
还是很	-10.0879
道德	-10.0879
的心情	-10.089
对于	-10.0891
峰	-10.0892
齐	-10.0894
24	-10.0895
▁我不是	-10.0899
机场	-10.0901
这叫	-10.0904
视	-10.0911
基	-10.0914
▁不会吧	-10.0915
的钱	-10.0916
厕所	-10.0916
闪	-10.0925
庄	-10.0926
关键	-10.0928
下载	-10.0932
全国	-10.0933
都这样	-10.0938
就不会	-10.0953
没看到	-10.0956
没错	-10.0956
托	-10.0962
哥们	-10.0964
习惯了	-10.0974
还行	-10.0974
无耻	-10.0984
俺们	-10.0987
所以我	-10.0987
碰	-10.099
电视剧	-10.1
200	-10.1001
嘎嘎	-10.1021
存在	-10.1025
佬	-10.1033
反正我是信了	-10.1034
▁什么情况	-10.1036
把自己	-10.1039
别个	-10.1042
经历	-10.1042
这位	-10.1043
不就是	-10.1045
洋气	-10.1046
眼神	-10.1051
航	-10.1056
迟到	-10.1058
威武	-10.1066
一位	-10.1066
比较好	-10.1067
完成	-10.107
表演	-10.1076
角度	-10.1078
这么大	-10.1079
牛奶	-10.1084
饱	-10.1086
导演	-10.1088
事业	-10.1093
摔	-10.1095
醒了	-10.11
也太	-10.1101
成了	-10.1101
不好吃	-10.1103
保证	-10.1105
不容易啊	-10.1108
功能	-10.1109
特别是	-10.1115
节日快乐	-10.1117
成这样	-10.112
▁我妈	-10.112
我给你	-10.112
知道了	-10.1122
教授	-10.1125
承认	-10.1128
就系	-10.1128
也得	-10.1132
中间	-10.1133
本来就	-10.1134
有道理	-10.1135
没见过	-10.1141
何时	-10.1141
玩儿	-10.1141
鼻子	-10.1144
抱抱	-10.1147
乡	-10.115
一路	-10.1152
最多	-10.1159
面前	-10.1161
凑	-10.1164
射	-10.1169
在学校	-10.1171
刷屏	-10.1172
再来	-10.1172
蟹	-10.1177
守	-10.1183
见你	-10.1184
重新	-10.1187
沉	-10.1187
炮	-10.1188
盛	-10.119
能够	-10.1198
想哭	-10.1202
▁可	-10.1203
态度	-10.1205
很重要	-10.1206
▁你这是	-10.1209
脾气	-10.1212
空间	-10.1213
▁等你	-10.1214
罢了	-10.1217
春天	-10.122
牛逼	-10.1222
它们	-10.1226
的味道	-10.123
弱	-10.1231
实在是	-10.1231
耐	-10.1233
▁干嘛	-10.1236
了呀	-10.1242
▁同感	-10.1244
小说	-10.1245
▁但	-10.1245
给你们	-10.1246
你应该	-10.1247
孤单	-10.1252
打球	-10.1252
余	-10.1261
▁神马	-10.1263
这样说	-10.1263
地点	-10.1283
周六	-10.1286
看电影	-10.1289
目	-10.1291
造型	-10.1292
请客	-10.1293
有点像	-10.1295
体验	-10.13
两个人	-10.1301
粥	-10.1311
中文	-10.1313
杀人	-10.1313
气质	-10.1314
不错啊	-10.1317
英文	-10.1318
戒	-10.1318
一生	-10.1322
等等	-10.1323
恋爱	-10.1324
了哈	-10.1324
那张	-10.1324
好似	-10.1326
意义	-10.1328
计	-10.1333
属	-10.1334
狮子	-10.1342
善良	-10.1345
复杂	-10.1353
多么	-10.136
死人	-10.136
问我	-10.1364
叻	-10.1372
有才	-10.1378
点半	-10.1382
又不	-10.1386
功	-10.1387
打包	-10.1396
有时	-10.1396
怀	-10.1397
多少钱	-10.1398
滑	-10.1399
佐	-10.14
良	-10.1402
老人	-10.1404
▁果然	-10.1405
意见	-10.1406
高手	-10.1407
▁有点	-10.1409
▁看着	-10.1411
土豆	-10.1411
投诉	-10.1414
很帅	-10.1415
成长	-10.1415
不错的	-10.1417
蒙	-10.1418
伟	-10.1421
▁系啊	-10.1431
叼	-10.1432
义	-10.1434
广场	-10.1434
进步	-10.1456
你俩	-10.1456
躲	-10.1458
菊花	-10.1459
▁死	-10.1461
太大	-10.147
吃完	-10.1473
增	-10.1474
不该	-10.1482
依	-10.1488
韩	-10.1489
艺	-10.1489
心情不好	-10.1494
对象	-10.1497
有爱	-10.1497
怎么说	-10.1498
数学	-10.1508
看我	-10.1513
主持人	-10.1515
震	-10.1521
小姑娘	-10.1521
▁介个	-10.1522
愉快	-10.1523
灰常	-10.1523
错误	-10.1544
康	-10.1546
▁侬	-10.1546
捞	-10.1571
地球	-10.1574
台湾	-10.1576
早起	-10.1577
说说	-10.1583
换了	-10.1585
我们家	-10.1585
睡觉了	-10.1588
红色	-10.1589
▁只有	-10.159
▁人生	-10.159
第	-10.1594
史	-10.1594
啵	-10.1597
武汉	-10.1601
值	-10.1603
朱	-10.1605
啦啦啦	-10.1608
州	-10.1609
原来是	-10.1615
一套	-10.1615
铁道部	-10.1615
尤其是	-10.1624
开的	-10.163
▁先	-10.163
对吧	-10.1631
买个	-10.1635
收费	-10.1636
14	-10.1644
安慰	-10.165
孩纸	-10.1655
▁赶紧	-10.1663
镜头	-10.1665
-	-10.1665
当初	-10.1666
▁谢谢支持	-10.1667
过去了	-10.1669
速	-10.1679
幸运	-10.1679
尿	-10.1681
不爱	-10.1687
事件	-10.169
碎	-10.1695
激情	-10.1695
囧	-10.1698
这个是	-10.1702
培养	-10.171
总结	-10.1713
一顿	-10.1714
酱	-10.1715
一周	-10.172
败	-10.1727
迈	-10.1741
这两天	-10.1742
▁非常	-10.1744
▁好看	-10.1746
▁你现在	-10.175
且	-10.1752
腐	-10.1753
这个问题	-10.1754
观察	-10.1756
上微博	-10.1759
搞的	-10.1761
阵	-10.1763
横	-10.1763
揍	-10.1764
无敌	-10.1764
好大	-10.1768
迪	-10.1768
小盆友	-10.177
大爱	-10.1773
丢人	-10.1774
收拾	-10.178
思念	-10.1788
▁可是我	-10.1791
你地	-10.1804
穿的	-10.1805
主持	-10.1807
中国的	-10.1809
欲	-10.1811
一大	-10.1813
岩	-10.1813
做到	-10.1813
采访	-10.1814
不看	-10.1823
秘密	-10.1826
▁没有啊	-10.1826
佢	-10.1828
来看	-10.1836
留下	-10.1842
链接	-10.1843
表扬	-10.1843
吉	-10.1846
照的	-10.1848
医	-10.185
帅气	-10.1852
攻	-10.1855
烧烤	-10.1855
幽默	-10.1856
▁噗	-10.1858
啤酒	-10.1862
冠军	-10.1863
不行了	-10.1863
唐	-10.1866
形	-10.1868
葡萄	-10.1869
玩了	-10.1874
25	-10.1874
跟他	-10.1877
除	-10.1878
快来	-10.1884
评价	-10.1889
17	-10.1889
▁肯定	-10.1892
士	-10.1895
不明白	-10.1897
创意	-10.1903
有一个	-10.1912
码	-10.1919
残	-10.1927
配合	-10.1933
▁我看	-10.1939
情绪	-10.1942
环	-10.1944
翻译	-10.1946
他们的	-10.1949
我爱	-10.1949
公主	-10.1949
案	-10.1953
▁正在	-10.1954
没时间	-10.1956
不见	-10.1958
巧克力	-10.196
移动	-10.1968
▁你去	-10.1969
一会儿	-10.197
最喜欢	-10.1972
▁看了	-10.1981
想着	-10.1982
很久了	-10.199
背景	-10.1991
老鼠	-10.1997
但是我	-10.1997
很久	-10.1999
初中	-10.2
▁爱你	-10.2002
十分	-10.2007
感冒了	-10.2009
偶像	-10.2011
我不是	-10.2019
才行	-10.2019
家的	-10.2028
记住	-10.2033
倒霉	-10.2033
我一直	-10.2033
:	-10.2034
就得	-10.2041
中秋	-10.2041
过程	-10.2043
失败	-10.2045
不靠谱	-10.2047
女孩子	-10.2049
同情	-10.2051
科学	-10.2055
风景	-10.2055
很棒	-10.2058
支持你	-10.2059
方面	-10.206
作品	-10.2067
发布	-10.2069
这话	-10.207
理由	-10.2071
有兴趣	-10.2072
即	-10.2074
▁看来你	-10.2077
京	-10.2079
不断	-10.208
都好	-10.208
脑袋	-10.2089
索	-10.209
关键是	-10.2092
▁宝贝	-10.2093
一点都不	-10.2098
玩玩	-10.21
摄影	-10.2104
咪	-10.2105
饿了	-10.2115
火车	-10.2116
迟	-10.2121
台风	-10.2127
打了	-10.2132
▁你有	-10.2132
到我	-10.2133
似乎	-10.2133
美的	-10.2136
那位	-10.2136
胃口	-10.2138
老爸	-10.2141
今	-10.2141
灭	-10.2142
不止	-10.2151
针	-10.2151
▁问题是	-10.2155
累啊	-10.217
懂的	-10.2178
满足	-10.218
率	-10.2181
寒	-10.2185
▁没办法	-10.2191
▁怪不得	-10.2196
▁我就	-10.2196
来吧	-10.2197
▁除了	-10.2201
双鱼	-10.2208
妈的	-10.2212
洞	-10.2212
是谁啊	-10.2214
同样	-10.2214
检查	-10.2218
来个	-10.2219
周五	-10.222
▁你看	-10.222
正式	-10.222
众	-10.2221
宽	-10.2222
咋个	-10.223
房间	-10.2232
回去了	-10.2235
大头	-10.2237
温柔	-10.2239
还想	-10.224
恢复	-10.224
好么	-10.2241
个屁	-10.2248
耳	-10.2248
在外面	-10.2249
一段	-10.225
寻	-10.2251
桑	-10.2255
▁小心	-10.2257
伤害	-10.226
销售	-10.2261
留着	-10.2261
愤青	-10.2262
、、、	-10.2265
群众	-10.2266
的歌	-10.2275
我还没	-10.2278
可以去	-10.228
染	-10.2282
紫	-10.2282
的活动	-10.2287
鄙视你	-10.2291
馋	-10.2291
健	-10.2292
返	-10.2292
伤心了	-10.2294
画的	-10.2296
▁就是啊	-10.2296
礼	-10.2297
伤了	-10.2297
我才	-10.2298
边个	-10.2299
自拍	-10.2301
女性	-10.2305
消费	-10.2306
模特	-10.2308
▁本来	-10.231
宇	-10.2311
冇	-10.2316
泰	-10.2316
夸张	-10.2317
高级	-10.2322
甲	-10.2324
只会	-10.2328
真爱	-10.2331
不是说	-10.2334
流行	-10.2334
是这样	-10.2337
做好	-10.2337
19	-10.2338
杂志	-10.2339
劳	-10.2342
咋办	-10.2343
▁刚刚	-10.2344
▁只是	-10.2345
对了	-10.2345
妖	-10.2347
请你吃	-10.2348
就可以了	-10.2352
化妆	-10.2354
的故事	-10.2354
拿到	-10.2356
骗人	-10.2361
真是的	-10.2361
熬	-10.2362
折磨	-10.2363
刚好	-10.2366
一堆	-10.2376
就没有	-10.2377
贪	-10.2379
天蝎	-10.2384
妹纸	-10.2385
就不能	-10.2387
你真	-10.2397
神马的	-10.24
足球	-10.2406
职	-10.2407
吃什么	-10.2408
东北	-10.2413
的都是	-10.2414
拜	-10.2414
▁一般	-10.2425
收了	-10.2426
童	-10.2426
▁我会	-10.243
室	-10.2436
到底是	-10.2437
▁早上	-10.2442
每次都	-10.2442
江湖	-10.2449
▁那么	-10.245
▁只要	-10.2451
中意	-10.2456
这种人	-10.2459
牛肉	-10.2459
指导	-10.2462
这点	-10.2463
什么事	-10.2465
漏	-10.2466
免	-10.2467
蛇	-10.2469
我爸	-10.2469
出去玩	-10.2472
交通	-10.2473
积极	-10.2476
菲	-10.2477
哼哼	-10.2478
百姓	-10.2482
是有	-10.2486
暂时	-10.2488
▁对呀	-10.2491
还不够	-10.2496
政	-10.2499
楼下	-10.2502
妙	-10.2507
好看的	-10.251
太累了	-10.2511
长大了	-10.2511
会被	-10.2512
惊喜	-10.2517
很好看	-10.2518
俊	-10.2519
0	-10.252
官方	-10.252
普	-10.2528
半天	-10.253
给你看	-10.2532
厦门	-10.2532
警	-10.2541
塔	-10.2554
英雄	-10.2554
▁诶	-10.2556
经过	-10.2559
哪能	-10.2562
体重	-10.2564
性格	-10.2564
一点点	-10.2565
文明	-10.2572
看到的	-10.2572
遍	-10.2572
提醒	-10.2576
干净	-10.2578
可惜了	-10.2583
我刚	-10.2585
花钱	-10.2587
错过	-10.2587
看不出来	-10.2592
都喜欢	-10.2596
贝	-10.2597
尊重	-10.26
都知道	-10.2615
裤子	-10.2621
邪恶	-10.2622
▁看你	-10.2623
▁咦	-10.263
▁我怎么	-10.263
主动	-10.2632
搜	-10.2634
的表情	-10.264
谢谢啦	-10.2645
偷偷	-10.2645
▁我怕	-10.2646
汇	-10.2647
学院	-10.265
喊我	-10.2652
▁兄弟	-10.2652
▁你都	-10.2654
美人	-10.2656
去找	-10.2658
摄影师	-10.2663
失恋	-10.2664
耳朵	-10.2665
有可能	-10.2675
主题	-10.2678
有种	-10.2678
智慧	-10.2681
铺	-10.2682
介个	-10.2686
人多	-10.2687
奇迹	-10.2688
势	-10.269
报告	-10.2694
逼我	-10.2698
过节	-10.2698
但我	-10.2701
怎么这么	-10.2702
不适合	-10.2703
大的	-10.2709
晚了	-10.2716
你懂得	-10.2717
悲剧了	-10.2718
好开心	-10.2719
为何	-10.2726
赏	-10.2731
忍不住	-10.2733
咋样	-10.2733
爱我	-10.2735
▁我没有	-10.2746
吼	-10.2746
符合	-10.2747
帝	-10.2749
▁你们都	-10.2753
豪	-10.2763
简直是	-10.2764
调戏	-10.2767
吃东西	-10.2768
假的	-10.2768
和他	-10.2769
温暖	-10.2773
感叹	-10.2777
印	-10.2778
▁买	-10.278
热闹	-10.2781
晕了	-10.2783
居	-10.2787
啃	-10.2792
开玩笑	-10.2792
你没	-10.2794
维	-10.2802
请假	-10.2803
晨	-10.2806
伊	-10.2807
生病	-10.2812
赵	-10.2816
上市	-10.2817
偷拍	-10.2818
走路	-10.2818
块钱	-10.2821
大妈	-10.2826
吃到	-10.2834
美味	-10.2837
几年	-10.2839
▁不错不错	-10.284
烫	-10.284
不舒服	-10.2841
这条	-10.2843
主义	-10.2846
温州	-10.2847
要做	-10.2849
都不会	-10.2854
证据	-10.2864
干活	-10.2868
的原因	-10.287
崩溃	-10.2882
是哪个	-10.2883
刮	-10.2887
令	-10.2889
熊猫	-10.2891
办法	-10.2896
在于	-10.2897
失去	-10.2902
希望你	-10.2902
▁什么叫	-10.2905
价值	-10.2909
装修	-10.291
带上	-10.2913
▁新	-10.2914
运气	-10.2919
弄个	-10.2921
语言	-10.2922
咨询	-10.2923
奇怪	-10.2929
怪不得	-10.2929
我来	-10.2931
租	-10.2932
酒吧	-10.2932
▁一个人	-10.2932
你老公	-10.2935
就是个	-10.2936
制度	-10.2941
秋天	-10.2944
好好休息	-10.2946
好嘛	-10.2947
没了	-10.2954
桃	-10.2956
坚强	-10.2956
智	-10.2958
把它	-10.2965
美好的	-10.2968
▁他是	-10.297
鲜	-10.2973
天津	-10.2975
任务	-10.2979
▁说明	-10.2983
乘	-10.2986
好运	-10.299
的支持	-10.2992
幸福的	-10.3
划	-10.3001
公务员	-10.3003
靓女	-10.3004
不清楚	-10.3004
难道是	-10.3008
白羊	-10.301
说得	-10.301
逛街	-10.3013
宋	-10.3015
秒	-10.3019
拿来	-10.302
郭	-10.3026
穿越	-10.3027
凤姐	-10.3028
潘	-10.3028
▁孩子	-10.3031
就怕	-10.3036
矛盾	-10.3036
凯	-10.3041
▁就是就是	-10.3042
无限	-10.3057
绝对是	-10.3065
不行啊	-10.3068
隔	-10.307
注定	-10.3071
感性	-10.3086
你别	-10.309
背后	-10.3096
里面的	-10.3096
▁我很	-10.3096
▁走	-10.3103
部分	-10.3104
▁每天	-10.3105
不可以	-10.3108
镇	-10.3108
▁不能	-10.3113
真正的	-10.3115
全家	-10.3121
收藏	-10.3122
洁	-10.3124
▁有没有	-10.3125
小三	-10.3127
恰	-10.3128
举报	-10.3129
▁噢	-10.3137
帽子	-10.3137
神经	-10.3141
别人的	-10.3142
小孩子	-10.3144
姐夫	-10.3149
不要脸	-10.3156
桃花	-10.3157
两年	-10.3158
不要太	-10.316
看上去	-10.3162
毁	-10.3163
说什么	-10.3164
让她	-10.3166
本来就是	-10.3169
环保	-10.3169
得好	-10.317
一定是	-10.3172
责任	-10.3176
▁表	-10.3179
说的是	-10.3179
的车	-10.3181
得闲	-10.3182
起码	-10.3182
呼	-10.3183
蠢	-10.3184
呵呵呵	-10.3185
寻找	-10.3188
喝的	-10.3191
球迷	-10.3193
暖	-10.3193
敏	-10.3198
猴子	-10.32
芒果	-10.3208
主任	-10.3212
看书	-10.3215
▁晕死	-10.3216
包括	-10.3219
是假的	-10.3221
的声音	-10.323
负	-10.3232
师兄	-10.3232
乖乖	-10.3235
安逸	-10.3237
腻	-10.3241
天使	-10.3249
真的好	-10.3251
轻松	-10.3253
唯一	-10.3255
▁是你	-10.3257
黑色	-10.3257
不再	-10.3257
我们要	-10.3259
陆	-10.3263
▁原来你	-10.3264
相亲	-10.3264
无知	-10.3264
歌词	-10.3265
老妈	-10.3267
以上	-10.3269
共同	-10.3269
其实我	-10.3274
爱上	-10.3276
▁真的吗	-10.3281
行为	-10.3282
你是不是	-10.3283
去做	-10.3284
我最近	-10.3284
机票	-10.3286
博士	-10.3287
实际	-10.3288
花痴	-10.3289
时光	-10.329
弄的	-10.3292
骂你	-10.3292
答	-10.3293
人员	-10.3293
临	-10.3299
新疆	-10.33
催	-10.33
混蛋	-10.33
档	-10.3303
沟	-10.3304
这么好	-10.3306
婚礼	-10.3306
难道你	-10.3307
训练	-10.3309
40	-10.331
想死	-10.3328
太给力了	-10.3329
▁的确	-10.3332
▁问	-10.3333
好男人	-10.3333
去哪	-10.3334
对方	-10.3343
意外	-10.3344
店里	-10.3345
的家伙	-10.3346
鲁	-10.3351
摘	-10.3354
尝试	-10.3359
壮	-10.3363
龟	-10.3363
助	-10.3364
大事	-10.3368
小妞	-10.337
去哪里	-10.3372
二十	-10.3372
几乎	-10.3373
合适	-10.3376
普通	-10.3377
互相	-10.3386
涂	-10.3388
大众	-10.3389
无所谓	-10.3392
报纸	-10.3393
有这么	-10.3393
一对	-10.3393
何必	-10.3394
薄	-10.3398
删了	-10.3399
少女	-10.34
高三	-10.3402
篇	-10.3403
怎	-10.341
扫	-10.341
太不	-10.3412
要吃	-10.3414
丰富	-10.3416
再次	-10.3416
▁用	-10.3418
学的	-10.342
的那种	-10.3421
▁它	-10.3422
妈咪	-10.3424
演唱会	-10.3425
想你了	-10.3426
人品	-10.3429
万一	-10.3429
餐厅	-10.343
鞋子	-10.3431
▁是的呀	-10.3435
打架	-10.3436
到位	-10.344
▁5	-10.3441
一片	-10.3451
串	-10.3455
在看	-10.3457
那么大	-10.3458
关于	-10.3459
情人	-10.3464
蛋疼	-10.3468
好难	-10.3469
记忆	-10.3471
好多了	-10.3475
憋	-10.3476
伪	-10.3478
那么好	-10.348
什么情况	-10.348
周一	-10.348
抗	-10.348
搞个	-10.3481
正确	-10.3482
懂了	-10.3482
人士	-10.3487
好多人	-10.3492
用了	-10.3495
可是我	-10.3495
来找我	-10.3498
误	-10.3501
21	-10.3503
版的	-10.3506
裙子	-10.3507
真不错	-10.3509
她是	-10.3513
一口	-10.3515
袋	-10.3518
▁把	-10.3521
的就是	-10.3528
形容	-10.353
透	-10.353
大陆	-10.3531
很想	-10.3535
阶段	-10.3535
高考	-10.354
也不会	-10.3541
▁不好意思	-10.3541
人性	-10.3543
▁你应该	-10.3543
▁李	-10.3544
跑步	-10.3547
小白	-10.3548
理论	-10.355
想看	-10.3553
说实话	-10.356
给自己	-10.3562
做人	-10.3564
卖萌	-10.357
过分	-10.3574
起的	-10.3581
你懂	-10.359
王子	-10.359
好奇	-10.3591
▁这次	-10.3592
广东	-10.3592
资料	-10.3595
短发	-10.3599
豆腐	-10.3603
是吗	-10.3603
季	-10.3603
不叫	-10.3608
见到你	-10.3615
数据	-10.3615
一部	-10.3617
夸奖	-10.3619
浓	-10.3629
22	-10.3631
扮	-10.3634
加上	-10.3634
▁朋友	-10.3634
汽车	-10.3639
体育	-10.3642
干的	-10.3642
主人	-10.3645
打折	-10.3645
个月	-10.3647
晚饭	-10.3647
害我	-10.3648
显得	-10.3654
带我去	-10.3655
围	-10.3659
理想	-10.366
▁开心	-10.3667
徐	-10.3667
引	-10.3669
照相	-10.3671
难看	-10.3673
顾	-10.3676
奋斗	-10.3682
▁在哪	-10.3685
几次	-10.3686
提高	-10.3686
你喜欢	-10.3687
▁为	-10.3692
眼光	-10.3694
▁而且	-10.3698
亦	-10.37
上午	-10.3703
比如	-10.3705
天朝	-10.3705
打的	-10.3708
猴	-10.3709
庆祝	-10.3709
业务	-10.3711
▁祝你	-10.3714
▁汗	-10.3715
▁不管你信不信	-10.3715
讲话	-10.3716
=	-10.3717
死的	-10.3717
挑战	-10.3718
跟我说	-10.3719
英国	-10.3722
等下	-10.3732
令人	-10.3735
我以为	-10.3736
捐	-10.3738
你能	-10.3747
我好	-10.3747
误会	-10.3747
00	-10.3749
搞定	-10.3764
我只	-10.3764
姜	-10.3769
▁明年	-10.3769
笑了	-10.3778
从来不	-10.3778
瞬间	-10.3781
无比	-10.3784
欢乐	-10.3784
看他	-10.3786
不解释	-10.3787
很好的	-10.3787
杜	-10.3787
奢侈	-10.3795
境界	-10.3796
质	-10.3796
清醒	-10.3798
旁	-10.3801
祖	-10.3801
晚点	-10.3802
▁要不	-10.3804
探	-10.3806
▁这是什么	-10.3807
郎	-10.3811
再见	-10.3811
偶们	-10.3815
估计是	-10.3816
出现了	-10.3818
缘分	-10.3819
剩	-10.3828
剧情	-10.3828
儿童	-10.3828
过敏	-10.3829
在中国	-10.3831
庆	-10.3833
你们家	-10.3839
神经病	-10.3843
星星	-10.3847
四川	-10.385
调整	-10.3851
听日	-10.3853
妆	-10.3856
护	-10.3857
无人	-10.3858
伟大	-10.3862
可惜我	-10.3864
喝多了	-10.3865
▁上次	-10.3868
签名	-10.3873
破坏	-10.3877
用户	-10.3879
祖国	-10.3881
人了	-10.3883
你妹啊	-10.3883
说他	-10.3889
俗	-10.3891
太可爱了	-10.3894
燕	-10.3898
空气	-10.3899
德国	-10.3899
吃药	-10.39
可怕	-10.3902
岁月	-10.3903
异	-10.3903
人肉	-10.3903
早餐	-10.391
浅	-10.3913
我也喜欢	-10.3916
凉快	-10.3924
跟你说	-10.3927
那个人	-10.3929
▁咱们	-10.3929
乔	-10.3931
十年	-10.3933
尽量	-10.3935
拒绝	-10.3939
个小	-10.3939
去啊	-10.3941
距离	-10.3943
拍摄	-10.3948
喜欢的	-10.3953
你敢	-10.3953
去玩	-10.3958
年前	-10.396
厂	-10.3962
漂亮的	-10.3967
我们也	-10.3969
带我	-10.3973
溜	-10.3979
年代	-10.3983
瑞	-10.3984
▁超	-10.3986
嫌	-10.3987
力量	-10.399
印象	-10.3991
刺	-10.3993
充	-10.3993
矮	-10.3995
没那么	-10.3995
其实是	-10.3998
水瓶	-10.4001
湾	-10.4001
▁对于	-10.4005
都一样	-10.4013
是我们	-10.4016
那只	-10.402
户	-10.4023
阴	-10.4024
▁我刚	-10.4025
我们都是	-10.4027
热情	-10.4027
摇	-10.4027
沟通	-10.4028
就想	-10.4028
胎	-10.4036
回国	-10.404
发现了	-10.4041
500	-10.4045
难怪	-10.4047
片子	-10.4048
超过	-10.4052
号码	-10.4056
详细	-10.4057
想象	-10.4058
非主流	-10.4059
傻子	-10.406
穿着	-10.4065
有点小	-10.4069
很幸福	-10.4071
琴	-10.4072
一起来	-10.4074
道理	-10.4074
的衣服	-10.4079
▁我晕	-10.4081
放在	-10.4081
▁你才	-10.4082
俄	-10.4083
双子	-10.4087
年纪	-10.4088
▁王	-10.4093
▁嘿	-10.4094
参	-10.4099
开发	-10.41
干了	-10.4101
帅锅	-10.4102
伴	-10.4103
到家	-10.4106
吻	-10.4107
就是你	-10.4114
辣椒	-10.4116
族	-10.4119
▁啥时候	-10.412
仔细	-10.412
简直就是	-10.4122
体制	-10.4124
爱吃	-10.4128
虾米	-10.4129
好可怜	-10.4129
周日	-10.413
▁这叫	-10.4134
怎么不	-10.4135
蛮好	-10.4135
不公平	-10.414
巨蟹	-10.414
山寨	-10.4141
面子	-10.4142
决	-10.4146
▁这年头	-10.4146
红酒	-10.4148
是小	-10.415
数字	-10.4154
跳舞	-10.4155
海鲜	-10.4162
董	-10.4165
请我	-10.4166
观众	-10.4169
魅力	-10.4172
捡	-10.4173
可怜啊	-10.4174
梁	-10.4175
正面	-10.4176
一本	-10.4179
▁连	-10.4179
爱心	-10.4183
我可	-10.4183
疯子	-10.4187
测试	-10.4188
宵夜	-10.4191
赞同	-10.4191
不带	-10.4195
做饭	-10.4197
废	-10.42
问下	-10.42
▁看看	-10.4204
泰国	-10.4206
盆	-10.4209
客气	-10.4216
老实	-10.4219
商业	-10.422
外国	-10.4221
年轻人	-10.4225
心中	-10.4234
28	-10.4237
叫什么	-10.4238
主席	-10.4239
▁老大	-10.4239
曝光	-10.4243
唔系	-10.4244
隔壁	-10.4251
▁三	-10.4257
▁这话	-10.4259
右边	-10.426
不一定	-10.4261
练习	-10.4261
冲动	-10.4264
▁屁	-10.4267
得多	-10.427
没去	-10.4275
昏	-10.4279
成绩	-10.4279
▁目前	-10.428
▁赞	-10.4282
吸	-10.4285
县	-10.429
(	-10.4297
病了	-10.4299
全世界	-10.4302
情人节	-10.4304
姨	-10.4306
人们	-10.4309
上帝	-10.431
击	-10.4314
确实是	-10.4316
祈祷	-10.4316
西安	-10.4316
熬夜	-10.4318
什么呢	-10.4332
增加	-10.4332
丢了	-10.4336
乌	-10.435
去死	-10.4352
打麻将	-10.4355
像你	-10.4355
▁让	-10.4358
非要	-10.4361
肚	-10.4361
到家了	-10.4366
笑的	-10.4366
▁刚才	-10.4367
章	-10.437
教练	-10.4372
记录	-10.4373
亲亲	-10.4374
干脆	-10.4375
末	-10.4376
国人	-10.4377
罚	-10.4379
▁下周	-10.4381
单纯	-10.4382
咸	-10.4386
睡的	-10.4388
想知道	-10.4389
某些	-10.439
社	-10.4392
畜生	-10.4393
民族	-10.4396
焦	-10.4397
射手	-10.4397
调查	-10.4399
逻辑	-10.44
只好	-10.4402
这么早	-10.4407
我真	-10.4409
23	-10.4413
有些人	-10.442
的书	-10.4421
不动	-10.4425
尚	-10.4432
你咋	-10.4434
营销	-10.4435
伤心啊	-10.4439
▁至于你信不信	-10.444
听着	-10.444
包包	-10.4442
有缘	-10.445
还是你	-10.4452
发挥	-10.4452
吃肉	-10.4453
圣	-10.4453
抱着	-10.4455
你和	-10.4456
装逼	-10.4457
老外	-10.4458
好孩子	-10.4459
大美女	-10.4461
变得	-10.4465
要不然	-10.4466
采	-10.4469
小小	-10.4471
空虚	-10.4472
新鲜	-10.4472
睡着	-10.4477
具	-10.4478
我俩	-10.4479
微博上	-10.448
敬	-10.4484
即可	-10.4485
爱的	-10.4486
▁不行	-10.4487
的机会	-10.4488
不觉得	-10.4489
就不要	-10.449
不给力	-10.4491
端	-10.4492
男孩	-10.4493
▁有道理	-10.4495
才发现	-10.4499
▁此	-10.45
你觉得	-10.4504
走的	-10.4504
▁你俩	-10.4508
概念	-10.4511
撒子	-10.4511
就更	-10.4514
目的	-10.4515
带你	-10.4517
福利	-10.4522
胆	-10.4524
西藏	-10.4525
经理	-10.4526
兴趣	-10.4531
创	-10.4534
可怜的孩子	-10.4536
南方	-10.4537
结婚了	-10.4538
都得	-10.4542
都无	-10.4544
不是你	-10.4556
▁然后	-10.4557
2012	-10.4559
达人	-10.4559
我不知道	-10.4561
拿出来	-10.4564
▁像	-10.4564
超市	-10.457
拐	-10.4575
▁各种	-10.4575
官员	-10.4576
黄金	-10.4578
最好的	-10.4579
萝卜	-10.458
第三	-10.4581
所谓	-10.4581
体会	-10.4584
脸上	-10.4584
准确	-10.4591
蛮好的	-10.4591
艳	-10.4593
▁肿么	-10.4593
酒量	-10.4596
寝室	-10.46
乳	-10.4601
葛	-10.4601
行不	-10.4605
遇见	-10.4607
那家	-10.4616
来我家	-10.4618
▁也许	-10.4622
不小心	-10.4629
关注我	-10.463
小区	-10.4633
上映	-10.4635
井	-10.4638
汁	-10.4639
打开	-10.4642
是这样的	-10.4643
回来啦	-10.4644
▁你以为	-10.4648
今儿	-10.4649
新娘	-10.4654
▁我又	-10.4654
遇	-10.4657
嘅	-10.4659
皇	-10.466
政策	-10.466
▁介	-10.4665
家长	-10.4668
▁你是不是	-10.4672
窗	-10.4674
慌	-10.4674
一回	-10.4674
在路上	-10.4678
又没	-10.468
白色	-10.4682
湖南	-10.4682
你还是	-10.4686
公里	-10.4693
实话	-10.4696
▁淡定	-10.4696
又开始	-10.4696
就别	-10.4698
是他	-10.47
待遇	-10.47
怀孕	-10.4702
输了	-10.4704
婆婆	-10.4714
好东西	-10.4715
▁漂亮	-10.4716
上班了	-10.4716
岂不是	-10.4718
累的	-10.4718
我不会	-10.4719
叫他	-10.4722
可恶	-10.4723
毕竟	-10.4724
啥都	-10.4726
营养	-10.4727
快快	-10.4729
▁你们两个	-10.4732
多吃点	-10.4733
并不	-10.4737
锁	-10.4737
所有的	-10.4739
取消	-10.4742
找到了	-10.4744
话题	-10.4744
蜜	-10.4746
一声	-10.4746
两次	-10.4746
利益	-10.4747
很久没	-10.4749
接着	-10.4751
果然是	-10.4752
听听	-10.4754
去啦	-10.4756
炖	-10.4756
谁都	-10.4758
淑女	-10.4758
成本	-10.4765
少年	-10.4766
不做	-10.4767
▁怎么啦	-10.4774
还蛮	-10.4779
多大	-10.4781
七夕	-10.4782
好久不见	-10.4793
我就不	-10.4795
监督	-10.4795
高调	-10.4797
尝尝	-10.4797
88	-10.4802
消失	-10.4805
还没到	-10.4812
箱	-10.4812
情何以堪	-10.4815
传统	-10.4815
笨蛋	-10.4815
送的	-10.4815
娶	-10.4816
手术	-10.4817
▁是我	-10.4818
▁马上	-10.4819
自动	-10.4821
沙发	-10.4821
很纠结	-10.4825
东东	-10.4825
两只	-10.4826
洪	-10.4829
多点	-10.483
剑	-10.4832
哦亲	-10.4833
地震	-10.4836
桑心	-10.4843
▁恭喜你	-10.4846
荣	-10.4851
▁很好	-10.4855
▁好像是	-10.486
我可以	-10.4862
抵	-10.4864
凤	-10.4865
悲催啊	-10.4866
花园	-10.4867
的想法	-10.4872
愤怒	-10.4879
▁打	-10.4879
懒得	-10.489
含	-10.4894
注册	-10.4895
烦躁	-10.4896
未必	-10.4896
尖	-10.4898
梦到	-10.4905
欧洲	-10.4915
没发现	-10.4915
较	-10.4924
丫头	-10.4926
还算	-10.4929
过得	-10.4934
森	-10.4937
我老公	-10.4939
山东	-10.4942
我先	-10.4943
大部分	-10.4944
嚣张	-10.4947
相关	-10.4955
欺骗	-10.4958
睡着了	-10.496
▁建议	-10.496
▁因为你	-10.4961
一杯	-10.4961
▁8	-10.4963
千万别	-10.4966
在家里	-10.4969
就喜欢	-10.4973
文字	-10.4973
中奖	-10.4975
我们会	-10.4978
老虎	-10.4982
什么意思	-10.4986
纪念	-10.4994
规定	-10.4999
没有人	-10.5007
的路上	-10.5008
有效	-10.5011
资源	-10.5014
让他们	-10.5017
私奔	-10.5017
细节	-10.5017
等于	-10.5024
故意的	-10.5028
情侣	-10.5031
啊哈哈哈	-10.5033
谦虚	-10.5034
年的	-10.5034
勾引	-10.5036
将来	-10.5036
错过了	-10.5038
讨	-10.5039
就说	-10.5042
可乐	-10.5053
毁了	-10.5053
怎么那么	-10.5056
载	-10.5056
身份证	-10.5058
法国	-10.5061
离婚	-10.5062
▁你居然	-10.5062
开放	-10.5064
同你	-10.5064
▁咋了	-10.5067
屏	-10.5072
创造	-10.5075
▁张	-10.5077
我不想	-10.5077
面试	-10.5079
挡	-10.5082
着急	-10.5083
娇	-10.5084
中秋快乐	-10.5085
冬	-10.5086
损	-10.509
厅	-10.5091
绕	-10.5094
▁你妈	-10.5095
没用	-10.5096
困难	-10.5096
▁我错了	-10.51
了点	-10.5104
仁	-10.511
亿	-10.5115
或许	-10.5115
造谣	-10.5118
一枚	-10.5119
信号	-10.5124
▁乖	-10.5124
是被	-10.5132
是很	-10.5135
没看见	-10.5136
的作品	-10.5138
啥事	-10.5139
米有	-10.5141
▁这些	-10.5143
生的	-10.5145
注意安全	-10.5149
不厚道	-10.515
美妞	-10.5154
没意思	-10.5154
名人	-10.5166
爱疯	-10.5167
来看看	-10.5168
摊	-10.5169
蒸	-10.5174
▁我真的	-10.5177
又有	-10.5177
下回	-10.5178
付出	-10.5179
来北京	-10.5184
▁陈	-10.5185
真人	-10.5187
适应	-10.5188
的人都	-10.5189
臭美	-10.5191
孕妇	-10.5196
不是一般的	-10.5197
留言	-10.5201
你居然	-10.5209
明明是	-10.5211
之类的	-10.5211
女子	-10.5211
▁我一直	-10.5212
用心	-10.5213
看完了	-10.5217
浩	-10.5222
故	-10.5226
真想	-10.5227
堵车	-10.5228
一句话	-10.523
的工作	-10.5235
欢迎你	-10.5235
策划	-10.5237
农民	-10.5237
艾	-10.5237
痒	-10.5238
怕你	-10.5239
的孩纸	-10.5246
表白	-10.5246
骨头	-10.5248
购买	-10.5252
充满	-10.5252
站在	-10.5254
▁哈哈谢谢	-10.5254
是你的	-10.5255
结束了	-10.5256
在我	-10.526
以及	-10.5261
▁这位	-10.5263
满意	-10.5267
傻了	-10.527
供	-10.5273
也行	-10.5275
建设	-10.5275
就觉得	-10.5277
▁居然	-10.5277
柳	-10.5278
▁哥哥	-10.5279
谷	-10.5283
带来	-10.5284
大连	-10.5284
特么	-10.5285
给个	-10.5288
去北京	-10.5288
▁在哪里	-10.529
▁你觉得	-10.5292
怎么可能	-10.5295
▁当	-10.5296
痛苦的	-10.5296
驴	-10.5298
书记	-10.5303
社会主义	-10.5303
伞	-10.5311
及时	-10.5314
▁笑	-10.5314
总觉得	-10.5314
没说	-10.5315
熟悉	-10.5318
依旧	-10.532
▁莫	-10.532
总有	-10.5321
营	-10.5339
往往	-10.5354
的一个	-10.5355
▁原来是	-10.536
操作	-10.5363
内部	-10.5363
已经被	-10.5365
倍	-10.537
60	-10.5374
▁你也是	-10.5375
▁有时候	-10.5375
许多	-10.5376
尊	-10.5378
据	-10.5378
后面的	-10.5382
▁我爱你	-10.5383
牌子	-10.5384
好喜欢	-10.5386
现代	-10.5389
队长	-10.5393
校长	-10.5393
歧视	-10.5402
看不见	-10.5403
香蕉	-10.5404
很容易	-10.5406
奖品	-10.5407
还以为	-10.5413
听过	-10.5417
过几天	-10.5418
也算	-10.5419
通宵	-10.5424
不习惯	-10.5424
演的	-10.5427
流量	-10.5429
这个人	-10.5435
▁不管	-10.5436
当心	-10.5438
▁因为我	-10.5438
▁你喜欢	-10.5439
不是很	-10.544
▁最后	-10.5441
心灵	-10.5442
实习	-10.5443
扁	-10.5444
尤其	-10.5448
好朋友	-10.5451
过生日	-10.5452
▁谢谢谢谢	-10.5453
你以为	-10.5454
徒	-10.5455
凌晨	-10.546
欣	-10.546
可以考虑	-10.5462
▁难怪	-10.5462
▁好嘛	-10.5462
小偷	-10.5463
区别	-10.5463
实践	-10.5465
三年	-10.5468
博客	-10.5469
浮云	-10.5475
▁今日	-10.5475
食品	-10.5478
家乡	-10.5478
▁回来	-10.5482
幼稚	-10.5486
奶茶	-10.5487
独立	-10.5488
另一个	-10.549
对待	-10.5491
▁生活	-10.5492
也不知道	-10.5494
镜	-10.5496
乐观	-10.5497
我对	-10.5507
看电视	-10.5507
能看到	-10.5509
玫瑰	-10.551
购	-10.551
小子	-10.5524
欢喜	-10.5529
老头	-10.5532
会有的	-10.5532
要有	-10.5533
吵架	-10.5537
说要	-10.5538
作用	-10.5539
▁难得	-10.5544
▁我这	-10.5547
郁闷啊	-10.5547
猫猫	-10.555
▁关键	-10.555
老人家	-10.5551
我们就	-10.5551
听不懂	-10.5551
好点	-10.5553
不应该	-10.5556
拍了	-10.5556
深刻	-10.5561
金牛	-10.5561
升级	-10.5563
▁又是	-10.5563
一看	-10.5565
浮	-10.5566
吓死	-10.5568
诺	-10.557
泽	-10.5571
联通	-10.5573
差距	-10.5573
桌	-10.5577
▁羡慕	-10.5583
勇敢	-10.5584
嫂	-10.5584
▁我只是	-10.5586
他说	-10.5589
▁算了	-10.559
一身	-10.5591
道歉	-10.5592
这样子	-10.5596
抹	-10.5597
笑死我了	-10.5598
默默	-10.5599
收获	-10.5607
国外	-10.5608
皆	-10.5611
症	-10.5612
芳	-10.5613
的事儿	-10.5614
夫妻	-10.5618
说她	-10.562
思维	-10.5621
跑了	-10.5622
闭	-10.5622
下个月	-10.5623
毛毛	-10.5625
这句	-10.5629
好好的	-10.5631
d	-10.5634
▁当然是	-10.5635
无视	-10.5637
两位	-10.5641
好哇	-10.5643
范儿	-10.5644
大佬	-10.5649
气死我了	-10.5653
胖纸	-10.5654
海南	-10.5655
妇	-10.566
亲自	-10.5663
你今天	-10.5664
不相信	-10.5666
达到	-10.5666
这首歌	-10.5666
预	-10.5667
失落	-10.5669
填	-10.5669
早日	-10.5673
债	-10.5677
暧昧	-10.5677
指甲	-10.5678
穿了	-10.5678
师姐	-10.5678
火了	-10.5679
敏感	-10.568
就是要	-10.5687
不起来	-10.5689
为什么要	-10.5695
真有	-10.5695
裸	-10.5697
肯定会	-10.5701
太大了	-10.5701
起了	-10.571
织	-10.5713
半年	-10.5713
▁好好	-10.5715
要好好	-10.5716
捉	-10.572
残忍	-10.572
▁到时候	-10.5722
自杀	-10.5723
蔡	-10.5724
现在还	-10.5728
▁这句话	-10.5728
状况	-10.5729
几多	-10.5735
▁是的是的	-10.5739
伯	-10.574
谣言	-10.5741
醋	-10.5742
互	-10.5747
看出来	-10.5748
出生	-10.5751
蓝色	-10.5752
肉麻	-10.5757
就当	-10.5757
也挺	-10.5758
爱好	-10.5758
好帅	-10.5759
家伙	-10.5761
胡子	-10.5764
商量	-10.5765
▁我昨天	-10.5769
听了	-10.577
多年	-10.5771
没看出来	-10.5771
现在都	-10.5773
吃醋	-10.5773
玩微博	-10.5776
摩羯	-10.5784
很高	-10.5791
给你吃	-10.5797
还敢	-10.58
一步	-10.581
别说	-10.581
看不出	-10.5814
快去	-10.5815
明白了	-10.5816
是神马	-10.582
骗我	-10.5826
▁加油加油	-10.5827
阿拉	-10.5827
宜家	-10.583
闺女	-10.583
好美	-10.5831
悟	-10.5836
甜蜜	-10.5836
螃蟹	-10.5837
都这么	-10.584
喝点	-10.5841
我们这	-10.5849
墨	-10.585
上传	-10.5852
优	-10.5853
类似	-10.5858
赢了	-10.5863
总比	-10.5865
以为是	-10.5867
弄得	-10.5869
建筑	-10.5871
一颗	-10.5872
恐怕	-10.5874
才对	-10.5875
吐了	-10.588
砍	-10.5882
的脸	-10.5883
纹	-10.5886
系列	-10.5887
届	-10.5888
觉得自己	-10.5889
恭喜恭喜	-10.589
泉	-10.5891
最重要	-10.5892
发个	-10.5897
反正我	-10.5901
几号	-10.5902
打扮	-10.5905
平衡	-10.5907
能不	-10.5908
我昨天	-10.5911
意识	-10.5912
我们去	-10.5913
灌	-10.5913
体现	-10.5915
有这样的	-10.5918
了很多	-10.5918
娃儿	-10.592
▁真的啊	-10.5921
▁呵	-10.5922
弱智	-10.5924
大姨妈	-10.5926
今天是	-10.5929
趴	-10.5929
绝望	-10.593
呃	-10.5931
坑爹的	-10.5932
慧	-10.5933
怎么没	-10.5933
好呀	-10.5934
模式	-10.5938
统一	-10.5939
休假	-10.5943
要注意	-10.5944
真可爱	-10.5949
都不是	-10.5952
唔好	-10.5953
总算	-10.5953
来自	-10.5956
希望能	-10.5957
没看	-10.5958
炫耀	-10.5959
沈	-10.5959
打死	-10.5961
致敬	-10.5962
我觉得我	-10.5967
角色	-10.5968
理性	-10.5968
马上就	-10.5968
中医	-10.5971
可怜的娃	-10.5972
啥意思	-10.5973
竹	-10.5975
坐在	-10.5977
开心的	-10.5978
骚扰	-10.5979
同感	-10.5979
文章	-10.5987
好啦	-10.5988
已经很	-10.5989
个小时	-10.5991
真理	-10.5991
明儿	-10.5992
一直都	-10.5993
说法	-10.5995
▁周末	-10.5997
看来你	-10.5999
委	-10.6
捧	-10.6002
我明天	-10.6003
福州	-10.6008
一遍	-10.6009
电视台	-10.601
所谓的	-10.6011
征	-10.6011
不就	-10.6012
凡	-10.6012
痛苦啊	-10.602
传说	-10.602
难吃	-10.6022
利用	-10.6024
睡得	-10.6024
挺好看的	-10.6026
骄傲	-10.6026
下的	-10.6032
吸引	-10.6032
还是有	-10.6039
性的	-10.6042
卫生	-10.6045
回归	-10.6045
▁你没	-10.6049
吃啊	-10.6053
公交	-10.6054
很正常	-10.6055
播出	-10.6058
人在	-10.6061
没文化	-10.6063
好过	-10.6064
你知道	-10.6068
做得	-10.6083
需	-10.6085
回了	-10.6087
在乎	-10.6089
钻	-10.6091
其它	-10.6091
兼	-10.6092
革命	-10.6093
报复	-10.6094
净	-10.6094
打你	-10.6097
搞基	-10.6099
得意	-10.6101
悲催了	-10.6101
拳	-10.6105
要来	-10.6111
荡	-10.6113
拍得	-10.6115
显示	-10.6115
▁两个	-10.6117
来吃	-10.6119
偶遇	-10.6119
毛病	-10.6124
甚	-10.6125
姑	-10.6127
绿色	-10.6127
很赞	-10.6129
看好	-10.6132
好歹	-10.6132
一瓶	-10.6139
工程	-10.6139
汇报	-10.614
▁个么	-10.6142
▁这里	-10.6143
就算了	-10.6145
我还在	-10.6148
历	-10.6148
▁直接	-10.6149
感谢你	-10.615
身高	-10.6157
▁那就是	-10.6157
手上	-10.616
邓	-10.616
海底捞	-10.616
肯	-10.6161
让自己	-10.6165
伦	-10.6166
以前的	-10.617
我儿子	-10.6171
项	-10.6179
必然	-10.6179
呕	-10.6181
葱	-10.6182
寺	-10.6183
来啦	-10.6185
在微博上	-10.6188
农村	-10.6188
婷	-10.6189
扯淡	-10.6189
婚姻	-10.619
嫂子	-10.6191
这年头	-10.6191
霸	-10.6194
程度	-10.6195
丰	-10.6196
爸妈	-10.6197
班长	-10.6197
废话	-10.62
娜	-10.6201
看来我	-10.6204
这样的人	-10.6205
频道	-10.6206
也喜欢	-10.6206
司	-10.6208
▁大概	-10.621
小人	-10.621
▁天啊	-10.6214
基础	-10.622
其他人	-10.6222
想的	-10.6224
苏州	-10.6225
就不是	-10.6226
万岁	-10.6228
啥时	-10.6229
堆	-10.6229
置	-10.623
▁小时候	-10.623
难以	-10.623
要多	-10.6234
惠	-10.6241
扑	-10.6245
禽兽	-10.625
琳	-10.625
请我吃饭	-10.625
讽刺	-10.6251
贤惠	-10.6251
伟大的	-10.6251
又被	-10.6252
这么久	-10.6255
长期	-10.6257
肠	-10.6269
无语了	-10.6271
冷静	-10.6272
其中	-10.6273
有病	-10.6274
不愿意	-10.6277
进来	-10.6278
最高	-10.6281
就好啦	-10.6282
夫人	-10.6291
虐待	-10.6291
侮辱	-10.6292
他俩	-10.6293
保险	-10.6294
昆明	-10.6296
点解	-10.6297
密码	-10.6297
一百	-10.63
还有个	-10.6301
治疗	-10.6303
人间	-10.6307
有创意	-10.6308
哎呀	-10.6311
一段时间	-10.6312
某些人	-10.6314
有感觉	-10.6316
▁刘	-10.6318
猪头	-10.632
▁收到	-10.6325
郑	-10.6326
▁你别	-10.6329
做过	-10.633
可悲	-10.6333
版本	-10.6333
你先	-10.6334
这周	-10.6337
▁不懂	-10.6339
苗	-10.634
邀请	-10.634
▁五	-10.6342
怂	-10.6342
555	-10.6343
会更	-10.6344
没吃过	-10.6347
腾讯	-10.6348
只不过	-10.6348
我要去	-10.6349
生了	-10.6356
至于	-10.6359
而不是	-10.6359
人气	-10.6361
▁中午	-10.6364
我得	-10.6366
腾	-10.637
▁真心	-10.6371
人心	-10.6372
你不要	-10.6376
保安	-10.6379
边上	-10.638
呸	-10.6387
``	-10.6388
即将	-10.6391
好好玩	-10.6391
花花	-10.6395
▁不是说	-10.6396
长沙	-10.6396
心情好	-10.6397
▁10	-10.6398
的结果	-10.6401
功夫	-10.6402
那个时候	-10.6403
冤	-10.6411
奖励	-10.6411
▁唔	-10.6416
这一	-10.6416
就该	-10.6418
所以才	-10.642
发表	-10.6424
好象	-10.6427
想说	-10.6427
那儿	-10.6428
▁你自己	-10.6429
借口	-10.643
相信你	-10.6431
垫	-10.6433
带你去	-10.6436
健身	-10.6438
安静	-10.6442
开个	-10.6445
驾	-10.6445
制作	-10.6445
孙子	-10.6449
▁9	-10.6449
壳	-10.6451
最大	-10.6454
见识	-10.6456
我一个人	-10.6457
反映	-10.6458
加了	-10.6459
▁几时	-10.6462
还没睡	-10.6463
找人	-10.6464
这么晚	-10.6468
怨	-10.6471
尝	-10.6473
手里	-10.6475
▁你知道	-10.6475
销魂	-10.6476
卫	-10.6479
还不知道	-10.6479
玻璃	-10.648
没看过	-10.6482
答应	-10.6484
▁现在的	-10.6487
不能吃	-10.6489
翔	-10.6493
一哈	-10.6495
脖子	-10.6496
出国	-10.65
沾	-10.6502
一说	-10.6503
实力	-10.6503
赶上	-10.6504
我把	-10.6504
导致	-10.6504
这东西	-10.6505
绝对的	-10.6507
电影院	-10.651
不死	-10.6513
白菜	-10.6515
旺	-10.6517
地区	-10.6517
人人	-10.6518
和尚	-10.6522
石头	-10.6526
贺	-10.6533
吃点	-10.6539
好笑	-10.6544
不重要	-10.6547
珠	-10.6549
发烧	-10.6551
▁那不是	-10.6555
是指	-10.656
这个社会	-10.656
有文化	-10.6563
三十	-10.6565
女王	-10.6565
变了	-10.6568
特色	-10.6569
▁不是我	-10.657
朵	-10.6575
可能会	-10.6577
惭愧	-10.6581
哭的	-10.6585
宁波	-10.6586
日本人	-10.6586
苦啊	-10.6587
关注你	-10.6587
十三	-10.6588
受伤	-10.6588
▁我们是	-10.6589
嫌弃	-10.6592
乎	-10.6594
牵	-10.6595
这是我	-10.6597
犯罪	-10.6598
实在太	-10.66
消灭	-10.6601
我很喜欢	-10.6603
购物	-10.6603
优秀	-10.6605
往事	-10.6614
爷们	-10.6617
真不	-10.6618
贤	-10.662
一号	-10.6623
▁呸	-10.6625
趁	-10.6625
▁可爱	-10.6626
▁幸福	-10.663
诅咒	-10.663
不了解	-10.6633
的同学	-10.6634
▁我以为	-10.6641
馒头	-10.6644
坑爹啊	-10.6647
这辈子	-10.6648
有多少	-10.6654
会议	-10.6657
崇拜	-10.6658
人地	-10.6658
就被	-10.6658
放下	-10.6665
滋润	-10.6666
溪	-10.6668
沈阳	-10.6669
交警	-10.6675
啥的	-10.6676
团队	-10.6677
老家	-10.6678
气场	-10.668
很无奈	-10.6684
池	-10.6688
施	-10.669
压抑	-10.6692
自行车	-10.6693
最终	-10.6702
喝水	-10.6706
烦死了	-10.6708
扭	-10.6709
小气	-10.671
▁哇靠	-10.671
悲剧啊	-10.671
给人	-10.6711
伴娘	-10.6712
▁黑	-10.6712
尽快	-10.6717
一日	-10.6721
一个星期	-10.6722
幻想	-10.6729
早安	-10.6729
回学校	-10.6736
凤凰	-10.6739
推广	-10.6741
发泄	-10.6742
旗	-10.6745
26	-10.6745
带点	-10.6746
做事	-10.6747
有无	-10.6755
股票	-10.6757
^^	-10.6763
装嫩	-10.6764
神秘	-10.6764
这种事	-10.6764
信仰	-10.6766
东方	-10.6767
▁表示	-10.6767
莲	-10.6768
总理	-10.677
舍得	-10.6773
哄	-10.6777
孩子们	-10.6782
除非	-10.6783
电信	-10.6784
终	-10.6786
的眼神	-10.6786
的时候就	-10.6787
判断	-10.6787
吃火锅	-10.6788
提示	-10.6789
母亲	-10.6789
左边	-10.6791
搭配	-10.6795
纯属	-10.6797
盒	-10.6797
▁所以我	-10.6797
曼	-10.68
好漂亮	-10.6801
为什么不	-10.6802
童年	-10.6802
信不信	-10.6804
有必要	-10.6808
骗你	-10.6809
▁我只	-10.6815
▁马	-10.6817
清纯	-10.6819
引起	-10.682
润	-10.6821
卖了	-10.6823
等你回来	-10.6828
已经是	-10.683
坐车	-10.683
真幸福	-10.6837
针对	-10.6839
抓狂	-10.6839
▁你妹的	-10.6839
星期六	-10.6839
明天去	-10.684
的力量	-10.684
分手	-10.6843
既然	-10.6846
保养	-10.6849
世纪	-10.6851
屁屁	-10.6852
不太好	-10.6856
▁你今天	-10.6858
开业	-10.6859
移民	-10.686
女神	-10.6868
了解我	-10.687
事故	-10.6874
荣幸	-10.6875
肿么了	-10.6875
值班	-10.688
就叫	-10.6881
反而	-10.6884
亲戚	-10.6884
敢不敢	-10.6888
凭	-10.6891
和小	-10.6893
▁难道是	-10.6893
▁某人	-10.6894
我跟	-10.6896
杯子	-10.6897
到最后	-10.6898
辉	-10.6899
从来没	-10.69
他妈的	-10.6903
谈恋爱	-10.6904
狗屎	-10.6904
▁该	-10.6906
蹲	-10.6907
下午茶	-10.6908
以为你	-10.6913
不会是	-10.6917
妹儿	-10.6917
组合	-10.6918
劳动	-10.6919
己	-10.692
噶啦	-10.6923
▁既然	-10.6924
不得不	-10.6925
你这么	-10.6925
钢	-10.6928
怎么就	-10.6931
年底	-10.6933
执行	-10.6933
门票	-10.6934
不怎么	-10.6937
▁听	-10.6937
▁怕	-10.6941
侧	-10.6944
了一天	-10.6944
▁之前	-10.6946
有用	-10.6949
玛	-10.6955
不得了	-10.6956
持	-10.6956
稍微	-10.6956
云南	-10.6965
跟你们	-10.6968
▁我觉得我	-10.6968
亮了	-10.6968
继续努力	-10.697
很难过	-10.6976
忐忑	-10.698
开心啊	-10.6981
并且	-10.6982
后的	-10.6989
现在在	-10.6991
好好学习	-10.6997
几张	-10.7
参观	-10.7004
开心就好	-10.7005
扶	-10.7005
我心里	-10.7007
你才	-10.7013
资	-10.7015
前几天	-10.7015
勤	-10.7016
都不敢	-10.7016
很痛苦	-10.7018
光了	-10.7019
本事	-10.7024
拽	-10.7029
蘑菇	-10.7029
▁3	-10.7029
好友	-10.7034
▁每次	-10.7037
在广州	-10.7039
祝福你	-10.7041
认同	-10.7044
棒子	-10.705
青岛	-10.7051
▁有机会	-10.7052
咋了	-10.7052
下雨了	-10.7053
穷人	-10.7054
劝	-10.7054
气氛	-10.7054
都想	-10.7056
▁2	-10.7059
其他的	-10.706
了一下	-10.7061
▁那也	-10.7064
握	-10.7065
每年	-10.7065
最佳	-10.7067
很难受	-10.7068
啥呢	-10.7068
刺激我	-10.7069
醒来	-10.7073
显摆	-10.7077
这个时候	-10.7078
连续	-10.7081
扬	-10.7083
曹	-10.7085
不开	-10.7087
我还以为	-10.7091
全身	-10.7097
规律	-10.7101
▁黄	-10.7103
你也要	-10.7104
▁二	-10.7107
公平	-10.7108
浦	-10.711
喜欢吃	-10.7112
生病了	-10.7119
认识的	-10.7121
丽江	-10.7125
早晨	-10.7126
编辑	-10.7128
凄凉	-10.7128
富二代	-10.7128
炎	-10.7128
闷骚	-10.713
你们俩	-10.7132
就是我	-10.7138
在哪儿	-10.7141
拿着	-10.7148
晴	-10.7148
嗓子	-10.7153
看见你	-10.7154
睡眠	-10.7154
不回	-10.7157
这个名字	-10.7161
神奇	-10.7171
你们这些	-10.7174
太坏了	-10.7175
▁行	-10.7176
▁是哦	-10.7177
优惠	-10.7178
向往	-10.718
累死	-10.7194
蚊	-10.7195
上火	-10.7195
▁什么意思	-10.7196
▁谢	-10.7197
姚	-10.7201
我这个	-10.7203
卢	-10.7203
撕	-10.7203
几个月	-10.7203
素颜	-10.7204
悲惨	-10.7206
当然是	-10.7206
有那么	-10.7206
别忘了	-10.7208
晃	-10.7211
我可是	-10.7212
斯文	-10.7213
都木有	-10.7216
▁放心	-10.722
勇	-10.7221
花了	-10.7222
微笑	-10.7222
贫	-10.7223
尸	-10.7226
夸我	-10.7227
锦	-10.7227
搓	-10.7227
鉴定完毕	-10.7228
没睡	-10.7229
本身	-10.7229
钱包	-10.7238
的社会	-10.7239
手指	-10.7239
正经	-10.7239
都唔	-10.7244
▁相当	-10.7246
▁不晓得	-10.7248
饺子	-10.7249
鼓掌	-10.7253
抗议	-10.7253
一个小时	-10.7254
混乱	-10.7258
学姐	-10.7258
请我吃	-10.726
尾巴	-10.7261
酱油	-10.7268
参考	-10.7271
黄瓜	-10.7272
活的	-10.7275
割	-10.7278
坡	-10.7278
憔悴	-10.7278
矫情	-10.7278
头疼	-10.7279
是有多	-10.7279
了半天	-10.728
强烈	-10.728
今天晚上	-10.7282
▁我也不知道	-10.7295
一起吃	-10.7298
反对	-10.7299
强奸	-10.7299
犬	-10.7303
蒋	-10.7303
十八	-10.7305
身份	-10.7307
▁微博	-10.7308
迷茫	-10.7308
面膜	-10.7309
▁还不错	-10.7309
去医院	-10.7309
九点	-10.731
看出来了	-10.731
长了	-10.7313
过两天	-10.7313
有心	-10.7316
5555	-10.7319
有钱人	-10.732
篮球	-10.7321
拉拉	-10.7321
就是这么	-10.7323
四爷	-10.7325
▁天天	-10.7325
抓紧	-10.7326
特殊	-10.7328
琪	-10.7328
女主角	-10.7329
爪子	-10.7332
脆弱	-10.7333
我们这些	-10.7334
十二	-10.7338
▁妞	-10.7344
早知道	-10.7344
缩	-10.7346
我最	-10.735
污染	-10.7354
70	-10.7359
▁不客气	-10.7359
▁你最近	-10.7363
下手	-10.7363
剪了	-10.7364
打击我	-10.7366
一下吧	-10.7366
好喝	-10.7368
潜	-10.7368
不要再	-10.7368
有意义	-10.737
好痛	-10.7371
那条	-10.7375
一碗	-10.7375
知道的	-10.7377
扒	-10.7379
宠物	-10.738
说的话	-10.738
还有什么	-10.7383
认得	-10.7389
养的	-10.7389
一双	-10.7395
宜	-10.7398
住了	-10.7402
▁手机	-10.7403
正义	-10.741
▁嗯嗯嗯	-10.741
不上班	-10.7411
食物	-10.7418
▁就你	-10.7418
们都	-10.7423
你就是	-10.7424
靓仔	-10.7424
流泪	-10.7429
玲	-10.7429
吞	-10.743
现象	-10.743
▁错	-10.7432
假装	-10.7434
头上	-10.7435
▁同问	-10.7439
都觉得	-10.7439
止	-10.7445
玉米	-10.7447
凭什么	-10.7449
那些人	-10.7451
限制	-10.7452
我也去	-10.746
积	-10.7462
丢脸	-10.7465
好意思	-10.7465
的眼睛	-10.7467
坚决	-10.7467
极品	-10.7469
▁是阿	-10.7479
27	-10.7479
▁为毛	-10.7479
怡	-10.7481
复习	-10.7481
很期待	-10.7482
随意	-10.7483
我的心	-10.7484
增肥	-10.7485
番	-10.7487
▁你说的	-10.7488
那就是	-10.7489
就不用	-10.7493
▁谢谢哈	-10.7494
生个	-10.7495
▁我还是	-10.7497
根据	-10.7498
注	-10.7499
玩具	-10.7499
▁注意	-10.75
讲的	-10.75
桶	-10.7501
▁还真	-10.7506
在里面	-10.7508
你最近	-10.7512
肖	-10.7515
放松	-10.7515
我最喜欢	-10.7516
至今	-10.7516
寂寞了	-10.7517
有几个	-10.7519
天堂	-10.752
▁怀念	-10.7522
▁找	-10.7522
路口	-10.7523
乐趣	-10.7523
你给我	-10.7531
浙江	-10.7533
辟谣	-10.7533
什么样的	-10.7538
▁快点	-10.754
五毛	-10.7542
整理	-10.7543
用来	-10.7546
▁完全	-10.7546
创业	-10.7551
屎了	-10.7551
都不能	-10.7552
收入	-10.7554
对自己	-10.7555
▁广州	-10.7559
恭喜你	-10.7561
点吧	-10.7562
邪	-10.7563
好快	-10.7564
合理	-10.7564
了好多	-10.7564
这些人	-10.7566
太太	-10.7569
勾	-10.757
原谅	-10.7571
试过	-10.7572
你们两个	-10.7584
妳	-10.7584
大雨	-10.7585
按摩	-10.7585
红包	-10.7587
平台	-10.7587
▁肿么了	-10.7592
够了	-10.7593
干部	-10.7597
激	-10.7598
悦	-10.7609
早晚	-10.761
全球	-10.761
一道	-10.7612
请吃饭	-10.7614
一夜	-10.7615
停电	-10.7617
的粉丝	-10.7619
▁好美	-10.7624
找找	-10.7624
鸭子	-10.7624
不哭	-10.7625
遮	-10.7628
是哪	-10.7629
制造	-10.7635
美美	-10.7638
舍	-10.765
要买	-10.7651
我们在	-10.7655
打我	-10.7656
稀	-10.7658
跟她	-10.7659
来玩	-10.7663
房价	-10.7664
正是	-10.7666
▁早知道	-10.7667
补充	-10.7672
▁我最近	-10.7674
持续	-10.7679
一阵	-10.7682
资本	-10.7684
但愿	-10.7685
的新	-10.7688
原创	-10.769
互粉	-10.7692
教我	-10.7695
算不算	-10.7695
无力	-10.7695
▁一直	-10.7695
觉得你	-10.7698
的祝福	-10.7699
组团	-10.7704
小清新	-10.7706
那段	-10.7707
活该	-10.7708
吃完了	-10.771
我能	-10.771
妇女	-10.7712
柴	-10.7713
太狠了	-10.7714
有你	-10.7718
老天	-10.7718
姿势	-10.7719
也想	-10.7719
预定	-10.7719
刚开始	-10.7723
感兴趣	-10.7725
也是一种	-10.7725
▁对了	-10.7725
刘海	-10.7727
不错不错	-10.7728
点多	-10.7732
喝咖啡	-10.7733
挣	-10.7734
惜	-10.7734
个性	-10.774
论坛	-10.7742
好呢	-10.7744
留意	-10.7745
没空	-10.7747
现在才	-10.7748
对他	-10.7751
▁没问题	-10.7752
床上	-10.7753
怕怕	-10.7754
你这是	-10.7754
一时	-10.7754
效率	-10.7755
知道你	-10.7757
附	-10.7761
瞧	-10.7763
▁成都	-10.7766
▁咁	-10.7768
广大	-10.7769
坐着	-10.7769
叉	-10.777
不干	-10.777
三亚	-10.777
里有	-10.777
时期	-10.777
献	-10.777
▁啦啦啦	-10.7773
库	-10.7773
非常好	-10.7775
他了	-10.7777
接近	-10.7778
▁你来	-10.7778
比我还	-10.7779
真够	-10.7779
时刻	-10.7781
▁你那	-10.7784
有所	-10.7786
知道我	-10.7786
限	-10.7793
没去过	-10.7794
彭	-10.7794
吕	-10.7794
比人	-10.7796
去不了	-10.7797
中央	-10.7798
▁至少	-10.7799
雄	-10.7801
材料	-10.7803
相对	-10.7808
▁你是说	-10.7811
需求	-10.7811
伤不起啊伤不起	-10.7813
▁一定	-10.7814
▁谁说	-10.7814
▁主要	-10.7817
胶	-10.7819
婚纱	-10.7823
外卖	-10.7825
▁你终于	-10.7828
▁看起来	-10.7828
吃饱	-10.7831
确实很	-10.7831
看见了	-10.7833
▁真的是	-10.7834
太帅了	-10.7834
纠结了	-10.7835
是想	-10.7837
那不是	-10.7837
哪些	-10.7841
解放	-10.7842
致	-10.7847
壶	-10.7847
飘过	-10.7849
有这个	-10.785
潜水	-10.7853
▁没关系	-10.7853
消化	-10.7854
小伙子	-10.7858
乱了	-10.7859
跟谁	-10.7859
节日	-10.7861
艳遇	-10.7861
应该会	-10.7864
可真	-10.7865
行吗	-10.7868
▁悲催的	-10.7868
这人	-10.7868
的表现	-10.7869
无奈啊	-10.7869
牺牲	-10.7874
▁明显	-10.7875
内涵	-10.7876
隆	-10.7876
家属	-10.7876
热爱	-10.7878
投票	-10.7879
周四	-10.788
肉肉	-10.7882
饭店	-10.7885
吓到	-10.7887
有趣	-10.7889
集团	-10.7889
务	-10.7896
外表	-10.7896
是什么意思	-10.7899
出名	-10.79
拉黑	-10.79
认识你	-10.79
敬业	-10.7902
累死了	-10.7902
我一定	-10.7903
爆了	-10.7904
适合你	-10.7907
几个人	-10.7907
被子	-10.7908
▁伤心	-10.791
糊	-10.791
怎么样啊	-10.7911
了哇	-10.7912
机器	-10.7913
很郁闷	-10.7914
▁传说中的	-10.7915
俾	-10.7918
▁废话	-10.792
相互	-10.7925
希	-10.7926
洪辰	-10.7928
29	-10.7929
衫	-10.7929
▁说的	-10.7934
▁你们俩	-10.7934
▁帅	-10.7938
▁当时	-10.794
清新	-10.7942
老年人	-10.7945
我只能	-10.7946
鼓	-10.7949
没吃	-10.795
有点儿	-10.7952
买不起	-10.7952
囖	-10.7954
旁边的	-10.7956
午饭	-10.7957
酸奶	-10.7961
同行	-10.7961
主角	-10.7961
很是	-10.7967
品味	-10.7972
一齐	-10.7973
小黑	-10.7977
玩得	-10.7978
创新	-10.7979
北方	-10.798
等着你	-10.7983
现在已经	-10.7983
当真	-10.7985
是怎么	-10.7988
捧场	-10.7991
冤枉	-10.7993
缺德	-10.7993
把你的	-10.7994
昨天晚上	-10.7995
不至于	-10.7996
魂	-10.7999
杆	-10.8001
检	-10.8001
抽烟	-10.8001
看不起	-10.8002
模	-10.8007
给你买	-10.8007
粘	-10.8008
我相信	-10.8013
车子	-10.8014
免得	-10.8015
唔到	-10.8018
好日子	-10.8018
▁去年	-10.8019
坏蛋	-10.8022
画面	-10.8029
术	-10.8031
我也不知道	-10.8031
得罪	-10.8032
了一个	-10.8035
▁其实是	-10.8037
同桌	-10.8041
吃多了	-10.8043
嗨皮	-10.8043
鹏	-10.8045
你不知道	-10.8045
一向	-10.8048
稿	-10.8049
你不懂	-10.8057
的爱	-10.8058
)	-10.8062
我一	-10.8063
趋势	-10.8063
介么	-10.8065
耍流氓	-10.8065
一副	-10.8066
老乡	-10.8068
问题是	-10.8073
不方便	-10.8081
来上海	-10.8082
命运	-10.8084
谋	-10.8084
▁肯定是	-10.8085
和她	-10.8085
传说中的	-10.8087
敲	-10.8088
忧郁	-10.809
跟我们	-10.8091
人民币	-10.8091
分开	-10.8091
形式	-10.8091
明晚	-10.8092
▁搞	-10.8092
因为你	-10.8097
还用	-10.8099
▁挺	-10.8103
的节目	-10.8105
略	-10.8107
坏事	-10.8107
这张照片	-10.8107
没必要	-10.8108
北京的	-10.8109
对比	-10.811
信了	-10.8113
问了	-10.8114
超越	-10.8115
不然我	-10.8116
感恩	-10.8117
雾	-10.8117
欺负你	-10.8117
▁我们都	-10.8119
▁祝福	-10.8121
过瘾	-10.8122
核	-10.8125
稳定	-10.8129
笑得	-10.8129
梨	-10.813
隐	-10.8131
不同的	-10.8132
灭了	-10.8136
太有	-10.8138
睡吧	-10.8139
多吃	-10.814
靠近	-10.8141
很好听	-10.8142
勉强	-10.8145
幸福啊	-10.8145
报警	-10.8147
尴尬	-10.8147
▁我还没	-10.8151
狮子座	-10.8151
请你吃饭	-10.8156
个个都	-10.8157
▁估计是	-10.8159
▁正	-10.816
奸	-10.8164
好消息	-10.8168
应该有	-10.8169
▁怎么会	-10.8169
改了	-10.8169
那么早	-10.8169
屋企	-10.8171
肩	-10.8171
即使	-10.8172
莱	-10.8172
▁够	-10.8172
好饿	-10.8175
仲有	-10.8177
星期五	-10.8181
就应该	-10.8192
不错吧	-10.8199
▁说实话	-10.82
▁需要	-10.8203
确认	-10.8204
不是人	-10.8204
型的	-10.8209
的关系	-10.8212
失眠了	-10.8214
别太	-10.8215
改成	-10.8215
▁金	-10.8219
羡慕你	-10.8219
▁这样的	-10.8221
品种	-10.8221
盲	-10.8221
▁是吧	-10.8221
我被	-10.8223
兜	-10.8225
给他们	-10.8226
意大利	-10.8227
什么叫	-10.8227
更健康	-10.8228
对着	-10.8229
不喝	-10.8229
我们公司	-10.8233
像个	-10.8234
在说	-10.8234
买单	-10.8234
产生	-10.8235
▁毛	-10.8235
排骨	-10.8238
就成	-10.8238
一直很	-10.8241
后悔了	-10.8243
久了	-10.8244
示	-10.8246
杀了	-10.8248
洲	-10.8249
这个词	-10.8249
晚餐	-10.825
不过你	-10.8253
车上	-10.8258
执着	-10.8262
一帮	-10.8262
▁上班	-10.8265
年了	-10.8265
也一样	-10.8267
把握	-10.8273
小心点	-10.8274
办事	-10.8275
下雪	-10.8277
权力	-10.8278
竞争	-10.8281
长发	-10.8282
场面	-10.8283
某个	-10.8285
信任	-10.8287
▁不许	-10.829
学长	-10.8291
点的	-10.8291
不必	-10.8293
啥啊	-10.8295
以后就	-10.8297
准备好	-10.8301
哪来的	-10.8303
谢啦	-10.8305
肌肉	-10.8308
仪	-10.8309
仓	-10.831
碟	-10.831
兼职	-10.8311
请教	-10.8311
考察	-10.8311
我咋	-10.8311
感悟	-10.8313
猫咪	-10.8314
天才	-10.8318
鸭梨	-10.832
外星人	-10.8322
诗人	-10.8323
玩啊	-10.8324
心思	-10.8325
从此	-10.8329
厨房	-10.8333
帝都	-10.8334
注意身体	-10.8335
您老	-10.8336
的消息	-10.8336
我再	-10.8337
纯洁	-10.8341
被你发现了	-10.8341
就对了	-10.8342
金融	-10.8345
地下	-10.8347
忧伤	-10.835
爱他	-10.8354
吃屎	-10.8356
我以为你	-10.8356
锋	-10.8358
大道	-10.8359
周围	-10.8361
忠	-10.8364
替我	-10.8365
▁超级	-10.8366
’	-10.8366
舒	-10.8369
▁具体	-10.8369
▁好可爱	-10.8374
发言	-10.8377
▁带	-10.8378
又想	-10.8382
的头像	-10.8383
更美	-10.8384
▁第一次	-10.8387
不正常	-10.8388
▁可能是	-10.8389
会长	-10.839
孤	-10.839
▁你真是	-10.8391
网友	-10.8393
遗	-10.8393
是滴	-10.8394
惆怅	-10.8394
和你们	-10.8399
植物	-10.8404
不胖	-10.8406
▁果断	-10.8407
抖	-10.8408
什么人	-10.8408
鼠	-10.8408
吃吧	-10.8415
你最	-10.8419
小弟	-10.8419
合影	-10.842
不着	-10.8422
霞	-10.8423
大胆	-10.8424
不足	-10.8429
▁那你就	-10.843
博主	-10.843
六点	-10.8433
喜欢你	-10.8433
能否	-10.8434
大腿	-10.8436
好不容易	-10.844
穿上	-10.844
加油啊	-10.8443
客观	-10.8443
你已经	-10.8444
盼	-10.8447
星巴克	-10.8451
玩的开心	-10.8453
句话	-10.8457
喜欢他	-10.8461
爱人	-10.8464
父	-10.8467
珍	-10.8468
外国人	-10.8468
册	-10.8474
怎么都	-10.8474
设	-10.8477
效	-10.8479
▁只	-10.848
抱怨	-10.848
夜猫子	-10.8482
▁如果你	-10.8482
可以的	-10.8483
豆豆	-10.8483
贴心	-10.8484
带上我	-10.8493
我老婆	-10.8494
前两天	-10.8496
劈	-10.8498
说啥	-10.8503
无聊的	-10.8506
qq	-10.8508
纠结啊	-10.8508
▁早安	-10.8509
▁我觉得你	-10.8511
见了	-10.8511
猪肉	-10.8514
▁为什么要	-10.8515
淘	-10.8516
胆子	-10.8518
号线	-10.8519
少吃	-10.852
立马	-10.852
台词	-10.8523
很无聊	-10.8524
超人	-10.8524
胜利	-10.8525
微信	-10.8531
有理	-10.8531
你肯定	-10.8532
可见	-10.8534
气死了	-10.8534
好用	-10.8535
▁她是	-10.8535
两点	-10.8535
气死	-10.8536
个大	-10.8538
例	-10.854
那么久	-10.854
简单的	-10.854
在你	-10.8544
兽	-10.8545
私信我	-10.8546
踏	-10.8549
漂	-10.855
打工	-10.8551
如果是	-10.8552
太难	-10.8553
说的对	-10.8555
有得	-10.8557
带个	-10.8561
番茄	-10.8565
缺乏	-10.8565
要小心	-10.8566
贪官	-10.8566
还需要	-10.857
把她	-10.8572
十五	-10.8575
才好	-10.8579
▁作为	-10.8579
央视	-10.8583
写得	-10.8584
孔	-10.8585
小米	-10.8586
▁好想	-10.8586
▁哪天	-10.8588
梦里	-10.8588
强悍	-10.8588
▁我是说	-10.8588
快了	-10.8589
府	-10.8592
生存	-10.8592
▁您好	-10.8593
不睡觉	-10.8595
小狗	-10.8596
当地	-10.8597
就够了	-10.8604
每个人都	-10.8604
我朋友	-10.8606
还有很多	-10.8608
不让我	-10.8609
我都没	-10.861
女友	-10.861
▁生日快乐啊	-10.8611
的行为	-10.8614
大餐	-10.8617
玩意	-10.8619
星期天	-10.8621
哈尔滨	-10.8622
刘忻	-10.8622
益	-10.8623
不理	-10.8623
▁有的	-10.8623
▁不怕	-10.8624
帅的	-10.8624
非洲	-10.8625
怕是	-10.8625
印度	-10.8629
温度	-10.8632
▁那天	-10.8632
红了	-10.8633
醉了	-10.8637
要不你	-10.8643
迷人	-10.8644
系你	-10.8644
大方	-10.8646
公交车	-10.865
徒弟	-10.8652
趟	-10.8654
极度	-10.8656
用手机	-10.8658
刻	-10.866
好想吃	-10.866
▁晚安	-10.8662
灾	-10.8666
▁工作	-10.8666
贡献	-10.8667
保重	-10.867
下次去	-10.8673
新年快乐	-10.8675
仅	-10.8675
就是一个	-10.8677
弯	-10.8679
天真	-10.868
不过还是	-10.8682
没劲	-10.8685
玩笑	-10.8687
另	-10.8688
▁领导	-10.8689
脑壳	-10.8693
被你们	-10.8695
想念你	-10.8698
饮料	-10.8702
必须要	-10.8703
另一	-10.8707
太少	-10.8709
评委	-10.871
看成	-10.8711
广播	-10.8717
不错嘛	-10.8717
人家是	-10.8718
那人	-10.8726
点评	-10.8726
裙	-10.8726
瘦的	-10.8731
▁杭州	-10.8733
我决定	-10.8735
新加坡	-10.8738
抄袭	-10.8738
会变	-10.8741
那啥	-10.8743
聚聚	-10.8747
避	-10.8748
做不到	-10.8749
课程	-10.875
黑社会	-10.875
什么呀	-10.8751
著	-10.8763
包邮	-10.8766
缝	-10.8767
计较	-10.8767
很爽	-10.8768
暴露	-10.8768
我肯定	-10.8769
提到	-10.877
▁一定要	-10.8771
那么晚	-10.8771
下车	-10.8771
三点	-10.8774
我还要	-10.8775
在意	-10.878
记性	-10.8783
的人生	-10.8784
▁有些	-10.8786
赞一个	-10.8788
真开心	-10.8791
▁7	-10.8792
在线	-10.8792
坊	-10.8793
陶	-10.8794
眼里	-10.8795
有人说	-10.8795
袁	-10.8796
有何	-10.8797
这家	-10.88
为毛	-10.8801
悲剧的	-10.8802
珠海	-10.8802
很怀念	-10.8804
允许	-10.8805
它的	-10.8808
小妹	-10.8808
两人	-10.8808
到北京	-10.8809
四个	-10.8809
新浪微博	-10.881
还记得	-10.8813
好难过	-10.8813
技	-10.8814
▁你猜	-10.8821
教你	-10.8824
灿烂	-10.8825
汪	-10.8825
很强	-10.8831
和我一样	-10.8833
吓死我了	-10.8833
加油哦	-10.8836
这不	-10.8838
▁某	-10.8839
观点	-10.8841
战斗	-10.8842
搞到	-10.8843
妮	-10.8845
承受	-10.8847
常常	-10.885
行程	-10.8852
单反	-10.8859
大厦	-10.886
这么多年	-10.8863
早已	-10.8865
▁老板	-10.8866
瓶子	-10.8872
要把	-10.8873
你不会	-10.8874
骑车	-10.8875
▁米	-10.8877
惯	-10.8879
粒	-10.888
一点也不	-10.888
远离	-10.8881
这玩意	-10.8884
最美	-10.8884
吐槽	-10.8885
外婆	-10.8886
快要	-10.8888
觉悟	-10.8888
十四	-10.8891
歇	-10.8892
你猜	-10.8899
情节	-10.8899
辈	-10.89
点了	-10.8901
岗	-10.8904
动力	-10.8905
在网上	-10.8906
300	-10.8906
裂	-10.8909
轩	-10.8914
攻击	-10.8915
很爱	-10.8916
规划	-10.8916
55555	-10.8919
股市	-10.8919
谁知道	-10.892
准时	-10.892
可以做	-10.8921
幸	-10.8925
友情	-10.8927
▁是的啊	-10.8927
看出	-10.893
日日	-10.8932
虚伪	-10.8934
缺少	-10.8938
包装	-10.8942
崔	-10.8943
伺候	-10.8944
状	-10.8946
失望了	-10.8946
报销	-10.8946
有限	-10.8947
物价	-10.8947
打错了	-10.8948
永远是	-10.8949
膜拜	-10.8949
审	-10.8953
送给你	-10.8956
近期	-10.8958
掐	-10.8958
99	-10.8959
让你们	-10.8961
是从	-10.8962
唔知	-10.8965
就来	-10.8965
发达	-10.8967
好好吃	-10.8967
差别	-10.8968
刚从	-10.8972
会计	-10.8972
有同感	-10.8973
拯救	-10.8974
肾	-10.8974
好累啊	-10.8975
光头	-10.8977
半小时	-10.8977
体力	-10.898
严肃	-10.8984
好久了	-10.8986
▁向	-10.8987
骂他	-10.8989
赞成	-10.899
瘦子	-10.8992
大声	-10.8992
▁改天	-10.8992
有什么好	-10.8995
正宗	-10.8999
▁后面	-10.8999
送给	-10.8999
笑死	-10.9
霖	-10.9003
煽情	-10.9004
黑了	-10.9004
我说的是	-10.9007
我快	-10.901
真没	-10.9011
那次	-10.9016
又在	-10.9016
那么多人	-10.9017
儿的	-10.9018
还不睡	-10.9022
使劲	-10.9023
秒杀	-10.9024
着你	-10.9025
服装	-10.9025
关机	-10.9028
饿死	-10.9029
一代	-10.9031
公司的	-10.9031
k	-10.9033
▁呦	-10.9034
▁为何	-10.9036
看到我	-10.9036
▁吼吼	-10.9037
爆发	-10.9039
按照	-10.904
蹭	-10.9041
生物	-10.9044
幸好	-10.9048
想起来	-10.9048
笑死了	-10.9052
都是浮云	-10.9053
的风格	-10.9056
翻来	-10.9056
畅	-10.9057
回北京	-10.906
通知我	-10.9061
快女	-10.9062
截	-10.9063
钥匙	-10.9063
专业的	-10.9066
下来了	-10.9068
涛	-10.907
▁哇噻	-10.907
挣钱	-10.9071
娜娜	-10.9074
大牌	-10.9074
一晚	-10.908
男银	-10.9081
越南	-10.9081
抓住	-10.9081
要上班	-10.9083
很高兴	-10.9084
写了	-10.9084
语文	-10.9089
要命	-10.9089
客人	-10.909
翘	-10.909
感人	-10.909
我们学校	-10.9091
这个月	-10.9091
我看到	-10.9093
浑身	-10.9094
痘痘	-10.9095
停车	-10.9095
指点	-10.9097
太美了	-10.9097
▁看上去	-10.9105
前天	-10.9105
很厉害	-10.9108
掌	-10.9114
我太	-10.9115
这么多人	-10.9116
上车	-10.9117
去上海	-10.9119
月初	-10.912
承	-10.912
天天都	-10.912
宏	-10.9121
嗦	-10.9122
碧	-10.9122
痴	-10.9123
奥特曼	-10.9124
充实	-10.9125
工具	-10.9127
我们俩	-10.9133
真的假的	-10.9135
发短信	-10.9137
又去	-10.9138
▁如果是	-10.9138
躺	-10.9144
得嘛	-10.9145
简	-10.9146
威胁	-10.9147
大王	-10.9148
价钱	-10.9149
宾	-10.9151
泼	-10.9152
质疑	-10.9154
残酷	-10.9155
辞职	-10.9155
牢	-10.9156
做广告	-10.9157
给你带	-10.9158
处女	-10.916
花生	-10.9161
▁偶尔	-10.9163
好几个	-10.9164
我都不知道	-10.9169
怎么样了	-10.9169
就差	-10.9171
下一个	-10.9172
罐	-10.9173
年纪大了	-10.9174
纯粹	-10.9175
哪位	-10.9178
风险	-10.9179
小事	-10.9181
我准备	-10.9183
一下子	-10.9186
南昌	-10.9188
怎么办啊	-10.9188
中山	-10.919
要被	-10.9191
算什么	-10.9191
是最好的	-10.9192
肿了	-10.9195
一首	-10.9196
爽啊	-10.9198
▁恩恩恩	-10.9199
果个	-10.9199
一致	-10.92
不久	-10.92
▁操	-10.9201
党员	-10.9211
宣	-10.9211
舞台	-10.9216
化了	-10.9217
平静	-10.9218
对的	-10.9218
最讨厌	-10.922
而且是	-10.9225
还木有	-10.9227
▁猪	-10.9229
就是传说中的	-10.9232
怎么看	-10.9233
步步	-10.9234
▁要不要	-10.9235
吃啥	-10.9236
就是这个	-10.9236
班主任	-10.9241
你再	-10.9241
可以吃	-10.9242
你老婆	-10.9242
可以用	-10.9243
指望	-10.9246
酱紫	-10.9246
▁木	-10.9248
拼命	-10.925
互动	-10.925
实验	-10.9251
交给	-10.9251
是她	-10.9251
震撼	-10.9253
小美女	-10.9256
落后	-10.9257
黄色	-10.9258
本质	-10.9259
▁羡慕嫉妒恨	-10.9259
电子	-10.9259
菊	-10.9262
精辟	-10.9267
先把	-10.9268
思路	-10.9276
麦当劳	-10.9276
▁不知	-10.9276
早饭	-10.9276
黑的	-10.928
保佑	-10.9281
寿司	-10.9281
表哥	-10.9282
神仙	-10.9282
师父	-10.9283
马甲	-10.9283
▁我表示	-10.9285
▁哎哎	-10.9286
打车	-10.9288
换成	-10.9289
企	-10.929
相同	-10.9291
外地	-10.9291
他就	-10.9298
成功了	-10.9299
物质	-10.9299
鉴定	-10.9308
朝鲜	-10.9308
的世界	-10.931
你终于	-10.9311
楚	-10.9311
获得	-10.9313
走起	-10.9318
打个	-10.9319
瞎了	-10.932
搞什么	-10.9321
羊肉	-10.9321
两张	-10.9322
账	-10.9322
给点	-10.9323
奴	-10.9324
愿望	-10.9326
销	-10.9326
祸	-10.9326
做完	-10.9327
悔	-10.9328
总要	-10.9328
还早	-10.933
涵	-10.933
了不少	-10.9332
无数	-10.9332
判	-10.9333
彼此	-10.9338
渣	-10.9338
涨价	-10.9339
候	-10.9341
服务员	-10.9341
完全是	-10.9342
我记得	-10.9346
▁你不觉得	-10.935
应用	-10.935
惬意	-10.9352
作者	-10.9352
▁哈哈那	-10.9358
太过分了	-10.9358
移	-10.9366
卖的	-10.9367
断了	-10.9367
共勉	-10.9369
模仿	-10.9369
出去了	-10.937
常识	-10.9372
这事儿	-10.9373
诚实	-10.9374
下辈子	-10.9375
是男的	-10.9375
胖的	-10.9376
还有一个	-10.9379
颠	-10.9382
什么东西	-10.9383
部长	-10.9383
太少了	-10.9383
▁我记得	-10.9385
文学	-10.9387
真不知道	-10.9388
想吐	-10.9389
小猪	-10.9395
季节	-10.9396
生气了	-10.9397
验	-10.9398
设计师	-10.9398
就那么	-10.9399
统计	-10.94
从小	-10.9402
传播	-10.9405
跨	-10.9408
是好事	-10.9411
依家	-10.9411
自己做	-10.9411
35	-10.9412
▁看来我	-10.9413
在外	-10.9415
赤裸裸的	-10.9419
看不清	-10.9421
你的头像	-10.9423
像我	-10.9424
▁来吧	-10.9424
拿去	-10.9426
夜宵	-10.9436
投入	-10.9438
搬家	-10.9439
议	-10.9441
盗	-10.9445
协	-10.9448
非得	-10.9448
原则	-10.9452
郑州	-10.9454
邮	-10.9455
▁照片	-10.9456
高速	-10.9457
我感觉	-10.9458
买票	-10.946
不睡	-10.9462
开心点	-10.9463
友谊	-10.9463
电梯	-10.9463
预约	-10.9463
他还	-10.9463
男主角	-10.9465
他家	-10.9467
零食	-10.9467
期间	-10.9469
就跟	-10.9471
整容	-10.9473
亲切	-10.9473
席	-10.9473
接下来	-10.9474
明早	-10.9475
相似	-10.9475
▁辛苦了	-10.9476
你也可以	-10.9476
星期	-10.9477
▁说得好	-10.9477
▁对对对	-10.9477
的方式	-10.9478
真好看	-10.9478
当我	-10.9479
鼻	-10.9481
给钱	-10.9481
羡慕嫉妒恨啊	-10.9482
小吃	-10.9484
头痛	-10.9486
▁我感觉	-10.9492
抛	-10.9493
颖	-10.9494
琢磨	-10.9494
肯定要	-10.9494
▁给力	-10.9496
不过是	-10.9496
▁你和	-10.9498
这类	-10.9499
充分	-10.9499
校园	-10.9504
大学生	-10.9507
河南	-10.9512
很强大	-10.9514
肥了	-10.9514
小家伙	-10.9514
好怀念	-10.9518
装的	-10.9521
打牌	-10.9522
粪	-10.9524
当然要	-10.9527
摸摸	-10.9528
很早	-10.9529
呢个	-10.9531
性别	-10.9533
超喜欢	-10.9533
更好的	-10.9535
梦见	-10.9537
不肯	-10.954
忽略	-10.954
敢说	-10.9543
颜	-10.9544
去找你	-10.9547
赞美	-10.9547
还有人	-10.9551
▁但愿	-10.9553
爱国	-10.9554
▁悲催	-10.9554
天秤	-10.9558
签证	-10.9559
动物园	-10.9559
定了	-10.9565
的菜	-10.9565
放过	-10.9567
里面有	-10.9567
黑暗	-10.9569
这个世界	-10.9577
挺不错的	-10.9577
出口	-10.9578
▁哦哟	-10.9581
怎么啦	-10.9583
没见	-10.9583
小宝	-10.9584
▁啧啧	-10.9585
做一个	-10.9586
咒	-10.9588
受到	-10.9588
惩罚	-10.9588
清晰	-10.9589
处女座	-10.9589
太可怕了	-10.9589
香水	-10.9589
31	-10.9589
敌	-10.9592
不高	-10.9594
民众	-10.9597
成日	-10.9598
傻瓜	-10.9598
很忙	-10.96
男友	-10.9603
侠	-10.9604
忧	-10.9605
一小	-10.9605
能找到	-10.9608
和你一样	-10.9611
听见	-10.9616
桌子	-10.9617
乡下	-10.9617
也去	-10.9617
问一下	-10.9618
要我	-10.962
老板娘	-10.9622
坚定	-10.9624
丸	-10.9626
▁你不要	-10.9627
怒了	-10.9632
好厉害	-10.9632
祝您	-10.9633
▁大叔	-10.9633
▁说明你	-10.9634
毕业了	-10.9634
一面	-10.9634
也来	-10.9635
火星	-10.9635
工作人员	-10.9636
根本不	-10.9638
祝贺	-10.9641
我都快	-10.9641
▁别这样	-10.9646
无事	-10.9646
▁他说	-10.9648
神马时候	-10.9648
这孩子	-10.9649
那叫	-10.9652
翠	-10.9652
难听	-10.9655
宠	-10.9655
男人的	-10.9656
好心情	-10.9658
越看越	-10.966
▁慢慢	-10.9661
▁啥意思	-10.9662
是亮点	-10.9668
难度	-10.967
勿	-10.9675
同学们	-10.9676
也就是	-10.9676
能干	-10.9676
眼熟	-10.9677
基本上	-10.9677
▁挖	-10.9678
跟我一样	-10.9679
棉	-10.9679
的话就	-10.9679
归来	-10.9682
息	-10.9682
祥	-10.9683
澳洲	-10.9684
好地方	-10.9684
真棒	-10.9685
的娃	-10.9685
戒指	-10.9686
▁南	-10.9692
济南	-10.9692
▁妹妹	-10.9694
生产	-10.9696
才怪	-10.9696
问候	-10.9698
西湖	-10.9699
理智	-10.97
宇宙	-10.9701
海报	-10.9705
▁啊哈	-10.9706
霉	-10.9707
这条微博	-10.971
很舒服	-10.9711
让别人	-10.9711
不愧是	-10.9713
坛	-10.9715
资本主义	-10.9715
孟	-10.9716
考验	-10.9718
助理	-10.9718
不见了	-10.9723
岸	-10.9724
困了	-10.9726
的生日	-10.973
孩儿	-10.973
▁不敢	-10.9731
她说	-10.9733
买到	-10.9734
关注了	-10.974
普通话	-10.9741
秦	-10.9748
▁咱俩	-10.975
搞不懂	-10.975
睡不着了	-10.9753
热的	-10.9754
干嘛呢	-10.9754
还不睡觉	-10.9755
比较多	-10.9755
个个	-10.9756
你儿子	-10.9757
该死的	-10.976
执	-10.9764
去你家	-10.9767
还好吧	-10.9768
人人都	-10.9768
亡	-10.9769
流浪	-10.9771
试下	-10.9773
不易	-10.9779
邦	-10.978
看清楚	-10.9782
牙齿	-10.9783
勇气	-10.9784
要用	-10.9784
认证	-10.9784
贵的	-10.9785
▁边个	-10.9785
耐心	-10.9785
孩	-10.9786
▁我操	-10.9787
▁我看到	-10.9792
▁悲剧	-10.9793
天生	-10.9793
见证	-10.9796
▁结果	-10.9798
我的最爱	-10.9801
▁愿	-10.9803
▁曾经	-10.9804
加个	-10.9805
招人	-10.9806
在做	-10.981
塘	-10.981
挣扎	-10.9813
舞蹈	-10.9813
的回忆	-10.982
我做	-10.9821
挂了	-10.9825
进了	-10.9826
透露	-10.9827
▁这是我	-10.983
我连	-10.9832
那我就	-10.9836
甘多	-10.9837
可耻	-10.9838
还是不错的	-10.9839
骂了	-10.984
先去	-10.9842
剃	-10.9845
志愿者	-10.9846
真多	-10.9846
论文	-10.9846
下次来	-10.9847
方案	-10.9847
对手	-10.9859
主意	-10.9861
出手	-10.9865
半个月	-10.9866
尘	-10.9868
看吧	-10.9868
越来越多	-10.9876
中了	-10.9876
逆	-10.9877
过你	-10.9878
称呼	-10.9886
看下	-10.9887
马路	-10.9889
见不到	-10.989
在现场	-10.989
▁天哪	-10.9898
原来你	-10.99
帽	-10.99
在成都	-10.9902
带了	-10.9903
你们学校	-10.9904
相信我	-10.9904
默契	-10.9906
抠	-10.9907
总会	-10.9908
是真	-10.9909
▁不知道啊	-10.9909
涅	-10.991
皇帝	-10.9913
境	-10.9916
这只	-10.9916
是伐	-10.9918
班的	-10.9924
▁是呢	-10.9925
的确是	-10.9926
拉肚子	-10.9926
都不行	-10.9928
▁哎呀呀	-10.9932
上周	-10.9934
微博控	-10.9937
最后一个	-10.9938
会说	-10.9939
忽然	-10.9939
仍	-10.9942
真系好	-10.9944
几岁	-10.9946
不好玩	-10.9946
死啦	-10.9949
航班	-10.9953
典型	-10.9958
很不错的	-10.996
高度	-10.996
收到了	-10.9962
刑	-10.9962
自觉	-10.9962
辣的	-10.9962
心碎	-10.9966
不服	-10.997
抬	-10.997
▁哇哇	-10.9971
小编	-10.9974
煲	-10.9975
准备去	-10.9976
可笑	-10.9977
加油加油	-10.9977
中秋节快乐	-10.9978
上下	-10.998
不小	-10.9982
那样的	-10.9983
同志们	-10.9984
人也	-10.9985
撤	-10.9986
以后要	-10.9986
▁我发现	-10.9986
鸡冻	-10.9988
画画	-10.9989
真实的	-10.9991
陪伴	-10.9992
过后	-10.9992
▁杨	-10.9998
不幸	-11
白的	-11.0004
明天就	-11.0004
红的	-11.0005
我都想	-11.0006
离我	-11.0008
屌	-11.0009
战争	-11.0012
头脑	-11.0012
再看	-11.0012
的手机	-11.0014
没准	-11.0017
我妈妈	-11.0019
等会	-11.002
▁事实	-11.002
慰问	-11.002
生活中	-11.0023
淋	-11.0024
合照	-11.0024
不舍得	-11.0027
没素质	-11.0027
的过程	-11.0027
诉	-11.0028
太远了	-11.003
呼呼	-11.0031
小资	-11.0033
在车上	-11.0034
自私	-11.004
▁你怎么知道	-11.0043
都已经	-11.0045
导游	-11.0046
好惨	-11.0047
▁我还以为	-11.0048
通常	-11.0048
系米	-11.005
丫丫	-11.0051
肯定有	-11.0053
权利	-11.0053
不急	-11.0055
你这样	-11.0055
用过	-11.0056
打得	-11.0059
无论	-11.0059
棍	-11.006
极了	-11.0062
适	-11.0072
韵	-11.0073
想做	-11.0074
低调点	-11.0076
可不是	-11.0076
成功的	-11.0076
▁老婆	-11.0077
很多人都	-11.0078
的状态	-11.0079
吃吃	-11.0082
辆	-11.0082
像是	-11.0083
而且还	-11.0083
可不可以	-11.0085
年后	-11.0086
不值得	-11.0088
猜猜	-11.0088
行不行	-11.0089
拨	-11.0089
▁去死	-11.0091
眉	-11.0097
总之	-11.0098
很冷	-11.0098
躺着	-11.01
▁中国的	-11.0101
的要死	-11.0101
结论	-11.0101
给力啊	-11.0102
巷	-11.0102
叫做	-11.0103
哲学	-11.0104
▁学	-11.0104
有没	-11.0107
赐	-11.0107
辰	-11.0108
退休	-11.0111
气愤	-11.0112
期望	-11.0114
表妹	-11.0115
死亡	-11.0118
迎	-11.0125
我妹	-11.0126
▁哈哈是啊	-11.0126
有眼光	-11.0127
妞儿	-11.0127
不高兴	-11.0127
就是为了	-11.0131
在深圳	-11.0133
拒	-11.0136
筋	-11.014
好感动	-11.014
要不我	-11.0141
劫	-11.0141
非诚勿扰	-11.0142
妖孽	-11.0143
▁谁叫你	-11.0143
桂林	-11.0143
我发现	-11.0144
▁突然	-11.0145
光荣	-11.0147
你什么时候	-11.0148
榴莲	-11.0148
南宁	-11.0149
没有什么	-11.0153
▁还真是	-11.0154
女人的	-11.0155
年年	-11.0157
有本事	-11.0157
我也有	-11.016
情感	-11.0163
能把	-11.0163
你这句话	-11.0164
扇	-11.0164
机构	-11.0164
不远	-11.0165
▁想起	-11.0166
▁叫你	-11.0168
耗	-11.0169
地上	-11.0169
给我打电话	-11.0171
凌	-11.0173
膏	-11.0174
宴	-11.0174
范围	-11.0175
洛	-11.0175
胳膊	-11.0176
堕落	-11.0176
东莞	-11.0176
当事人	-11.0176
是大	-11.0176
千万	-11.0177
花心	-11.0179
吃个	-11.0179
的幸福	-11.0182
▁傻	-11.0182
无辜	-11.0187
我好想	-11.0187
回事	-11.0188
色彩	-11.019
愤	-11.0191
▁你竟然	-11.0193
没看懂	-11.0194
摩	-11.0195
我们两个	-11.0196
管用	-11.0201
险	-11.0201
说出	-11.0202
的学生	-11.0203
知足	-11.0204
嘲笑	-11.0204
真快	-11.0205
般	-11.0205
毫无	-11.0206
两条	-11.0207
得起	-11.0208
左手	-11.0209
安徽	-11.021
打针	-11.021
个毛	-11.021
不好说	-11.0211
就是在	-11.0216
开门	-11.0217
▁欢迎欢迎	-11.0219
礼拜	-11.0221
回来吧	-11.0223
内地	-11.0224
有关系	-11.0226
▁不是啊	-11.0226
每周	-11.0226
不能再	-11.0227
的位置	-11.023
真可怜	-11.0231
▁你不会	-11.0232
▁美国	-11.0234
莫名的	-11.0236
他会	-11.0237
感觉很	-11.0237
▁真好	-11.0238
▁这是哪	-11.0238
米国	-11.0241
当当	-11.0242
卫视	-11.0244
临时	-11.0247
贵阳	-11.0249
中学	-11.0251
代言	-11.0258
那个是	-11.026
封杀	-11.0261
不记得	-11.0261
科技	-11.0263
比较喜欢	-11.0265
步步惊心	-11.0269
你做	-11.0272
发财	-11.0272
暗恋	-11.0275
真美	-11.0275
卵	-11.0277
宾馆	-11.0278
不理我	-11.028
只能说	-11.0282
一斤	-11.0282
▁我不想	-11.0282
你那么	-11.0288
说明你	-11.0289
的电话	-11.0291
败家	-11.0292
大海	-11.0293
▁啥子	-11.0294
的美	-11.0294
一起吃饭	-11.0296
整的	-11.0299
很好玩	-11.0299
竟	-11.0299
倾	-11.03
这都	-11.03
▁减肥	-11.0301
看你们	-11.0304
▁简直	-11.0307
冠	-11.0307
▁你什么时候	-11.0309
看过了	-11.0309
未来的	-11.031
地沟油	-11.0311
蔬菜	-11.0311
▁你还真	-11.0312
品尝	-11.0312
突破	-11.0312
都不想	-11.0314
▁你要是	-11.0314
甜品	-11.0315
我生日	-11.0316
太牛了	-11.0316
▁少	-11.0317
私人	-11.0317
我还真	-11.0319
太无聊了	-11.032
▁回答正确	-11.0323
男性	-11.0323
讲座	-11.0323
坚	-11.0324
五一	-11.0325
万达	-11.0326
表面	-11.0326
这名字	-11.0327
当中	-11.0328
每个人	-11.0328
之人	-11.0333
▁我们家	-11.0334
美啊	-11.0334
人不	-11.0335
对不对	-11.0335
栋	-11.0335
一家人	-11.0337
很辛苦	-11.0339
我以前	-11.034
谁呀	-11.0341
听起来	-11.0341
不叫我	-11.0342
在杭州	-11.0343
▁这不	-11.0344
都行	-11.0344
信心	-11.0344
高端	-11.0344
宰	-11.0345
行的	-11.0346
失误	-11.0347
很近	-11.0351
再也	-11.0352
▁我真	-11.0353
的广告	-11.0354
冯	-11.0355
活得	-11.0355
饼干	-11.0356
是那个	-11.0358
一定要去	-11.0358
没找到	-11.0359
更多的	-11.036
美国人	-11.0361
2011	-11.0362
▁哼哼	-11.0362
要学会	-11.0366
▁我以为你	-11.0372
高跟鞋	-11.0373
不分	-11.0377
春节	-11.0379
师妹	-11.0379
寸	-11.0379
咗	-11.0379
乌龟	-11.038
吃素	-11.038
跑到	-11.038
房地产	-11.0381
不能说	-11.0381
气的	-11.0382
冒充	-11.0382
谢谢哈	-11.0382
系我	-11.0383
路人	-11.0385
33	-11.0386
潮流	-11.0387
育	-11.0387
午餐	-11.0388
自己去	-11.039
善良的	-11.039
艺术家	-11.0394
金钱	-11.0396
糊涂	-11.0397
1000	-11.0398
仔细看	-11.0398
不仅	-11.0399
很快就	-11.0399
宗	-11.0399
小女孩	-11.04
混了	-11.04
跑去	-11.0402
▁祝贺	-11.0402
给别人	-11.0404
无聊啊	-11.0406
蛮好看的	-11.0407
45	-11.0409
郁闷了	-11.041
我说的	-11.0411
抛弃	-11.0411
舔	-11.0414
莪	-11.0414
艰难	-11.0414
初恋	-11.0415
肝	-11.0416
谁敢	-11.042
▁回家	-11.042
小鬼	-11.0421
我也在	-11.0422
温馨	-11.0422
朗	-11.0423
同步	-11.0423
▁谁啊	-11.0423
仇	-11.0425
▁当年	-11.0427
一小时	-11.043
合肥	-11.0435
颗	-11.0436
有这	-11.0436
均	-11.0437
手段	-11.0438
从来	-11.0441
真心的	-11.0441
唱得	-11.0443
出事	-11.0444
差不多了	-11.0448
国产	-11.0451
白白	-11.0453
▁我也爱你	-11.0459
一直是	-11.046
屏幕	-11.0462
恒	-11.0463
▁没什么	-11.0464
劳资	-11.0464
▁算	-11.0465
基金	-11.0468
原谅我	-11.0469
黑白	-11.047
考完	-11.0472
外套	-11.0473
▁看到了	-11.0473
杨洋	-11.0474
饮食	-11.0474
第一天	-11.0475
是不会	-11.0476
搞不好	-11.0478
中秋节	-11.0478
现在就	-11.0479
▁不认识	-11.048
雯	-11.0482
喺	-11.0483
氏	-11.0483
沧桑	-11.0483
的一种	-11.0483
我宁愿	-11.0483
在哪里啊	-11.0485
校友	-11.049
妥	-11.0492
生日快乐啊	-11.0499
妻	-11.0502
一般都	-11.0503
干妈	-11.0503
难啊	-11.0506
好难受	-11.0507
开始了	-11.0507
再也不	-11.0512
的评论	-11.0512
渡	-11.0513
恶劣	-11.0516
浴	-11.0517
茂	-11.0518
踹	-11.0518
三国杀	-11.0518
群里	-11.0519
流口水	-11.052
▁我相信	-11.0521
试试看	-11.0522
开通	-11.0525
我马上	-11.0526
▁四	-11.0526
感触	-11.0526
接触	-11.0527
和我说	-11.053
爬山	-11.0531
▁我不知道	-11.0531
狗屁	-11.0531
解救	-11.0533
▁敢	-11.0533
▁早就	-11.0537
景色	-11.0539
看她	-11.0543
须	-11.0543
黑人	-11.0544
喜剧	-11.0545
▁鄙视	-11.0546
要找	-11.0547
接待	-11.0551
现在还在	-11.0552
不知道怎么	-11.0552
▁可爱的	-11.0553
赞助	-11.0554
婆娘	-11.0554
侯	-11.0556
你这种	-11.0556
最新	-11.0557
讲究	-11.0557
我不喜欢	-11.056
世界上	-11.056
▁怎么可能	-11.0561
没带	-11.0562
▁乃	-11.0562
度假	-11.0565
死他	-11.0566
桃子	-11.0566
这帮	-11.0569
▁你已经	-11.0569
妞妞	-11.0571
去香港	-11.0572
大会	-11.0572
哪里有	-11.0574
删除	-11.0576
莫非	-11.058
我们班	-11.0581
格格	-11.0581
今早	-11.0582
坐等	-11.0585
剂	-11.0586
没觉得	-11.0586
物理	-11.0587
最怕	-11.0588
基因	-11.0588
怀旧	-11.0589
▁谁让你	-11.0591
无锡	-11.0592
哲	-11.0592
▁拿	-11.0596
师弟	-11.0596
公安	-11.0596
我天天	-11.0597
必要	-11.0598
已经有	-11.0598
注意点	-11.0599
少爷	-11.06
替你	-11.0602
学校的	-11.0602
▁你能	-11.0602
极端	-11.0603
我还想	-11.0603
已经开始	-11.0604
比他	-11.0604
一根	-11.0607
爱死你了	-11.0607
可以吗	-11.0611
崽	-11.0616
装备	-11.0617
▁是么	-11.0619
小胖	-11.062
楠	-11.0622
恐惧	-11.0622
萍	-11.0622
设置	-11.0623
信用卡	-11.0624
破了	-11.0625
▁4	-11.0626
还以为是	-11.0628
的课	-11.0629
▁说不定	-11.0632
巴黎	-11.0633
的痛苦	-11.0633
朋友们	-11.0634
起来的	-11.064
虫子	-11.064
俺家	-11.0644
是说	-11.0644
在微博	-11.0644
才看到	-11.0648
太棒了	-11.0649
▁这是个	-11.0649
叫上	-11.0654
去哪儿	-11.0656
完毕	-11.0656
向你	-11.0658
活跃	-11.0659
瞧瞧	-11.0659
邻居	-11.066
长相	-11.0663
大片	-11.0667
对付	-11.067
新生	-11.067
▁谢谢您的	-11.0671
都那么	-11.0674
▁周	-11.0674
没机会	-11.0677
▁真系	-11.0678
走到	-11.0679
是女的	-11.0681
十月	-11.0682
▁说的好	-11.0682
轰	-11.0683
队伍	-11.0687
绝不	-11.0688
▁你不知道	-11.0688
▁不可能	-11.0692
幸灾乐祸	-11.0693
晕死	-11.0695
谁来	-11.0696
走走	-11.0696
马桶	-11.0697
包养	-11.0697
悲哀啊	-11.0701
作孽	-11.0701
爱你们	-11.0702
跳楼	-11.0702
赶紧的	-11.0704
柔	-11.0707
地儿	-11.071
重要的是	-11.0711
我表示	-11.0715
晶	-11.0715
打人	-11.0716
有几	-11.0718
很痛	-11.0721
杀手	-11.0721
腹	-11.0723
这么想	-11.0723
父亲	-11.0723
这回	-11.0725
液	-11.0725
忙着	-11.0725
鸣	-11.0728
维护	-11.0729
是故意的	-11.0731
特意	-11.0731
操心	-11.0732
祝愿	-11.0737
吃不到	-11.0738
典型的	-11.0739
光明	-11.0741
教室	-11.0743
僵尸	-11.0744
出的	-11.0746
拦	-11.0748
▁果然是	-11.0749
觉得我	-11.0749
好困	-11.075
也是个	-11.075
浦东	-11.0752
怕什么	-11.0752
很好啊	-11.0753
熟人	-11.0754
我估计	-11.0756
镜子	-11.0757
嘉宾	-11.0758
你生日	-11.0759
丫的	-11.0759
▁还行	-11.0761
▁不会的	-11.0764
招聘	-11.0764
抵制	-11.0765
▁随便	-11.0765
学学	-11.0766
好样的	-11.0766
攒	-11.0768
开玩笑的	-11.0769
养生	-11.077
这么严重	-11.077
▁全	-11.0771
唯	-11.0772
当天	-11.0774
去边	-11.0775
反了	-11.0776
▁我可以	-11.0777
▁竟然	-11.0781
给我吃	-11.0781
被他	-11.0782
筒	-11.0784
▁你确定	-11.0785
同乐	-11.0788
虽	-11.0789
化学	-11.079
海边	-11.079
我承认	-11.079
集合	-11.0793
▁你跟	-11.0796
这方面	-11.0797
过一次	-11.0797
▁好呀	-11.0799
探讨	-11.0801
得太	-11.0806
我心	-11.0811
盗版	-11.0811
歌手	-11.0812
约你	-11.0813
档次	-11.0813
▁我也在	-11.0813
看上	-11.0814
不下	-11.0814
女士	-11.0815
男子	-11.0816
宝贝儿	-11.0819
的理由	-11.0819
味道不错	-11.0821
一晚上	-11.0822
▁还可以	-11.0822
是么	-11.0822
是不是要	-11.0825
问他	-11.0828
的路	-11.0829
具有	-11.083
我就去	-11.0832
谢谢夸奖	-11.0833
▁我猜	-11.0834
的感情	-11.0834
沉默	-11.0835
▁郁闷	-11.0835
糟	-11.0835
:)	-11.0836
的电影	-11.0839
不是我的	-11.0839
自豪	-11.0839
▁是嘛	-11.0839
阅读	-11.084
▁没人	-11.0845
艺人	-11.0848
商场	-11.0851
为主	-11.0851
相反	-11.0852
▁那我们	-11.0853
痛了	-11.0854
庭	-11.0857
你得	-11.0858
上班啊	-11.0858
谱	-11.0859
寿	-11.0862
我爸妈	-11.0863
还有点	-11.0864
会员	-11.0864
怎么回事	-11.0866
品质	-11.0867
和谁	-11.0868
▁时间	-11.087
这段时间	-11.087
如今	-11.0871
专一	-11.0871
垄断	-11.0872
萧	-11.0872
七点	-11.0872
预测	-11.0872
早点休息	-11.0875
套餐	-11.088
底下	-11.0882
千万不要	-11.0882
夸你	-11.0885
先进	-11.0886
▁海	-11.0887
不一样的	-11.0889
费用	-11.0891
▁还在	-11.0895
▁今天是	-11.0897
你很	-11.0897
没有办法	-11.0899
谁是	-11.0899
姐姐我	-11.0901
伐啦	-11.0901
好恶心	-11.0904
辐射	-11.0907
高一	-11.0907
坤	-11.0908
一圈	-11.0908
中华	-11.0909
一切都	-11.0909
大半夜	-11.0909
抱歉	-11.0913
平常	-11.0914
玩得开心	-11.0916
放心吧	-11.092
活了	-11.092
这么高	-11.0921
北大	-11.0922
胖胖	-11.0922
券	-11.0923
基友	-11.0926
崩溃了	-11.093
宝马	-11.0931
他们都	-11.0933
昌	-11.0934
▁别说	-11.0937
这么美	-11.0941
规则	-11.0942
下场	-11.0943
驾驶	-11.0943
莎	-11.0944
旭	-11.0944
纠结的	-11.0944
咋整	-11.0945
钓鱼	-11.0945
霸道	-11.0946
样的	-11.0947
▁你就是	-11.0948
结合	-11.095
▁对头	-11.0951
嘴里	-11.0951
▁听日	-11.0954
▁我和	-11.0954
好梦	-11.0954
已经在	-11.0957
紫色	-11.0958
民工	-11.0958
你跟	-11.0961
抢了	-11.0963
▁我要是	-11.0964
一辆	-11.0967
的城市	-11.0967
就把	-11.0968
▁这孩子	-11.0969
优点	-11.0969
伤不起呀	-11.0974
谁呢	-11.0975
您是	-11.0976
想起了	-11.0977
仨	-11.098
后期	-11.0981
这个东西	-11.0981
汉奸	-11.0981
▁我对	-11.0982
吓死人	-11.0984
的记忆	-11.0985
掏	-11.0986
周三	-11.0986
去旅游	-11.0986
是哪里	-11.0987
估	-11.0987
造孽	-11.099
出来玩	-11.099
太累	-11.099
▁我地	-11.0997
江南	-11.0997
申	-11.0997
不客气	-11.0998
▁绝对的	-11.1
一早	-11.1006
关你	-11.1007
星期一	-11.1007
对话	-11.101
荒	-11.1011
▁恩啊	-11.1012
喝完	-11.1014
腔	-11.1016
就是一	-11.1016
可惜没	-11.1016
a	-11.1017
想买	-11.1017
不安全	-11.1017
损失	-11.1018
枪毙	-11.102
不清	-11.1021
灰机	-11.1022
公子	-11.1023
公民	-11.1023
太恐怖了	-11.1026
这下	-11.1026
给力的	-11.103
心脏	-11.103
有什么关系	-11.1032
多少人	-11.1036
山西	-11.1037
真诚	-11.1038
我知道你	-11.104
下星期	-11.104
到达	-11.1042
▁妈妈	-11.1042
和我们	-11.1043
讲得	-11.1045
真的有	-11.1047
打酱油	-11.1047
鹿	-11.1049
的小孩	-11.1049
没心情	-11.1053
伱	-11.1053
规矩	-11.1053
劲儿	-11.1057
你竟然	-11.1059
生活的	-11.106
▁为什么我	-11.1061
在想	-11.1063
▁何止	-11.1064
丝袜	-11.1064
比她	-11.1065
周二	-11.1066
活在	-11.1067
泡面	-11.1071
▁这是你	-11.1073
太可怜了	-11.1075
很严重	-11.1076
上镜	-11.1076
长江	-11.1077
去试试	-11.1079
的手	-11.108
个啥	-11.1081
缓	-11.1082
▁人家是	-11.1083
喉咙	-11.1084
见人	-11.1084
▁拜托	-11.1088
八点	-11.1089
湘	-11.109
血腥	-11.109
这么好的	-11.1092
坚决不	-11.1094
很小	-11.1095
还是喜欢	-11.1096
很伤心	-11.1099
咳	-11.1101
光棍	-11.1104
你们是	-11.1106
陷	-11.1108
力气	-11.111
有这种	-11.1113
叹	-11.1113
下次我	-11.1114
有一天	-11.1116
特别的	-11.1117
的角度	-11.1124
分子	-11.1124
名单	-11.1127
三次	-11.1129
懂我	-11.1134
▁安	-11.1135
听的	-11.1137
大大的	-11.1137
至于你信不信	-11.114
伸	-11.1142
羞	-11.1144
第一时间	-11.1145
的命	-11.1145
你怎么知道	-11.1146
太差	-11.1151
很有爱	-11.1151
可以有	-11.1151
仲要	-11.1151
眠	-11.1152
▁据	-11.1153
回来的	-11.1153
这么快	-11.1154
澳门	-11.1155
暴雨	-11.1157
听话	-11.1157
发上来	-11.1157
去学校	-11.1158
以为我	-11.1158
美景	-11.1159
补课	-11.1159
减肥了	-11.1161
受不鸟	-11.1162
杯具了	-11.1162
深奥	-11.1163
成立	-11.1163
悬	-11.1163
内疚	-11.1164
聪明的	-11.1165
悲观	-11.1166
扑街	-11.1166
▁深圳	-11.1167
的哇	-11.1167
逃课	-11.1168
洒	-11.117
▁就算	-11.1173
他爹	-11.1174
市区	-11.1174
些什么	-11.1174
浪费了	-11.1175
的区别	-11.1177
欺负人	-11.1177
贪心	-11.118
现在又	-11.1181
一起玩	-11.1182
不变	-11.1183
的天气	-11.1185
乐乐	-11.1185
走过	-11.1187
祝你生日快乐	-11.1189
受伤了	-11.1189
下巴	-11.1189
降温	-11.1193
我一个	-11.1195
妖精	-11.1198
可怜了	-11.12
捣乱	-11.1202
裁判	-11.1203
不去了	-11.1203
年级	-11.1204
娜姐	-11.1207
古代	-11.1208
太小	-11.121
太高	-11.1212
38	-11.1212
这才是	-11.1213
会在	-11.1215
罩	-11.1219
我手机	-11.1221
币	-11.1223
宁愿	-11.1223
设计的	-11.1225
推出	-11.1225
▁太好了	-11.1226
回报	-11.1228
才女	-11.1231
就看	-11.1231
很差	-11.1232
空姐	-11.1232
还是个	-11.1233
七月	-11.1234
过去的	-11.1235
没人要	-11.1235
还是蛮	-11.1237
姆	-11.1238
雕	-11.1238
这儿	-11.1239
动手	-11.1241
什么地方	-11.1242
感觉到	-11.1245
咋这么	-11.1247
早上好	-11.1248
封面	-11.1248
的人伤不起啊	-11.1249
一开始	-11.1253
是用来	-11.1254
说自己	-11.1254
监	-11.1255
告知	-11.1255
表姐	-11.1257
太平	-11.1258
花儿	-11.1259
▁嗯哪	-11.1262
▁我最喜欢	-11.1264
▁你是在	-11.1265
校区	-11.1266
早点睡	-11.1268
坏的	-11.1268
就很	-11.127
这款	-11.1271
谢了	-11.1272
舌头	-11.1272
崩	-11.1275
诚	-11.1275
绣	-11.1276
那么快	-11.1276
的方法	-11.1277
第四	-11.1278
因素	-11.1279
一趟	-11.1279
不好的	-11.1279
▁吴	-11.128
面条	-11.1281
重复	-11.1282
超好	-11.1282
我也想去	-11.1284
的眼光	-11.1285
粮	-11.1285
没来	-11.1287
说我是	-11.1288
吓死了	-11.1293
▁本来就是	-11.1295
我等	-11.1295
▁我才	-11.1296
▁那要	-11.13
你的名字	-11.1301
放弃了	-11.1301
局长	-11.1303
可怜的我	-11.1305
带走	-11.1309
想象力	-11.1309
这样啊	-11.131
告诉他	-11.1311
▁叼	-11.1313
的童鞋	-11.1313
柏	-11.1313
咪咪	-11.1315
袜子	-11.1316
你信不信	-11.1316
微波	-11.1319
豆浆	-11.1319
男士	-11.132
糕	-11.1322
教训	-11.1323
给您	-11.1324
江苏	-11.1327
定位	-11.1328
▁明明	-11.1328
居然还	-11.1334
不打	-11.1335
▁牛	-11.1336
营业	-11.1337
重视	-11.134
专辑	-11.1342
不简单	-11.1342
弃	-11.1343
吃掉	-11.1345
给你打电话	-11.1346
阅	-11.1346
老湿	-11.1346
卓	-11.1346
扛	-11.1348
我更	-11.1351
系咪	-11.1351
鑫	-11.1351
诡异	-11.1351
王八蛋	-11.1352
呼吸	-11.1353
谁的	-11.1355
公益	-11.1357
这段	-11.1357
▁有啊	-11.1358
作家	-11.1359
▁不想	-11.1363
新郎	-11.1363
骗了	-11.1364
一个小	-11.1368
客服	-11.1368
加我	-11.1368
资格	-11.1369
开学了	-11.1369
不允许	-11.1371
▁说得	-11.1371
这件事	-11.1372
买东西	-11.1372
发觉	-11.1373
点点	-11.1373
有活动	-11.1374
在床上	-11.1376
▁重庆	-11.1377
喜欢看	-11.1379
轻易	-11.1383
能有	-11.1385
广西	-11.1385
这货	-11.1388
的礼物	-11.1388
上海的	-11.1388
呢还是	-11.1389
我请你	-11.1389
追尾	-11.1392
▁你把	-11.1393
我这么	-11.1394
祸害	-11.1394
罚款	-11.1396
谢谢谢谢	-11.1397
接到	-11.1399
眼前	-11.14
基情	-11.14
习惯就好	-11.1401
好期待	-11.1401
是不是很	-11.1401
要减肥	-11.1402
这个地方	-11.1404
最好了	-11.1404
首先	-11.1404
▁我们的	-11.1406
问好	-11.1406
有好多	-11.1406
这是在	-11.1407
放了	-11.1411
新人	-11.1414
你说我	-11.1416
的票	-11.1416
▁厉害	-11.1417
责	-11.1418
安心	-11.1424
▁有什么	-11.1425
厌	-11.1426
是有点	-11.1428
▁唉唉	-11.1428
青蛙	-11.1428
骂的	-11.1429
骗人的	-11.1434
联想	-11.1434
▁在家	-11.1434
他人	-11.1436
加油吧	-11.1437
确实不错	-11.1438
精力	-11.1438
一起加油	-11.1439
好辛苦	-11.1439
▁好多	-11.1439
你认识	-11.144
▁回头	-11.1441
不是在	-11.1442
▁6	-11.1442
地产	-11.1444
▁明明是	-11.1447
把我们	-11.1448
留给	-11.1448
个头	-11.1449
你吃	-11.1449
不穿	-11.1453
西西	-11.1456
▁开始	-11.1457
一脚	-11.1459
不喝酒	-11.1462
只是个	-11.1463
感伤	-11.1463
过度	-11.1464
勾搭	-11.1466
优雅	-11.1466
拥抱	-11.1467
果果	-11.1467
灵感	-11.1468
对我来说	-11.1469
的发型	-11.1472
谭	-11.1473
甚至	-11.1473
▁假的	-11.1474
戒酒	-11.1477
大一	-11.1478
也不好	-11.1479
还是挺	-11.1481
四年	-11.1482
那里的	-11.1484
西方	-11.1487
拉萨	-11.1487
砖	-11.1489
他爸	-11.1489
帮他	-11.1499
好玩的	-11.1499
哥们儿	-11.15
剩下的	-11.1501
吉祥	-11.1503
展示	-11.1504
程序	-11.1505
你家的	-11.1506
痛啊	-11.1508
有一种	-11.151
我们这边	-11.1512
今天还	-11.1513
庆幸	-11.1514
五点	-11.1514
▁大爱	-11.1518
实惠	-11.1518
那句	-11.1521
前辈	-11.1523
夺	-11.1524
是自己	-11.1527
找他	-11.1527
做法	-11.1527
悲情	-11.1527
别扭	-11.1527
买不到	-11.153
▁这几天	-11.153
很悲催	-11.1533
太久	-11.1533
▁希望你	-11.1534
▁我看你	-11.1536
回味	-11.1537
会很	-11.1537
棋	-11.1542
太有才了	-11.1542
悲摧	-11.1542
闺蜜	-11.1542
▁她们	-11.1543
他也	-11.1543
延	-11.1545
拖鞋	-11.1546
还是比较	-11.1546
▁知道了	-11.1547
打扰	-11.1547
踢球	-11.1547
研究生	-11.1548
无情	-11.1548
的心态	-11.1551
夜晚	-11.1551
保留	-11.1551
好烦	-11.1554
▁就是嘛	-11.1555
知己	-11.1555
要问	-11.1558
感染	-11.1559
什	-11.1559
▁我们都是	-11.1562
▁这事	-11.1563
她了	-11.1564
相爱	-11.1566
味儿	-11.1569
生孩子	-11.1571
的说法	-11.1573
刊	-11.1573
一般人	-11.1576
灵魂	-11.1577
600	-11.1579
钱啊	-11.1579
憨	-11.158
莉	-11.158
不会吧	-11.1581
绯闻	-11.1581
你回来	-11.1581
邮箱	-11.1581
护士	-11.1582
危机	-11.1582
▁么么	-11.1583
散步	-11.1583
深度	-11.1584
小屁孩	-11.1584
是必须的	-11.1584
我陪你	-11.1585
爆料	-11.1585
我家的	-11.1586
前进	-11.1587
交易	-11.1587
还是不要	-11.159
瘾	-11.1592
亲人	-11.1592
舟	-11.1592
福建	-11.1592
没敢	-11.1593
快回来	-11.1595
那会	-11.1596
上升	-11.1597
之处	-11.1598
能做	-11.1598
经历过	-11.1599
很想念	-11.16
铁路	-11.1604
被打	-11.1604
卖相	-11.1605
身体健康	-11.1608
那年	-11.1609
方便面	-11.161
▁国庆	-11.1611
篮	-11.1612
含蓄	-11.1613
▁小朋友	-11.1615
跟你一样	-11.1615
打到	-11.1615
策	-11.1615
人民的	-11.1619
一直都是	-11.1619
芬	-11.162
慈善	-11.162
可以不	-11.1622
在办公室	-11.1622
传染	-11.1622
别这样	-11.1622
▁那些	-11.1626
魔鬼	-11.1626
很惨	-11.1629
怪我	-11.1629
产业	-11.1629
彩虹	-11.163
▁我被	-11.163
▁咋啦	-11.1631
全面	-11.1631
▁看完	-11.1631
▁你妹啊	-11.1631
就直接	-11.1635
乱说	-11.1635
一眼	-11.1635
正常的	-11.1637
批准	-11.1644
到哪	-11.1646
忍住	-11.1646
比起	-11.165
▁妈呀	-11.1652
泪奔了	-11.1653
下课	-11.1653
何况	-11.1654
▁可怜啊	-11.1654
尺	-11.1657
犹豫	-11.1658
粑粑	-11.1658
管你	-11.1659
难受啊	-11.1661
▁我都想	-11.1663
国企	-11.1664
掌握	-11.1667
法院	-11.1667
的效果	-11.1669
岁的	-11.167
下班了	-11.1671
毛线	-11.1674
正太	-11.1677
尽管	-11.1681
更是	-11.1681
▁要么	-11.1682
为我	-11.1683
▁为什么不	-11.1683
没感觉	-11.1684
烈	-11.1684
爪	-11.1686
▁万一	-11.1687
排名	-11.1689
听你	-11.1689
到哪里	-11.169
▁哥们	-11.1691
强大的	-11.1693
背影	-11.1693
迁	-11.1694
搜索	-11.1697
在国内	-11.1697
无处不在	-11.1698
天气预报	-11.1698
违法	-11.1699
十点	-11.17
也祝你	-11.1703
证实	-11.1703
我叫	-11.1705
这份	-11.1706
喜欢她	-11.1706
一个字	-11.1706
会觉得	-11.1707
小帅哥	-11.1709
我们一起去	-11.1711
页	-11.1711
右手	-11.1716
也没用	-11.1717
羡慕啊	-11.172
求包养	-11.1721
郁闷的	-11.1722
55	-11.1722
搅	-11.1723
岭	-11.1725
哎哟	-11.1726
▁为嘛	-11.1726
典	-11.1727
在公司	-11.1727
和你一起	-11.1727
好处	-11.1728
行政	-11.1729
爱自己	-11.173
▁哈哈哈你	-11.173
美了	-11.173
一台	-11.173
了好久	-11.1731
新版	-11.1733
拍戏	-11.1733
欧美	-11.1734
捂	-11.1735
励志	-11.1737
很可怜	-11.1737
抽奖	-11.1742
出卖	-11.1742
漫画	-11.1743
这招	-11.1744
这种事情	-11.1744
我身边	-11.175
▁我希望	-11.1752
不了了	-11.1756
我同学	-11.1756
也是这样	-11.1757
我刚刚	-11.1757
伙	-11.1758
就吃	-11.176
遇上	-11.176
相片	-11.1762
不完	-11.1764
他们是	-11.1765
怎么办呢	-11.1765
抓到	-11.1767
好眼力	-11.1768
看起	-11.1769
二楼	-11.1769
大多	-11.1771
欲望	-11.1772
斑	-11.1773
在此	-11.1773
霜	-11.1774
什么时候能	-11.1774
真的吗	-11.1775
加强	-11.1775
的态度	-11.1776
杠	-11.1776
▁以	-11.1776
亭	-11.1776
变形金刚	-11.1776
豹纹	-11.1776
▁12	-11.1777
▁哈哈是的	-11.1777
▁阿姨	-11.1777
经营	-11.1778
▁已	-11.1778
宿	-11.1778
粽子	-11.1778
爱特	-11.1778
蹦	-11.1778
眉毛	-11.1779
警察叔叔	-11.1781
好无聊	-11.1782
他自己	-11.1782
▁好好好	-11.1784
美美的	-11.1784
我就敢	-11.1786
稀罕	-11.1787
路边	-11.1787
很简单	-11.1788
干爹	-11.1788
被抓	-11.1791
▁对哦	-11.1793
这也	-11.1796
首歌	-11.1797
是个好	-11.1798
集中	-11.1799
半个	-11.1799
难道我	-11.18
福气	-11.1807
足够	-11.1807
太可惜了	-11.1808
看球	-11.1809
和平	-11.1812
现在开始	-11.1813
▁你懂	-11.1813
辞	-11.1814
个么	-11.1814
屈	-11.1815
省钱	-11.1815
帆	-11.1816
描述	-11.1816
鹅	-11.1817
倩	-11.1818
你不觉得	-11.1818
▁我也很	-11.1819
之外	-11.1819
回我	-11.1819
好些	-11.1819
天空	-11.1821
国足	-11.1822
冒得	-11.1824
良知	-11.1824
综合	-11.1826
扭曲	-11.1826
的冲动	-11.1827
我系	-11.1827
是多么	-11.183
弄死	-11.1831
知道啦	-11.1831
请关注	-11.1833
清华	-11.1833
始终	-11.1833
地位	-11.1834
家族	-11.1834
这个样子	-11.1835
脱离	-11.1836
没良心的	-11.1836
雷人	-11.1837
放大	-11.1837
在那边	-11.1838
▁距	-11.1839
别再	-11.1845
祝你们	-11.1846
缺点	-11.1846
心动	-11.1849
南瓜	-11.1851
太厉害了	-11.1851
的形象	-11.1854
来回	-11.1854
好几	-11.1857
樱桃	-11.1857
姐妹们	-11.1859
▁只能说	-11.186
贱贱	-11.186
为自己	-11.1862
把我的	-11.1862
艾特	-11.1862
波波	-11.1863
会去	-11.1865
▁那是因为	-11.1865
进去了	-11.1868
一看就	-11.187
手工	-11.1871
米饭	-11.1871
下次再	-11.1872
也这样	-11.1872
九月	-11.1872
晚会	-11.1874
官网	-11.1874
被骗	-11.1875
感受到	-11.1875
你真是	-11.1875
有味道	-11.1877
隔离	-11.1877
▁看样子	-11.1878
报到	-11.188
言论	-11.188
我也会	-11.1881
就只有	-11.1881
好好看	-11.1881
不贵	-11.1883
尽力	-11.1884
再加	-11.1884
快乐的	-11.1884
▁11	-11.1885
土地	-11.1885
病人	-11.1887
揭	-11.189
帐	-11.189
回上海	-11.1891
姐们	-11.1891
出行	-11.1892
你帮我	-11.1893
也不要	-11.1895
的权利	-11.1896
普遍	-11.1896
说到	-11.1897
电台	-11.1897
巴萨	-11.1898
题目	-11.1898
怎么可以	-11.19
▁我也想吃	-11.19
永远都	-11.1901
市民	-11.1901
龄	-11.1902
团结	-11.1902
和你说	-11.1903
生快	-11.1905
纯情	-11.1905
有型	-11.1906
倒了	-11.1907
发给我	-11.1908
▁有空	-11.1908
怎么做	-11.1908
大气	-11.1908
▁恩呢	-11.1909
级别	-11.1911
什么时候回来	-11.1912
上有	-11.1914
奶奶的	-11.1914
的片子	-11.1914
不淡定	-11.1915
住在	-11.1915
首都	-11.1918
唯一的	-11.192
教主	-11.1922
搞错	-11.1927
泡妞	-11.1929
幼	-11.1929
出家	-11.1931
滋	-11.1932
姐你	-11.1934
炫	-11.1935
闯	-11.1935
天涯	-11.1936
禁止	-11.1939
▁我也想去	-11.1939
这是个	-11.194
点击	-11.1941
早啊	-11.1942
体检	-11.1942
真是太	-11.1943
四十	-11.1945
自助	-11.1947
小熊	-11.1951
就是不一样	-11.1953
握手	-11.1954
▁每	-11.1954
有意见	-11.1955
凑合	-11.1956
毛啊	-11.1958
泄	-11.1962
放假了	-11.1964
超爱	-11.1965
▁日本	-11.1966
向来	-11.1966
又来	-11.1967
姿	-11.1969
买房	-11.197
不知道为什么	-11.197
这两个	-11.197
恩恩	-11.197
都不错	-11.1971
搞起	-11.1972
谢谢支持	-11.1972
晚睡	-11.1972
玩意儿	-11.1972
▁最好	-11.1972
聊聊	-11.1974
错别字	-11.1975
没收到	-11.1975
▁我知道你	-11.1976
伙食	-11.1978
我还以为是	-11.1978
▁谢啦	-11.1981
有希望	-11.1982
总统	-11.1983
在旁边	-11.1983
▁你给我	-11.1985
打雷	-11.1986
孝	-11.1987
谁能	-11.1987
不是要	-11.1988
太恶心了	-11.1993
▁感动	-11.1993
你的微博	-11.1993
上厕所	-11.1994
第二天	-11.1994
鄙视我	-11.1995
你说呢	-11.1996
迟到了	-11.1996
你又不	-11.1997
问她	-11.1999
享	-11.1999
觉得很	-11.2
院长	-11.2
▁谢谢亲爱的	-11.2
▁到时	-11.2001
蛋定	-11.2001
迟早	-11.2002
我认识	-11.2003
▁那你还	-11.2004
的意思是	-11.2005
帅啊	-11.2006
欢迎您	-11.2008
▁怎么不	-11.201
一个朋友	-11.2012
决赛	-11.2013
薇	-11.2014
▁我也爱	-11.2015
我不要	-11.2017
有过	-11.2017
严格	-11.2017
送到	-11.2018
财富	-11.2018
联系方式	-11.2019
▁去哪	-11.202
下流	-11.2022
内裤	-11.2022
▁所以你	-11.2022
设备	-11.2024
毛主席	-11.2027
才可以	-11.2028
出租车	-11.2028
风骚	-11.2029
热水	-11.2034
开心了	-11.2035
大大	-11.2035
▁完了	-11.2036
食饭	-11.2036
得出	-11.2038
甜的	-11.2039
▁这个问题	-11.2041
秘	-11.2041
合法	-11.2042
绑	-11.2042
77	-11.2042
寒假	-11.2045
口气	-11.2046
刚看到	-11.2048
的人儿	-11.2048
到上海	-11.2054
你们那	-11.2054
食欲	-11.2056
更年期	-11.2056
好冷	-11.2057
我跟你	-11.2059
▁本	-11.2064
比例	-11.2067
事物	-11.2067
强调	-11.207
发出来	-11.2071
叫人	-11.2072
▁难道我	-11.2072
翻了	-11.2073
一款	-11.2075
不管你信不信	-11.2076
▁神马情况	-11.2077
早睡	-11.2078
会做	-11.2079
▁十一	-11.2081
偷懒	-11.2083
我们可以	-11.2083
俾你	-11.2085
固	-11.2086
太高了	-11.2086
▁味道	-11.2086
▁你问	-11.2086
教师	-11.2091
玩游戏	-11.2092
不掉	-11.2092
好远	-11.2092
真可怕	-11.2095
不像你	-11.2096
丧	-11.2096
共产党	-11.2096
▁偶也	-11.2096
▁实在	-11.2099
注意休息	-11.2099
上海人	-11.2099
觉的	-11.2099
你妹的	-11.2099
迷恋	-11.21
迎接	-11.2101
▁呸呸呸	-11.2102
的颜色	-11.2102
看到这个	-11.2105
大战	-11.2105
起飞	-11.2106
能做到	-11.2109
不存在	-11.2111
逛逛	-11.2111
举手	-11.2111
儿了	-11.2113
是对的	-11.2114
不过现在	-11.2115
大清早	-11.2116
▁咳咳	-11.2121
成果	-11.2121
才开始	-11.2122
湖北	-11.2122
▁前面	-11.2126
这么个	-11.2126
一直没	-11.2127
▁这是哪里	-11.2128
司法	-11.2134
暗示	-11.2138
别墅	-11.2139
水瓶座	-11.2139
▁我明天	-11.2141
好贵	-11.2141
事啊	-11.2142
我觉得你	-11.2143
关门	-11.2145
深入	-11.2146
给你做	-11.215
发给你	-11.2151
叶子	-11.2151
江西	-11.2152
▁按	-11.2152
还是那么	-11.2154
今天又	-11.2154
头晕	-11.2158
民间	-11.2162
度过	-11.2162
来点	-11.2163
我这里	-11.2164
▁我说的是	-11.2167
后者	-11.2167
哈皮	-11.217
喜欢这个	-11.217
处于	-11.2172
逝	-11.2172
认可	-11.2173
媚	-11.2177
卡卡	-11.2177
小妹妹	-11.2178
玩过	-11.2178
▁我准备	-11.2178
矜持	-11.2179
肯德基	-11.2179
臣	-11.2179
潜规则	-11.2179
吃不消	-11.2179
回来就	-11.218
茄子	-11.2181
特产	-11.2181
美容	-11.2184
▁臭	-11.2185
呀呀呀	-11.2188
在等	-11.2189
很远	-11.2189
比我们	-11.2191
笑死我	-11.2191
▁那当然	-11.2196
提议	-11.2196
▁本人	-11.2198
▁我也有	-11.2198
空了	-11.2201
过于	-11.2205
做作	-11.2206
▁我还以为你	-11.2208
他要	-11.2209
算啦	-11.221
叫啥	-11.2211
慢慢来	-11.2213
冰箱	-11.2214
▁原来如此	-11.2215
赤	-11.2217
豹	-11.2219
▁还要	-11.222
朕	-11.222
新闻联播	-11.222
"	-11.222
访	-11.222
隐私	-11.222
▁对对	-11.2221
海洋	-11.2222
太好	-11.2224
你们就	-11.2225
好滴	-11.2226
嫁了	-11.2226
话费	-11.2227
秘书	-11.2227
公车	-11.2228
我真是	-11.2232
嗯嗯	-11.2232
一般般	-11.2232
的季节	-11.2235
几日	-11.2238
我喜欢的	-11.224
免费的	-11.224
今天的	-11.2243
▁这人	-11.2244
谁说	-11.2246
▁八	-11.2247
羡慕嫉妒	-11.2247
买来	-11.2249
艹	-11.225
▁南京	-11.225
津	-11.2251
老哥	-11.2252
▁是说	-11.2255
▁每个	-11.2256
要等	-11.2257
同我	-11.2257
出息	-11.2257
▁寂寞	-11.2258
大多数	-11.2259
我每天	-11.226
斜	-11.226
西班牙	-11.2261
当成	-11.2261
一万	-11.2262
烦人	-11.2262
▁确定	-11.2263
失恋了	-11.2264
你都不	-11.2264
模糊	-11.2265
我有点	-11.2266
受不了了	-11.227
没听过	-11.227
起这么早	-11.2275
并不是	-11.2276
不回来	-11.2279
教官	-11.228
一大早	-11.2282
先得	-11.2282
去那里	-11.2282
以后会	-11.2283
的精神	-11.2284
陌生人	-11.2284
担	-11.2284
没怎么	-11.2287
太强了	-11.2287
▁右边	-11.2289
好久没有	-11.2292
最后一	-11.2294
某某	-11.2294
一起看	-11.2295
乱讲	-11.2295
▁我们也	-11.2297
▁辛苦	-11.2297
脆	-11.2298
太悲催了	-11.2299
虹	-11.2299
泡泡	-11.2302
菠萝	-11.2302
▁中国人	-11.2303
怎么还	-11.2304
发工资	-11.2305
无得	-11.2306
超级无敌	-11.2309
火车站	-11.231
有魅力	-11.231
120	-11.231
▁左边	-11.2311
天地	-11.2312
舅	-11.2312
别那么	-11.2312
▁就是说	-11.2312
▁继续	-11.2314
习	-11.2315
吐血	-11.2317
不难	-11.2318
的思想	-11.232
春哥	-11.2323
真的要	-11.2323
我直接	-11.2325
明天开始	-11.2325
要努力	-11.2326
逼的	-11.2327
放到	-11.2327
▁相信	-11.2328
手艺	-11.2328
▁那我就	-11.2328
真恶心	-11.2329
大结局	-11.233
胃痛	-11.2331
110	-11.2331
聪	-11.2332
段子	-11.2333
味的	-11.2334
才不会	-11.2335
▁师傅	-11.2335
理你	-11.2336
不愿	-11.2338
边度	-11.234
我看你	-11.2341
驻	-11.2343
塌	-11.2344
饶	-11.2344
迅速	-11.2344
技巧	-11.2345
改革	-11.2346
长假	-11.2348
多喝水	-11.2348
心头	-11.2348
的情况	-11.2351
照样	-11.2352
少吃点	-11.2352
恶心的	-11.2353
这部	-11.2355
明确	-11.2358
▁那时候	-11.2362
不承认	-11.2362
了多少	-11.2363
一共	-11.2364
不同意	-11.2365
几句	-11.2367
冷的	-11.2367
所以说	-11.2368
十分钟	-11.2369
不安	-11.2374
搞死	-11.2376
振	-11.2378
爆炸	-11.2378
前后	-11.2381
学到	-11.2383
桂	-11.2384
一盘	-11.2384
保障	-11.2385
鞭	-11.2385
魏	-11.2386
屋里	-11.2386
唷	-11.2386
网址	-11.2387
客户端	-11.2387
丸子	-11.2387
妃	-11.2388
郭美美	-11.239
带回来	-11.2393
确	-11.2394
▁是呀是呀	-11.2394
行情	-11.2395
都未	-11.2396
大夫	-11.2396
真是个	-11.2396
▁那是必须的	-11.2398
烤肉	-11.2399
我就喜欢	-11.24
你们也	-11.2402
▁白	-11.2403
招待	-11.2404
我们这里	-11.2404
▁或许	-11.2406
蓝精灵	-11.2407
纯爷们	-11.2408
上线	-11.2408
你爸	-11.241
透了	-11.2411
独自	-11.2411
虽然我	-11.2412
解决了	-11.2413
这家伙	-11.2414
开着	-11.2422
泳	-11.2422
丰盛	-11.2423
毕	-11.2424
不累	-11.2426
豁	-11.2427
你也来	-11.2428
逍遥	-11.2428
挠	-11.2428
西红柿	-11.2428
惊讶	-11.2428
▁啊哈哈哈	-11.2429
媳妇儿	-11.243
▁莫非	-11.2434
不在乎	-11.2434
大力	-11.2436
凑热闹	-11.2439
你把	-11.244
多好啊	-11.2441
好好珍惜	-11.2442
回不去	-11.2443
出版	-11.2444
▁艹	-11.2445
工作了	-11.2446
相当的	-11.2448
压力大	-11.2448
好幸福	-11.245
脸红	-11.2452
娘娘	-11.2454
纪	-11.2454
气了	-11.2455
做出	-11.2456
的观点	-11.2457
期待你	-11.2461
原谅你	-11.2461
别急	-11.2463
不宜	-11.2469
黄牛	-11.247
发布会	-11.247
龌龊	-11.247
挑衅	-11.247
瑜伽	-11.247
勤奋	-11.247
盆友	-11.2471
遗传	-11.2472
▁亲爱的你	-11.2472
变身	-11.2475
▁灰常	-11.2475
都不要	-11.2475
性质	-11.2483
吾系	-11.2485
▁你很	-11.2486
很大的	-11.2487
鸡翅	-11.2488
我当时	-11.2491
谢谢关心	-11.2491
八爷	-11.2492
害的	-11.2492
已婚	-11.2494
的评价	-11.2495
今天去	-11.2495
膜	-11.2495
号称	-11.2496
太伤心了	-11.2498
洗头	-11.25
宅男	-11.2502
支持一下	-11.2506
▁坑爹啊	-11.2507
煎熬	-11.2513
赔偿	-11.2513
壮观	-11.2514
双子座	-11.2516
十足	-11.2516
与你	-11.2516
揪心	-11.2518
周年	-11.2521
人数	-11.2521
还差不多	-11.2522
酒精	-11.2524
灯光	-11.2524
之中	-11.2524
肚子里	-11.2525
拍到	-11.2525
圣诞	-11.2529
早说	-11.253
▁夏天	-11.253
难忘	-11.2531
过期	-11.2531
看到过	-11.2531
这么帅	-11.2533
主流	-11.2535
也叫	-11.2539
不要这么	-11.2542
看这个	-11.2542
你要是	-11.2546
我比较	-11.2547
必须得	-11.2548
09	-11.255
小小的	-11.2552
起得	-11.2554
孕	-11.2554
姥姥	-11.2555
撩	-11.2555
同道中人	-11.2555
鼓浪屿	-11.2555
吃着	-11.2555
悠闲	-11.2556
保密	-11.2557
```	-11.2557
强烈要求	-11.2558
美男	-11.256
0.0	-11.256
还是别	-11.2561
▁泪奔	-11.2561
期待着	-11.2564
都成	-11.2565
自家	-11.2566
▁可以的	-11.2567
辣妈	-11.2567
普及	-11.2568
你不在	-11.2569
拿了	-11.257
猎	-11.2572
看哈	-11.2574
孩子的	-11.2575
有经验	-11.2576
实用	-11.2579
公共	-11.2579
▁东	-11.2581
售	-11.2585
好想去	-11.2585
搞错了	-11.2588
就是那个	-11.2589
造成	-11.2589
对我们	-11.2594
改名	-11.2594
没良心	-11.2596
但系	-11.2597
不代表	-11.2597
蜂蜜	-11.2598
激烈	-11.2598
▁好滴	-11.2599
恼火	-11.2599
都爱	-11.2599
蛋蛋	-11.2601
山上	-11.2602
贵州	-11.2602
价值观	-11.2603
岳	-11.2606
都不懂	-11.2608
是可以	-11.2609
每一个	-11.2609
现在也	-11.261
太假了	-11.261
对啊	-11.2613
胡说	-11.2614
就是这样的	-11.2614
自己做的	-11.2615
到啦	-11.2615
夜班	-11.2615
不是一个	-11.2616
村长	-11.2618
但还是	-11.2618
谢谢亲爱的	-11.2618
▁关	-11.2618
死人了	-11.2619
▁来来来	-11.2619
去参加	-11.2619
我最爱	-11.2622
核心	-11.2622
不熟	-11.2623
几条	-11.2624
不走	-11.2628
邮件	-11.2629
▁我来	-11.2631
好伤心	-11.2631
不买	-11.2631
一首歌	-11.2632
狮	-11.2634
你可	-11.2634
好纠结	-11.2635
中毒	-11.2635
也不行	-11.2637
一点儿	-11.2637
意思是	-11.2641
还是没	-11.2641
关了	-11.2641
忙碌	-11.2643
一名	-11.2644
命苦	-11.2644
看来是	-11.2645
▁哪儿	-11.2646
生活在	-11.2651
08	-11.2652
各个	-11.2655
向你学习	-11.2657
绿茶	-11.2657
400	-11.2658
从小就	-11.2659
▁没有啦	-11.266
猜对了	-11.2662
今后	-11.2662
后果	-11.2662
清淡	-11.2663
▁那必须的	-11.2663
幅	-11.2663
▁想想	-11.2664
大脑	-11.2665
干嘛啊	-11.2667
▁我日	-11.2667
下个	-11.267
培	-11.2672
二哥	-11.2674
不停	-11.2677
都吃	-11.2682
抑郁	-11.2684
保姆	-11.2685
给我买	-11.2685
为嘛	-11.2686
应该不会	-11.2686
买点	-11.2688
▁这两天	-11.269
平等	-11.2693
十二点	-11.2694
感谢您	-11.2694
还是有点	-11.2695
学术	-11.2698
别老	-11.2699
在宿舍	-11.2701
伦家	-11.2703
不要这样	-11.2706
没事的	-11.2707
养眼	-11.2711
这也是	-11.2712
找一个	-11.2713
能喝	-11.2713
的儿子	-11.2715
拆了	-11.2716
稍	-11.2718
到处都是	-11.2718
途	-11.2719
打过	-11.2719
▁家里	-11.2726
蝴蝶	-11.2726
通知你	-11.2726
挫	-11.2727
庙	-11.2727
凹	-11.2727
酥	-11.2727
2000	-11.273
真像	-11.273
精英	-11.273
▁哎哟喂	-11.2733
同一个	-11.2733
色的	-11.2733
账号	-11.2733
这么大的	-11.2735
作秀	-11.2736
你妈妈	-11.2736
回老家	-11.2736
都不用	-11.2738
是男人	-11.2738
时差	-11.2738
拉风	-11.2739
百年	-11.274
早日康复	-11.274
正宗的	-11.2745
是我们的	-11.2745
管我	-11.2746
告诉我们	-11.2747
▁后来	-11.2747
无助	-11.2748
▁嘘	-11.2748
也很好	-11.2749
所以要	-11.2749
可不	-11.275
龙虾	-11.2752
▁眼睛	-11.2753
好有	-11.2754
一期	-11.2756
证明你	-11.2756
放学	-11.2757
春晚	-11.2757
如果你	-11.276
还这么	-11.2764
边有	-11.2766
就是觉得	-11.2766
我更喜欢	-11.2766
▁你再	-11.2767
肺	-11.277
咳嗽	-11.2771
织围脖	-11.2773
跟他们	-11.2774
▁加油啊	-11.2777
万恶的	-11.2777
态	-11.2786
▁敢不敢	-11.2788
哀	-11.2788
勤快	-11.2789
有前途	-11.279
阔	-11.279
儿啊	-11.279
佛山	-11.2793
此时	-11.2793
部队	-11.2794
就是好	-11.2796
很淡定	-11.2799
没兴趣	-11.2799
去看了	-11.2801
我不敢	-11.2802
童鞋们	-11.2806
传说中	-11.2808
回到家	-11.2808
从前	-11.2809
在哪呢	-11.2809
保存	-11.281
我自己都	-11.2812
道路	-11.2812
哥你	-11.2812
温泉	-11.2813
佩服你	-11.2814
俄罗斯	-11.2814
瞄	-11.2814
叠	-11.2814
问过	-11.2815
卧底	-11.2815
大把	-11.2817
扣扣	-11.2818
只是觉得	-11.2818
▁最爱	-11.2818
不是有	-11.282
休闲	-11.2821
完美的	-11.2821
败类	-11.2821
▁本来就	-11.2821
他在	-11.2822
将军	-11.2824
旅	-11.2825
人呢	-11.2825
一手	-11.2826
要到	-11.2826
▁如果我	-11.2827
▁你地	-11.2828
相比	-11.2828
青菜	-11.2832
你给	-11.2833
整体	-11.2836
不长	-11.2836
▁是真的	-11.2836
距地	-11.2838
▁我勒个去	-11.2838
柜	-11.2839
到死	-11.2839
原本	-11.284
小鱼	-11.284
是女人	-11.2843
我是说	-11.2845
▁几点	-11.2848
平均	-11.2848
这里的	-11.285
▁就怕	-11.285
这是什么	-11.2851
死胖子	-11.2851
小强	-11.2855
患	-11.2856
鸽子	-11.2856
夜里	-11.2857
硕	-11.2858
蓉	-11.2858
好搞笑	-11.2858
钢琴	-11.2858
最帅	-11.2859
巨蟹座	-11.2861
这时候	-11.2863
我这边	-11.2865
纹身	-11.2865
▁我呸	-11.287
爱死	-11.2873
功力	-11.2878
办公	-11.2879
不给我	-11.288
恶搞	-11.2881
真聪明	-11.2887
沉重	-11.2887
你还记得	-11.2889
学妹	-11.2894
的爱情	-11.2895
我都要	-11.2897
是好人	-11.2898
的国家	-11.2901
几十	-11.2901
借我	-11.2901
好棒	-11.2901
什么时候去	-11.2902
演技	-11.2902
妹的	-11.2902
传授	-11.2903
优势	-11.2903
就变	-11.2904
抢到	-11.2904
难受死了	-11.2905
▁不准	-11.2905
▁甘你	-11.2907
妖怪	-11.291
老师的	-11.2912
▁啊呀	-11.2912
懂事	-11.2913
▁好可怜	-11.2913
不通	-11.2914
发私信	-11.2917
选手	-11.2917
是对	-11.2918
蒜	-11.2921
还好啦	-11.2922
▁谢谢你的	-11.2926
另外一个	-11.2929
娃哈哈	-11.2929
给我看	-11.293
熟悉的	-11.293
▁卧槽	-11.2935
哪样	-11.2936
更有	-11.2938
翻去	-11.2938
上台	-11.2939
对得起	-11.294
著名	-11.2942
起床了	-11.2942
编剧	-11.2943
笨笨	-11.2943
觉着	-11.2945
辛苦啦	-11.2946
柠檬	-11.2947
苑	-11.2947
加拿大	-11.2947
祖宗	-11.2947
伴郎	-11.2947
一大堆	-11.2947
想我了	-11.2948
光临	-11.2949
照顾好自己	-11.2953
征婚	-11.2957
岁了	-11.296
皇后	-11.296
没事儿	-11.296
规	-11.2962
清爽	-11.2964
▁请问你	-11.2969
出个	-11.297
养了	-11.297
碰上	-11.2973
给它	-11.2973
几好	-11.2973
触	-11.2974
天上	-11.2975
人渣	-11.2976
多次	-11.2976
怎么过	-11.2977
慢点	-11.2979
▁什么是	-11.2979
▁好的好的	-11.298
只要你	-11.2981
在美国	-11.2981
吃亏	-11.2981
球队	-11.2982
想得	-11.2985
▁师兄	-11.2986
▁看见	-11.2987
有内涵	-11.2991
相处	-11.2992
特地	-11.2994
仙女	-11.2995
拆迁	-11.2995
▁有些人	-11.2999
老爷	-11.3002
▁差不多	-11.3003
好乖	-11.3003
协会	-11.3007
喜欢就好	-11.3009
点钱	-11.3011
饿死了	-11.3011
千年	-11.3012
五十	-11.3013
寂寞的	-11.3013
▁鬼	-11.3015
猪猪	-11.3018
榜样	-11.3019
国家的	-11.3019
戒了	-11.302
哪家	-11.302
▁挺好的	-11.302
严重的	-11.3021
过来的	-11.3021
办了	-11.3021
突	-11.3022
不要那么	-11.3022
进口	-11.3024
要不要这么	-11.3024
国安	-11.3025
告你	-11.3027
砸了	-11.3027
应该可以	-11.3032
说这话	-11.3032
雀	-11.3034
一模一样	-11.3036
妒忌	-11.3036
伦敦	-11.3036
舅舅	-11.3036
检讨	-11.3036
▁这也	-11.3036
绑架	-11.3037
叫她	-11.3038
尺度	-11.3038
预订	-11.3038
厨艺	-11.3038
意境	-11.3041
一千	-11.3041
一到	-11.3042
大便	-11.3044
的视频	-11.3045
都市	-11.3046
什么都不	-11.3047
节约	-11.3047
人说	-11.3048
▁丢	-11.305
更大	-11.305
未婚	-11.305
反省	-11.3051
▁九	-11.3053
决心	-11.3054
死我	-11.3055
不顺	-11.3056
工人	-11.3057
继续加油	-11.3062
小雨	-11.3062
安装	-11.3063
人群	-11.3064
疑	-11.3065
▁1	-11.3066
不象	-11.3066
是非	-11.3069
色情	-11.3071
▁网上	-11.3073
大不了	-11.3073
淘汰	-11.3076
恨不得	-11.3076
两句	-11.3078
小丸子	-11.3078
铃	-11.3079
污	-11.308
肩膀	-11.3081
落地	-11.3082
消费者	-11.3087
每个月	-11.3087
全都	-11.3087
天蝎座	-11.3089
红色的	-11.309
的美女	-11.3092
经典的	-11.3093
加点	-11.3095
▁不错啊	-11.3096
▁确实是	-11.3097
伤的	-11.3097
▁就系	-11.3098
人家说	-11.3098
吃饱了	-11.3099
苦逼的	-11.3099
逮	-11.31
日期	-11.3101
收钱	-11.3102
买车	-11.3103
而不	-11.3104
很萌	-11.3104
▁还没有	-11.3105
痛的	-11.3105
把人	-11.3106
▁有时间	-11.3107
验证	-11.3108
嘢	-11.3112
来看我	-11.3113
奉	-11.3114
▁好久不见	-11.3118
▁这是在	-11.3122
就这	-11.3123
诸	-11.3124
对号入座	-11.3126
车站	-11.3128
幕	-11.3129
地狱	-11.3129
更好看	-11.313
▁你们家	-11.313
▁其实我也	-11.3132
▁哎哎哎	-11.3133
定义	-11.3133
小鸟	-11.3134
揍你	-11.3135
王菲	-11.3136
也需要	-11.3136
▁你还是	-11.3137
太快了	-11.3138
▁唔系	-11.314
还被	-11.314
停了	-11.3141
咋不	-11.3143
奢侈品	-11.3144
▁我不会	-11.3146
这样的话	-11.3147
系度	-11.3147
打个电话	-11.3148
白色的	-11.315
不起啊	-11.3151
▁那里	-11.3151
我支持你	-11.3152
的梦	-11.3153
是中国	-11.3155
今天就	-11.3156
做咩	-11.3156
死啊	-11.3157
▁红	-11.3159
我看了	-11.3159
不会有	-11.3161
修行	-11.3163
可耐	-11.3165
敌人	-11.3166
▁可以啊	-11.3168
愈	-11.3169
下次一定	-11.317
小伙	-11.3171
惊悚	-11.3171
邱	-11.3171
><	-11.3171
同性恋	-11.3171
而言	-11.3171
开发商	-11.3172
纳闷	-11.3173
只有一个	-11.3173
短裤	-11.3174
很热	-11.3174
▁林	-11.3176
减少	-11.3176
角落	-11.3176
剩下	-11.3178
我不在	-11.318
真话	-11.3182
麻辣烫	-11.3182
你们要	-11.3182
乱七八糟的	-11.3186
睡衣	-11.3187
555555	-11.3188
貌	-11.3188
话剧	-11.3189
▁那你们	-11.3193
从未	-11.3195
都是你	-11.3195
▁我想说	-11.3197
没注意	-11.3197
一线	-11.3198
值钱	-11.3198
这套	-11.3199
一部分	-11.3202
歌曲	-11.3208
滨	-11.3208
煤	-11.3211
▁能不能	-11.3211
斌	-11.3212
鬼子	-11.3214
鼻涕	-11.3215
约我	-11.3216
搏	-11.3216
鼎	-11.3216
垂	-11.3216
瞌睡	-11.3216
舆论	-11.3216
别这么	-11.3218
业余	-11.3218
这会	-11.3218
感动的	-11.3219
好可爱啊	-11.322
自卑	-11.322
书店	-11.3221
单独	-11.3221
近视	-11.3221
罢工	-11.3221
在吃	-11.3222
射手座	-11.3223
剪头发	-11.3223
奶粉	-11.3224
▁爱情	-11.3225
▁喂	-11.3225
数量	-11.3226
▁这么晚	-11.3232
想像	-11.3233
娱乐圈	-11.3235
太差了	-11.3235
一般都是	-11.3235
这首	-11.3235
吃晚饭	-11.3238
太痛苦了	-11.3238
刚到	-11.324
小样	-11.324
党的	-11.3241
一下下	-11.3241
我们还	-11.3243
西北	-11.3243
挺喜欢	-11.3244
前的	-11.3248
出门了	-11.3249
奏	-11.325
仗	-11.3252
就爱	-11.3253
俾我	-11.3253
打完	-11.3254
那么高	-11.3255
磊	-11.3255
一岁	-11.3258
成天	-11.3258
哪去了	-11.3258
忌	-11.326
吃呢	-11.326
钓	-11.326
乔布斯	-11.3262
惹的祸	-11.3262
斩	-11.3262
磕	-11.3262
大闸蟹	-11.3262
误导	-11.3263
打广告	-11.3264
的好伐	-11.3265
经纪人	-11.3267
挺可爱的	-11.3267
▁我还在	-11.3269
吓我	-11.3269
发照片	-11.3271
萝莉	-11.3272
箱子	-11.3272
最爱的	-11.3273
比以前	-11.3275
辛	-11.3275
一层	-11.3277
我相信你	-11.3278
更喜欢	-11.3279
咱家	-11.3279
穿衣服	-11.328
好萌	-11.3281
外号	-11.3281
好恐怖	-11.3281
贴切	-11.3282
的梦想	-11.3283
外加	-11.3284
休息了	-11.3286
我以后	-11.3287
我早	-11.3287
掉的	-11.3287
欢迎来	-11.3287
谁让你	-11.3288
第一名	-11.3288
▁好久	-11.3289
苦了	-11.329
还是不	-11.329
大宝	-11.3291
本周	-11.3294
济	-11.3295
这件	-11.3297
太远	-11.3297
我的小	-11.33
▁厄	-11.3302
基地	-11.3305
▁被你	-11.3307
‘	-11.3308
究竟	-11.3309
武器	-11.331
▁现在是	-11.331
最后的	-11.331
自在	-11.3311
要死	-11.3311
也开始	-11.3311
臭豆腐	-11.3311
那我们	-11.3312
单纯的	-11.3313
映	-11.3314
呜	-11.3315
什么事情	-11.3315
剧本	-11.3318
▁你会	-11.3318
重播	-11.3319
方面的	-11.332
化的	-11.3321
那边的	-11.3324
曼联	-11.3325
的新闻	-11.3325
缠	-11.3325
说嘛	-11.3326
受欢迎	-11.3328
概率	-11.333
年轻的	-11.333
▁帅哥	-11.3331
等着我	-11.3331
▁低调低调	-11.3335
的身材	-11.3338
来做	-11.3339
喜欢这种	-11.3342
莫名其妙	-11.3344
小猫	-11.3346
▁社会	-11.3347
你也不	-11.3348
只剩	-11.3349
琴晚	-11.335
解答	-11.3351
还不能	-11.3352
嚒	-11.3354
贾	-11.3354
滋味	-11.3355
高了	-11.3356
一言难尽	-11.3358
抢劫	-11.3359
难过了	-11.336
公然	-11.336
删掉	-11.3361
▁欧	-11.3365
内幕	-11.3365
羞涩	-11.3366
碎了	-11.3367
可好	-11.3367
举办	-11.3369
鸡巴	-11.3369
我现在在	-11.337
▁那是你	-11.3371
▁都说	-11.3374
不当	-11.3375
▁越	-11.3376
老男人	-11.3378
啦啦啦啦啦	-11.3378
只想	-11.3379
市长	-11.3382
在这个	-11.3382
一群人	-11.3382
从来没有	-11.3384
风雨	-11.3385
能量	-11.3386
下降	-11.3387
想到了	-11.3388
答对了	-11.339
后台	-11.3393
一看就是	-11.3393
得住	-11.3394
看好你	-11.3394
继	-11.34
桌面	-11.34
薛	-11.34
呼唤	-11.34
渴望	-11.3401
补偿	-11.3401
尊严	-11.3401
观音	-11.3402
得我	-11.3403
老姐	-11.3403
很深	-11.3404
在干嘛	-11.3404
角度问题	-11.3405
一一	-11.3406
眼力	-11.3407
我懂的	-11.3407
▁嗨	-11.3409
等了	-11.3409
看这	-11.341
▁笑死我了	-11.341
很到位	-11.341
天平	-11.3413
明天要	-11.3413
吃好	-11.3414
其实就是	-11.3417
恐怖片	-11.3417
不满	-11.3418
好可怜啊	-11.3418
最后一句	-11.3419
天天吃	-11.342
启	-11.3421
你快	-11.3425
每人	-11.3425
▁香港	-11.3427
还真有	-11.3429
再不	-11.3429
看呢	-11.343
侧面	-11.3431
爱她	-11.3431
点名	-11.3432
失败了	-11.3433
去不去	-11.3434
▁今天晚上	-11.3435
你个头	-11.3435
挥	-11.3435
是没有	-11.3436
笑笑	-11.3436
越多	-11.3437
我也没	-11.3437
皇上	-11.3438
▁厦门	-11.3441
今天没	-11.3443
两个月	-11.3443
都给	-11.3444
玄	-11.3445
人家的	-11.3445
喵	-11.3447
有你们	-11.3447
渠道	-11.3448
踏实	-11.3448
啷个	-11.3448
入手	-11.3449
我愿意	-11.3449
资深	-11.3449
不发	-11.3452
感激	-11.3453
代理	-11.3455
演讲	-11.3457
▁你才是	-11.3458
麻辣	-11.3459
其实也	-11.346
老弟	-11.346
突然觉得	-11.3461
对她	-11.3463
还很	-11.3465
▁据说是	-11.3467
真的不错	-11.3468
说不出	-11.3468
民生	-11.347
▁等你回来	-11.347
▁无聊	-11.3472
以下	-11.3473
掰	-11.3481
▁我想吃	-11.3483
高人	-11.3485
一刚	-11.3485
发出	-11.3485
▁学校	-11.3487
的东东	-11.3487
真假	-11.3491
人少	-11.3493
噜	-11.3493
莹	-11.3493
赫	-11.3493
渔	-11.3493
苍蝇	-11.3493
彪悍	-11.3493
没文化真可怕	-11.3494
右边的	-11.3494
芝麻	-11.3494
文革	-11.3494
都没了	-11.3496
发生了	-11.3497
物业	-11.3497
网购	-11.3499
粗鲁	-11.35
我老了	-11.3501
这本书	-11.3501
甜甜	-11.3505
今天下午	-11.3505
大街	-11.3507
不听	-11.3509
今天早上	-11.351
▁吾	-11.3513
让它	-11.3514
求婚	-11.3514
张总	-11.3514
你觉得呢	-11.3514
吃不下	-11.3516
太重	-11.3518
好痛苦	-11.3521
前途	-11.3523
哎哎	-11.3524
指的是	-11.3524
熟了	-11.3524
是一	-11.3525
中药	-11.3525
别乱	-11.3525
▁没啊	-11.3525
同情心	-11.3526
激动了	-11.3527
她会	-11.3527
反正是	-11.3528
想不到	-11.3528
小心我	-11.353
心机	-11.353
▁有个	-11.353
纵	-11.3535
卧	-11.3539
我要吃	-11.354
来得	-11.354
思密达	-11.354
脉	-11.354
鸿	-11.354
大半夜的	-11.3542
驾照	-11.3543
谢谢哦	-11.3544
顿时	-11.3544
拜托	-11.3544
看到他	-11.3544
▁那时	-11.3545
我还以为你	-11.3545
的饭	-11.3545
安慰我	-11.3548
步行街	-11.3548
惊艳	-11.3548
在哪啊	-11.355
你也会	-11.355
看海	-11.3552
▁蒽	-11.3552
呆着	-11.3553
一中	-11.3554
我正	-11.3556
看谁	-11.3557
太没	-11.3558
不老	-11.3562
还有机会	-11.3562
的感受	-11.3562
大桥	-11.3564
都不认识	-11.3565
黑心	-11.3566
要相信	-11.3566
▁俺们	-11.3566
▁谢谢关注	-11.3568
也被	-11.3568
只有你	-11.3569
米线	-11.357
重点是	-11.3571
▁支持你	-11.3571
就是想	-11.3571
然后就	-11.3572
也只能	-11.3572
明显是	-11.3573
饭吃	-11.3574
彪	-11.3579
成熟了	-11.3583
睡到	-11.3583
粉色	-11.3585
学会了	-11.3585
洗了	-11.3586
我差点	-11.3586
瓷	-11.3587
耽误	-11.3588
录音	-11.359
举行	-11.3591
的内容	-11.3591
麻痹	-11.3591
天赋	-11.3592
等我回来	-11.3592
传奇	-11.3593
珍贵	-11.3594
笑点	-11.3598
很适合	-11.36
类型	-11.3601
▁不不不	-11.3602
忙的	-11.3603
太监	-11.3603
给人家	-11.3605
很烦	-11.3609
的一面	-11.3612
▁围观	-11.3612
吃饭了	-11.3613
消失了	-11.3616
下次一起	-11.3616
说清楚	-11.3617
中年	-11.362
写完	-11.362
涩	-11.3621
多少年	-11.3621
是该	-11.3624
▁嘎嘎	-11.3624
▁杂	-11.3626
心疼啊	-11.3626
再多	-11.3628
阿门	-11.363
学问	-11.3632
韩剧	-11.3632
阻止	-11.3632
理我	-11.3634
▁怎么样	-11.3635
糸	-11.3635
蚂蚁	-11.3635
攀	-11.3635
我吃	-11.3635
张照片	-11.3636
修炼	-11.3636
指挥	-11.3636
一集	-11.3637
姨妈	-11.3638
无线	-11.3638
苗条	-11.3638
要带	-11.3639
被骂	-11.3639
上辈子	-11.3639
实物	-11.364
的店	-11.3642
忽悠我	-11.3643
绝对不	-11.3644
▁大师	-11.3645
的目标	-11.3645
积累	-11.3648
拼了	-11.3648
看懂	-11.3649
好话	-11.3654
忍了	-11.3654
网页	-11.3654
一不小心	-11.3654
好想你	-11.3656
和朋友	-11.3657
体贴	-11.3658
见我	-11.3658
睇下	-11.3659
不放	-11.3659
我就觉得	-11.3662
怎么弄	-11.3665
开心开心	-11.3665
有好	-11.3665
制服	-11.3667
打酱油的	-11.3668
不过来	-11.3674
亲们	-11.3674
不是很好	-11.3675
太贵了	-11.3675
拉屎	-11.3676
分别	-11.368
择	-11.3681
佩	-11.3681
▁老公	-11.3682
忍着	-11.3683
来不来	-11.3683
推销	-11.3684
亚洲	-11.3684
我回去	-11.3684
吉他	-11.3684
小女人	-11.3684
留点	-11.3686
半个小时	-11.3687
的痛	-11.3687
聚餐	-11.3687
为止	-11.3689
我以为是	-11.3689
她妈	-11.369
一天到晚	-11.369
真不容易	-11.369
更高	-11.3692
谢谢你的	-11.3693
容易吗	-11.3693
高的	-11.3693
压根	-11.3696
▁嘿嘿嘿	-11.3698
中国特色	-11.3698
干掉	-11.3702
没变	-11.3703
伤心的	-11.3704
看看吧	-11.3706
漏了	-11.3706
明天见	-11.3706
的女生	-11.3706
▁我怎么觉得	-11.3708
的意义	-11.3709
我小时候	-11.371
爷们儿	-11.371
一直都在	-11.371
创作	-11.3712
你还真	-11.3713
热死	-11.3715
腐女	-11.3716
拌	-11.3716
三角	-11.3718
泪水	-11.3726
说的好	-11.3727
我也要去	-11.3727
▁好漂亮	-11.3727
是人	-11.3727
▁很明显	-11.3728
过日子	-11.3728
勾引我	-11.3729
的结局	-11.373
傲	-11.373
削	-11.373
不搞	-11.3731
偷笑	-11.3733
怎么没有	-11.3733
貌似是	-11.3733
反抗	-11.3733
谎言	-11.3733
你过来	-11.3735
代购	-11.3735
估计要	-11.3736
老总	-11.3736
第二次	-11.3737
很好吃的	-11.3739
了撒	-11.3739
桌上	-11.3739
预计	-11.3742
我又没	-11.3743
之前的	-11.3743
银子	-11.3744
▁惭愧	-11.3746
▁爽	-11.3747
真不是	-11.3749
这就	-11.3749
查查	-11.3752
我请你吃	-11.3752
▁可怜的我	-11.3753
有信心	-11.3754
▁好吃	-11.3754
多人	-11.3756
心的	-11.3756
计算	-11.3757
有卖	-11.3757
不错呀	-11.3757
样儿	-11.3758
▁可惜了	-11.3758
所以就	-11.3758
成这样了	-11.376
有个性	-11.3761
厉害啊	-11.3763
也该	-11.3764
咋没	-11.3764
提出	-11.3764
吵醒	-11.3764
富婆	-11.3768
就不错了	-11.3768
过不去	-11.3768
哭啊	-11.377
抓拍	-11.377
可以试试	-11.3772
了很久	-11.3773
逢	-11.3775
▁换	-11.3775
巡	-11.3777
锐	-11.3778
老王	-11.3778
预告	-11.3778
谦	-11.3778
脂肪	-11.3778
粤语	-11.3779
刚看完	-11.378
罪过	-11.3781
到手	-11.3782
之旅	-11.3782
太有爱了	-11.3782
最可爱	-11.3783
个字	-11.3783
才是王道	-11.3783
这一天	-11.3786
▁你先	-11.3786
▁你真的	-11.3787
了呗	-11.3787
干嘛要	-11.3789
唠	-11.379
小花	-11.379
有压力	-11.3791
假发	-11.3792
说得好	-11.3794
报应	-11.3796
▁我看了	-11.3798
油条	-11.3798
▁报告	-11.3799
最好是	-11.3799
世道	-11.3799
着我	-11.38
丹丹	-11.3803
对不	-11.3804
下吧	-11.3805
▁心情	-11.3805
差异	-11.3808
的魅力	-11.3808
狗血	-11.3808
▁遇到	-11.381
绝对不是	-11.381
▁那确实	-11.381
节课	-11.3812
的姑娘	-11.3813
▁宝宝	-11.3814
怎能	-11.3817
从不	-11.3817
买过	-11.3818
悄悄	-11.382
就是因为	-11.3821
更重要	-11.3821
妈呀	-11.3822
▁一定一定	-11.3822
个屁啊	-11.3822
透明	-11.3823
鹰	-11.3824
看新闻	-11.3825
手机上	-11.3825
咆哮	-11.3827
嚼	-11.3827
铜	-11.3827
蒲	-11.3827
狡辩	-11.3827
此刻	-11.3827
空虚寂寞冷	-11.3829
行了	-11.3829
擅长	-11.3829
站着	-11.3832
▁贱人	-11.3832
一楼	-11.3833
去广州	-11.3833
瞎说	-11.3833
球员	-11.3835
可恶的	-11.3835
成就	-11.3835
▁还是你	-11.3838
太逗了	-11.3839
▁好啊好啊	-11.3839
想当年	-11.384
世上	-11.3841
嫁人	-11.3844
好心	-11.3845
我怕我	-11.3847
拍下来	-11.3848
▁你这样	-11.3849
还是会	-11.3849
你对	-11.3852
▁你他妈	-11.3852
被骗了	-11.3853
盒子	-11.3862
得来	-11.3863
▁我要吃	-11.3868
出场	-11.3869
坐飞机	-11.3872
文件	-11.3874
觉得他	-11.3874
浮躁	-11.3875
土匪	-11.3876
含义	-11.3876
沙滩	-11.3876
白羊座	-11.3877
想问	-11.3878
▁其实你	-11.3878
优秀的	-11.3878
裸奔	-11.3878
保守	-11.388
废了	-11.3881
知音	-11.3881
研	-11.3882
枕头	-11.3883
等他	-11.3885
▁努力	-11.3886
惹我	-11.3887
我懂	-11.3887
进化	-11.3888
在上班	-11.3888
▁暂时	-11.3888
天然	-11.3888
人性化	-11.3888
睇到	-11.3889
上天	-11.3889
还有我	-11.3891
上个	-11.3891
▁关注	-11.3894
接受不了	-11.3902
还年轻	-11.3905
▁咋个	-11.3908
不是吗	-11.3909
现金	-11.3911
可否	-11.3912
退出	-11.3912
大点	-11.3915
什么了	-11.3916
试了	-11.3916
本来想	-11.3916
仰	-11.3917
晒晒	-11.3917
再说吧	-11.3919
我不懂	-11.3919
吃这个	-11.392
一定的	-11.3922
来嘛	-11.3923
驱	-11.3924
泛滥	-11.3924
只看	-11.3925
统统	-11.3925
平凡	-11.3925
很精彩	-11.3926
前段时间	-11.3926
视觉	-11.3927
响应	-11.3927
在后面	-11.3928
灾难	-11.3929
很失望	-11.3931
▁想念	-11.3932
▁她说	-11.3933
这俩	-11.3936
同胞	-11.3936
▁还不是	-11.3936
来广州	-11.3938
它是	-11.394
还怕	-11.3941
不舍	-11.3941
买一个	-11.3942
▁睇	-11.3943
▁自从	-11.3944
一脸	-11.3945
▁不会是	-11.3946
用什么	-11.3947
陌生	-11.3947
正常人	-11.395
酒鬼	-11.3951
▁我咋	-11.3952
可爱的小	-11.3955
去那	-11.3955
多数	-11.3955
▁有时	-11.3957
何来	-11.3958
大自然	-11.3959
拿个	-11.3959
睡醒	-11.396
谁谁谁	-11.3962
君子	-11.3963
害人	-11.3963
静静	-11.3964
的狗	-11.3967
帅了	-11.3968
真给力	-11.3969
癫	-11.3972
▁周六	-11.3972
吸血鬼	-11.3973
哉	-11.3973
比基尼	-11.3973
婊子	-11.3974
宽容	-11.3975
领悟	-11.3975
吃喝	-11.3975
给我说	-11.3977
告别	-11.3977
嘿嘿嘿	-11.3978
做点	-11.3979
忘不了	-11.398
希望他	-11.398
节奏	-11.398
▁我就喜欢	-11.398
户外	-11.398
也这么	-11.3981
的腿	-11.3982
等你们	-11.3984
信你	-11.3985
听歌	-11.3986
我今晚	-11.3987
这种感觉	-11.3988
▁淘宝	-11.3989
家门口	-11.399
▁这个可以有	-11.3991
十一点	-11.3992
很长	-11.3992
真讨厌	-11.3992
实在是太	-11.3994
你要不要	-11.3997
荷	-11.3998
可以理解	-11.3999
独特	-11.4
实际上	-11.4001
▁发现	-11.4003
热烈欢迎	-11.4004
奶油	-11.4005
条微博	-11.4005
满了	-11.4006
分数	-11.4007
我猜	-11.4009
真能	-11.4011
病毒	-11.4011
不说了	-11.4011
偶也	-11.4011
▁跟你	-11.4012
一批	-11.4012
龙哥	-11.4013
在香港	-11.4015
▁你儿子	-11.4016
下面的	-11.4017
难过的	-11.4018
就走了	-11.4018
要死了	-11.4018
的房子	-11.402
幽	-11.4021
菌	-11.4022
嘻	-11.4022
荤	-11.4022
_	-11.4022
泪流满面	-11.4022
微博了	-11.4024
到爆	-11.4024
谢谢您	-11.4025
要开始	-11.4026
倾向	-11.4026
气息	-11.4027
▁七	-11.4027
说你是	-11.4028
反思	-11.4028
护照	-11.403
西路	-11.4031
运动会	-11.4032
给你说	-11.4033
要钱	-11.4035
过段时间	-11.4035
还差	-11.4035
才叫	-11.4036
烂了	-11.4037
找个时间	-11.4038
还说我	-11.4038
▁坑爹的	-11.4039
的飞机	-11.404
会儿	-11.404
▁吃了	-11.4042
▁你说我	-11.4043
户口	-11.4046
有点意思	-11.4047
抢我	-11.4048
找时间	-11.4048
玩手机	-11.4049
咋地	-11.405
可以看到	-11.4051
不好啊	-11.4055
360	-11.4056
囊	-11.4056
▁计划	-11.4056
你怎么不	-11.4057
心事	-11.4058
哭死	-11.4059
贵人	-11.406
▁你老公	-11.4062
苍	-11.4063
察	-11.4065
各自	-11.4067
枣	-11.4067
那么容易	-11.4068
▁越来越	-11.407
你还不	-11.4072
捐款	-11.4074
明天早上	-11.4074
就是不	-11.4074
过来了	-11.4075
法官	-11.4075
考研	-11.4076
你没有	-11.4077
御	-11.4078
我就知道	-11.408
婷婷	-11.4082
解决问题	-11.4082
代价	-11.4083
97	-11.4083
三岁	-11.4084
平淡	-11.4086
特别好	-11.409
疼了	-11.409
情何以堪啊	-11.409
好看吗	-11.4091
好早	-11.4093
▁哪能	-11.4093
因为有	-11.4094
看样子	-11.4094
人来	-11.4097
▁同学	-11.4099
▁西	-11.41
好想念	-11.41
获	-11.4102
▁为什么啊	-11.4103
可能要	-11.4104
▁就在	-11.4105
太贵	-11.4107
暴露了	-11.4107
好起来	-11.4108
低调低调	-11.4108
是你们	-11.4108
为难	-11.411
自助餐	-11.4111
还有谁	-11.4114
看一下	-11.4116
气死我	-11.4119
就已经	-11.4119
卸	-11.4121
你赢了	-11.4121
咽	-11.4122
一分钟	-11.4122
竖	-11.4122
连接	-11.4122
避免	-11.4122
立刻	-11.4123
活泼	-11.4124
我们宿舍	-11.4125
心累	-11.4127
世间	-11.4127
平民	-11.4128
唯有	-11.413
失踪	-11.413
更像	-11.4133
拍个	-11.4133
▁低调	-11.4134
走向	-11.4134
阳台	-11.4135
很讨厌	-11.4136
▁谁说的	-11.4136
感动了	-11.4136
▁心情不好	-11.4137
都是这样	-11.414
▁幸好	-11.4141
够狠	-11.4141
立场	-11.4142
你懂我	-11.4142
吃好吃的	-11.4143
这种东西	-11.4144
坐地铁	-11.4145
层次	-11.4145
是件	-11.4146
没办法啊	-11.4147
强哥	-11.4148
你也知道	-11.4151
初三	-11.4152
默默的	-11.4152
布丁	-11.4152
你看看	-11.4153
做起	-11.4153
自从	-11.4153
▁找个	-11.4154
你才是	-11.4159
底线	-11.416
本书	-11.4163
两个字	-11.4163
我昨晚	-11.4164
天后	-11.4164
的偶像	-11.4165
做啥	-11.417
根本没	-11.417
框	-11.417
为啥不	-11.4171
互联网	-11.4171
什么活动	-11.4171
周杰伦	-11.4173
咋啦	-11.4173
没有看到	-11.4175
舌	-11.4176
▁去你的	-11.4177
闹钟	-11.4178
终身	-11.4178
礼貌	-11.4179
不淡定了	-11.418
▁这都	-11.4182
场地	-11.4183
都挺	-11.4184
不住了	-11.4185
▁乖乖	-11.4187
又来了	-11.4187
你信吗	-11.4188
口感	-11.4188
给谁	-11.419
此事	-11.4191
高峰	-11.4192
兄弟们	-11.4192
长得像	-11.4193
弄了	-11.4194
▁六	-11.4195
锻炼身体	-11.4197
▁恶心	-11.4197
的标准	-11.4199
有咩	-11.42
最起码	-11.4201
因为他	-11.4203
是一样的	-11.4203
▁你怎么不	-11.4204
去哪了	-11.4204
诅咒你	-11.4205
不是吧	-11.4206
好好享受	-11.4206
帅气的	-11.4206
回来啊	-11.4207
相信自己	-11.4208
那就好	-11.4209
好吃不	-11.4211
品位	-11.4213
梦中	-11.4214
还吃	-11.4215
选的	-11.4217
▁会的	-11.4217
点就	-11.4219
新年	-11.4219
感觉好	-11.422
栏	-11.422
芝	-11.422
墓	-11.4222
卜	-11.4222
撇	-11.4222
我对你	-11.4222
▁我帮你	-11.4225
走吧	-11.4226
这个想法	-11.4228
真厉害	-11.4228
我就说	-11.4228
▁好似	-11.4229
那叫一个	-11.4231
有爱心	-11.4231
姑姑	-11.4232
不是问题	-11.4233
固定	-11.4235
长时间	-11.4236
续	-11.4237
▁哭	-11.4237
不是故意的	-11.4237
不要乱	-11.4238
勤劳	-11.4238
▁很美	-11.4239
乐意	-11.4243
找个人	-11.4244
不轻	-11.4244
专心	-11.4245
单车	-11.4246
▁谢谢您	-11.4247
个女	-11.4247
大理	-11.4248
▁呵呵谢谢	-11.4248
的微薄	-11.4251
魔都	-11.4251
不理解	-11.4251
办的	-11.4251
啥了	-11.4252
侄女	-11.4253
退了	-11.4256
的人伤不起	-11.4257
最近很	-11.4258
老兄	-11.4258
一路顺风	-11.4258
▁你你你	-11.4258
很感动	-11.426
麻木	-11.4263
认错	-11.4263
▁老娘	-11.4264
还未	-11.4264
带孩子	-11.4265
好可怕	-11.4266
太搞笑了	-11.4266
生日快乐哦	-11.4267
▁边	-11.4268
没救了	-11.4268
位子	-11.4269
补上	-11.4269
离谱	-11.427
燃	-11.427
肤浅	-11.427
是的是的	-11.427
可以看	-11.4271
▁悲催啊	-11.4271
匪	-11.4271
喜感	-11.4272
伤人	-11.4272
什么是	-11.4272
有感而发	-11.4272
小龙	-11.4273
登陆	-11.4274
预祝	-11.4274
还要去	-11.4275
一分	-11.4276
相声	-11.4276
很明显	-11.4277
反弹	-11.4278
厉害的	-11.4278
好哦	-11.4279
的气质	-11.428
闹心	-11.4281
枝	-11.4281
一篇	-11.4281
多啦	-11.4281
▁我昨晚	-11.4282
▁答对了	-11.4282
▁不然	-11.4282
木瓜	-11.4283
还是在	-11.4284
精神病	-11.4285
个鬼	-11.4285
搞了	-11.4287
不敢吃	-11.4287
招牌	-11.4289
知道不	-11.429
金刚	-11.4292
现身	-11.4292
最近忙	-11.4293
开房	-11.4294
给你发	-11.4294
好开心啊	-11.4297
老豆	-11.4297
拍出来	-11.4298
水准	-11.4299
上过	-11.43
么有	-11.4301
▁好听	-11.4302
▁感谢支持	-11.4302
有情调	-11.4303
这场	-11.4303
我也不	-11.4306
啥呀	-11.4309
总监	-11.4309
来过	-11.4309
找机会	-11.431
女流氓	-11.431
联合	-11.431
这样做	-11.4312
▁到底是	-11.4312
可惜啊	-11.4314
了不起	-11.4314
▁你还没	-11.4315
▁姑娘	-11.4316
好看啊	-11.4317
想办法	-11.4318
卑	-11.4318
打错	-11.4318
在身边	-11.4319
你系	-11.4321
遗憾啊	-11.4321
堡	-11.4321
蛤	-11.4323
场景	-11.4323
俱乐部	-11.4323
方舟子	-11.4323
黑色的	-11.4323
企鹅	-11.4323
当年的	-11.4323
双鱼座	-11.4325
母校	-11.4326
我靠	-11.4327
博友	-11.4327
莫名	-11.4328
芒果台	-11.4328
牛牛	-11.4331
学习了	-11.4333
我哭	-11.4333
那帮	-11.4334
好大的	-11.4334
无言	-11.4335
发育	-11.4336
不要紧	-11.4337
个样	-11.4338
遥	-11.434
▁您老	-11.434
我又不是	-11.4341
话我	-11.4342
这社会	-11.4342
▁我刚刚	-11.4343
又系	-11.4343
找死	-11.4343
多可爱	-11.4345
会好的	-11.4347
我最爱的	-11.4348
▁赶快	-11.435
我终于	-11.4352
症状	-11.4353
老太太	-11.4353
错啦	-11.4355
下水	-11.4355
手臂	-11.4356
▁应该说	-11.4359
审美	-11.436
发微薄	-11.4361
惹你	-11.4364
明明就是	-11.4367
为人	-11.4371
这样才	-11.4372
我反正信了	-11.4374
掩饰	-11.4374
汕头	-11.4374
月中旬	-11.4374
▁早上好	-11.4375
误解	-11.4376
不敢当	-11.4377
的选择	-11.4378
商品	-11.4379
期待中	-11.438
黑幕	-11.438
冷笑话	-11.4382
字幕	-11.4383
▁政府	-11.4384
而家	-11.4385
痘	-11.4385
我还没有	-11.4386
肯定不是	-11.4387
▁中间	-11.4387
▁经典	-11.4388
也快	-11.4389
点好	-11.4389
很乖	-11.439
冬瓜	-11.439
我的微博	-11.4392
太极	-11.4393
很可爱的	-11.4393
学期	-11.4393
后续	-11.4394
好久没见	-11.4395
一定去	-11.4396
合适的	-11.4396
得快	-11.4396
有一	-11.4398
榜	-11.4398
特别喜欢	-11.4401
圆圆	-11.4401
感想	-11.4402
嫁给	-11.4403
的关注	-11.4407
▁跟我	-11.4407
一刻	-11.4409
很久很久	-11.441
▁白天	-11.4411
你在哪	-11.4411
令我	-11.4412
一番	-11.4413
潮人	-11.4414
▁没钱	-11.4416
喝多	-11.4416
拜拜	-11.4418
终于可以	-11.4419
资金	-11.4419
的人才	-11.4419
地道	-11.442
人太多	-11.442
逸	-11.4421
教的	-11.4421
太邪恶了	-11.4421
尤	-11.4421
两种	-11.4422
毅	-11.4424
缴	-11.4425
▁强烈要求	-11.4426
恐龙	-11.4426
开工	-11.4427
试验	-11.4427
的时代	-11.4427
室友	-11.4428
大厨	-11.4429
化妆品	-11.4429
很遗憾	-11.4429
认出来	-11.4431
▁真的很	-11.4432
真会	-11.4433
学了	-11.4434
我恨	-11.4434
▁米有	-11.4435
今天才	-11.4436
▁一群	-11.4436
▁左	-11.444
期待你的	-11.444
真得	-11.444
很多时候	-11.444
不给力啊	-11.4441
那件	-11.4442
▁可不	-11.4443
但也	-11.4443
的是什么	-11.4443
住的	-11.4444
就晓得	-11.4444
谁让	-11.4444
▁小妞	-11.4446
我也爱你	-11.4448
同样的	-11.4449
完蛋了	-11.4453
别把	-11.4454
85	-11.4455
还有更	-11.4456
这种情况	-11.4457
我是个	-11.4458
动了	-11.4459
十几	-11.446
只知道	-11.4461
▁我也不想	-11.4462
认不出	-11.4462
▁不对	-11.4465
口号	-11.4467
▁你干嘛	-11.4467
强势	-11.4467
冷了	-11.4471
朴	-11.4472
媒	-11.4473
噗	-11.4474
柯	-11.4476
想念你们	-11.4476
墨镜	-11.4477
诺基亚	-11.4477
爱你的	-11.4478
兔兔	-11.4478
我想要	-11.4478
▁到底	-11.4479
陕西	-11.4479
▁冬天	-11.4481
登记	-11.4481
孝顺	-11.4482
胡萝卜	-11.4483
那谁	-11.4483
哪敢	-11.4484
砖家	-11.4484
就让	-11.4484
你真的	-11.4484
刚回来	-11.4485
要紧	-11.4487
就是喜欢	-11.4489
好坏	-11.4489
连个	-11.449
啦啦啦啦	-11.4492
的人啊	-11.4494
笑容	-11.4494
前面的	-11.4496
真滴	-11.4498
不忍心	-11.4498
深夜	-11.4499
给我吧	-11.4499
绝望了	-11.45
老年	-11.4502
迷信	-11.4505
收集	-11.4506
养狗	-11.4507
就一	-11.4508
于是	-11.4508
▁为神马	-11.4509
▁我刚才	-11.451
白酒	-11.4511
▁千万别	-11.4511
吃海鲜	-11.4514
也不用	-11.4518
的水平	-11.452
六一	-11.452
异性	-11.4522
网速	-11.4523
同情你	-11.4524
我绝对	-11.4525
那会儿	-11.4525
夕	-11.4526
炼	-11.4528
^	-11.4529
菩萨	-11.4529
剥削	-11.4529
我打	-11.4529
调侃	-11.4529
▁好久没	-11.453
说真话	-11.453
必备	-11.4532
钟意	-11.4533
终于找到	-11.4535
坏话	-11.4535
▁你看你	-11.4537
你也在	-11.4538
社会的	-11.4538
这歌	-11.4542
相思	-11.4544
不光	-11.4545
有人要	-11.4545
▁聪明	-11.4545
▁提前	-11.4547
球场	-11.4548
统	-11.4548
下次我们	-11.4548
不知道是不是	-11.4549
喝醉	-11.455
吃起来	-11.4551
你有没有	-11.4551
拉登	-11.4552
怎么着	-11.4552
和他们	-11.4554
自身	-11.4554
▁赞同	-11.4556
▁可怜的孩纸	-11.4556
他们家	-11.4559
看多了	-11.456
有良心	-11.4563
阿哥	-11.4563
热死了	-11.4566
误会了	-11.457
▁简单	-11.4571
谣	-11.4572
不屑	-11.4573
不堪	-11.4574
锡	-11.4574
我还是喜欢	-11.4574
那句话	-11.4575
我女儿	-11.4576
小王子	-11.4576
语气	-11.4578
我想吃	-11.4579
乏	-11.458
剥	-11.4581
袄	-11.4581
梳	-11.4581
^_^	-11.4581
禅	-11.4581
围巾	-11.4581
我笑了	-11.4581
案例	-11.4582
暖和	-11.4584
电池	-11.4585
把钱	-11.4586
▁不如	-11.4587
明日	-11.4589
不跟你	-11.4589
▁尼玛的	-11.4589
太经典了	-11.4592
这世界	-11.4592
关心你	-11.4593
太小了	-11.4593
同一	-11.4593
山路	-11.4595
好可惜	-11.4596
当你	-11.4596
揭穿	-11.4599
刘老师	-11.46
义务	-11.46
飞了	-11.4603
看懂了	-11.4605
▁国内	-11.4605
日语	-11.4605
观念	-11.4607
的围脖	-11.4608
把你们	-11.4609
你电话	-11.4611
▁这么早	-11.4612
行么	-11.4613
可靠	-11.4614
赠	-11.4614
捷	-11.4614
唱了	-11.4615
谈谈	-11.4619
违	-11.462
我正在	-11.4621
爸爸妈妈	-11.4623
有新	-11.4623
又能	-11.4624
之间的	-11.4626
谁也	-11.4629
耀	-11.463
07	-11.4631
>	-11.4633
呼吁	-11.4633
嫁不出去	-11.4634
越狱	-11.4634
比喻	-11.4634
阴暗	-11.4635
说谎	-11.4638
请您	-11.4638
▁你系	-11.4639
所在	-11.4639
楼梯	-11.464
哪种	-11.4642
烤鱼	-11.4642
受罪	-11.4643
界的	-11.4643
此人	-11.4644
▁等待	-11.4645
的事了	-11.4645
快速	-11.4646
以为你是	-11.4647
钱的	-11.4648
难熬	-11.465
黄山	-11.4651
发信息	-11.4652
调调	-11.4654
牛排	-11.4654
啥啥	-11.4656
见见	-11.4656
装了	-11.4656
▁这还	-11.4657
乐园	-11.4659
我忘了	-11.4659
坐的	-11.466
这些东西	-11.4662
下个星期	-11.4662
一切顺利	-11.4663
搞笑的	-11.4663
无赖	-11.4664
跟上	-11.4665
痛快	-11.4666
籍	-11.4668
划算	-11.4669
遭遇	-11.467
人要	-11.467
▁知道你	-11.467
肚子饿	-11.467
▁想吃	-11.4672
一个人的	-11.4673
要走	-11.4674
▁我不要	-11.4674
人妖	-11.4675
马上要	-11.4675
作文	-11.4676
是需要	-11.4676
疗	-11.4678
澡	-11.468
行李	-11.4682
键	-11.4682
下雨天	-11.4683
碍	-11.4684
译	-11.4684
谨慎	-11.4684
▁我也是啊	-11.4685
黑眼圈	-11.4686
你这么说	-11.4686
摧残	-11.4686
无能	-11.4686
逃避	-11.4687
送给我	-11.4688
▁咩	-11.4688
地球人	-11.4689
运动员	-11.4691
主播	-11.4691
最棒	-11.4692
没这么	-11.4695
真他妈	-11.4696
的悲哀	-11.4697
都被你	-11.4697
处处	-11.4697
又一个	-11.4697
想当	-11.4697
把人家	-11.4698
中国足球	-11.47
哪个是	-11.4701
的婚礼	-11.4701
在我们	-11.4702
咋回事	-11.4704
造反	-11.4705
开张	-11.4707
▁等着	-11.4707
挺好玩的	-11.4707
般的	-11.4707
▁我们这	-11.4708
之后就	-11.4712
谢谢啊	-11.4712
娟	-11.4712
好主意	-11.4712
掉下来	-11.4714
放的	-11.4715
还是可以	-11.4716
一朵	-11.4716
性感的	-11.4717
搞得我	-11.4718
强迫	-11.4718
学车	-11.4718
能理解	-11.4723
大晚上的	-11.4724
班车	-11.4725
那么可爱	-11.4726
我要是	-11.4727
▁你们这些	-11.4728
▁我要去	-11.4729
举报你	-11.473
想睡觉	-11.4731
细心	-11.4731
全体	-11.4732
美腿	-11.4734
可爱啊	-11.4735
不理你	-11.4735
我好像	-11.4736
狐狸	-11.4738
霍	-11.4738
憋屈	-11.4739
荷兰	-11.4739
德行	-11.474
笔记本	-11.474
起哄	-11.474
纽约	-11.474
抽筋	-11.474
超好吃	-11.4741
▁丫	-11.4742
的存在	-11.4743
财务	-11.4743
▁哎呦喂	-11.4744
的愿望	-11.4745
实施	-11.4747
大奖	-11.4747
薪	-11.4748
祝你好运	-11.4748
复古	-11.4749
每一天	-11.4749
周末愉快	-11.475
低调的	-11.4751
问的	-11.4751
乐队	-11.4753
北海	-11.4753
隐藏	-11.4754
▁真可怜	-11.4755
我等着	-11.4755
第五	-11.4756
大地	-11.4756
▁坐	-11.4756
发呆	-11.4757
中奖了	-11.4757
怎么又	-11.4758
周边	-11.4759
更爱	-11.4762
海外	-11.4763
很贵	-11.4765
都比	-11.4766
▁为什么呢	-11.4766
心意	-11.4767
情调	-11.4769
这个可以有	-11.4772
飙	-11.4773
报了	-11.4774
大运	-11.4774
你比我	-11.4774
黑名单	-11.4775
不配	-11.4775
肿么样	-11.4775
▁很漂亮	-11.4775
发福	-11.4776
▁好可爱的	-11.4777
人格	-11.478
的女孩	-11.4781
调皮	-11.4784
诱人	-11.4784
▁没得	-11.4785
神奇的	-11.4788
▁很多人	-11.4789
▁你信不信	-11.4789
深深的	-11.479
▁半夜	-11.4791
我不怕	-11.4791
甭	-11.4792
咖喱	-11.4792
城市猎人	-11.4792
湖南卫视	-11.4792
捅	-11.4797
不要钱	-11.4797
人儿	-11.4797
忍受	-11.4797
睡懒觉	-11.4799
感觉像	-11.4799
我已	-11.48
都用	-11.48
▁这个真	-11.4802
指教	-11.4803
我只有	-11.4803
的鼓励	-11.4806
拿出	-11.481
上路	-11.4811
几百	-11.4813
有那么多	-11.4813
▁快来	-11.4814
惹不起	-11.4815
白了	-11.4817
▁开心就好	-11.482
有想法	-11.482
▁你们是	-11.4822
只剩下	-11.4824
开花	-11.4824
六月	-11.4824
打字	-11.4825
▁公司	-11.4825
都去	-11.4825
▁累	-11.4826
烦死	-11.4826
惦记	-11.4826
已然	-11.4831
不然你	-11.4832
陪着	-11.4834
▁又去	-11.4834
不远了	-11.4834
这么可爱	-11.4834
橙	-11.4835
睡前	-11.4836
▁后天	-11.4837
工作室	-11.4837
带坏	-11.4839
李刚	-11.4839
燥	-11.4841
梦游	-11.4842
在武汉	-11.4842
心底	-11.4845
厘米	-11.4846
▁瓦	-11.4846
去问	-11.4848
来找你	-11.4848
都没得	-11.4848
你看我	-11.4849
我一直以为	-11.4852
你可以的	-11.4853
▁怎么这么	-11.4855
喝过	-11.4855
找工作	-11.4857
他们说	-11.4858
威胁我	-11.4858
永远的	-11.4859
▁那就好	-11.486
遗忘	-11.4861
当下	-11.4862
坐动车	-11.4863
不热	-11.4864
别怕	-11.4867
难免	-11.4869
坐坐	-11.4869
每天都在	-11.4869
▁注意身体	-11.4872
▁你说的是	-11.4872
系甘	-11.4873
▁下回	-11.4874
你该	-11.4875
越大	-11.4876
▁你怎么了	-11.4878
提醒我	-11.4881
那么远	-11.4881
写真	-11.4883
工厂	-11.4884
▁朱	-11.4885
吃不胖	-11.4885
三个人	-11.4886
▁有木有	-11.4887
找了	-11.4889
▁谁敢	-11.489
我早就	-11.489
成员	-11.4891
下去了	-11.4891
重大	-11.4893
这么简单	-11.4898
泛	-11.4898
斋	-11.4899
丈母娘	-11.4899
搁	-11.4899
焦虑	-11.4899
没事干	-11.4901
开心哦	-11.4901
▁至于	-11.4903
猪蹄	-11.4904
你干嘛	-11.4905
▁失眠	-11.4907
宗教	-11.4908
改善	-11.4909
小动物	-11.4909
幻	-11.491
红十字会	-11.491
▁我懂	-11.4911
因此	-11.4911
办理	-11.4912
小姨	-11.4913
别想	-11.4915
回不去了	-11.4916
开口	-11.4917
圈子	-11.4917
有谁	-11.4917
去打	-11.4918
好高	-11.4919
取消了	-11.492
挺你	-11.4921
提升	-11.4923
我才不	-11.4923
存钱	-11.4923
▁重点是	-11.4924
大眼	-11.4925
是多少	-11.4926
曾经的	-11.4927
一下嘛	-11.4927
座位	-11.4928
你还在	-11.4929
▁谁是	-11.4933
很奇怪	-11.4933
商家	-11.4933
场合	-11.4934
那一	-11.4936
这两	-11.4938
过我	-11.4939
娘的	-11.4941
▁何	-11.4945
深情	-11.4946
▁我好	-11.4947
有奖	-11.4947
也别	-11.4947
▁恩那	-11.4948
大于	-11.495
四点	-11.495
去死吧	-11.495
否认	-11.4951
朋	-11.4952
▁过来	-11.4953
顺其自然	-11.4953
冰淇淋	-11.4953
实话实说	-11.4953
自娱自乐	-11.4953
文艺青年	-11.4955
学过	-11.4956
▁对啊对啊	-11.4956
什么时候来	-11.4957
推荐的	-11.4957
佳佳	-11.4957
千里	-11.4958
显然	-11.4959
介样	-11.4959
越来越好	-11.4959
风水	-11.4963
罢	-11.4964
反复	-11.4964
链	-11.4964
你那里	-11.4966
不提	-11.4969
内个	-11.4969
800	-11.497
出现在	-11.497
岁数	-11.497
要不就	-11.4971
哑	-11.4971
有空来	-11.4972
的工资	-11.4972
上微薄	-11.4973
你还没	-11.4974
册那	-11.4974
▁您是	-11.4975
考虑下	-11.4977
可恨	-11.4978
河北	-11.4979
都是些	-11.4981
缺钱	-11.4981
解释一下	-11.4983
的造型	-11.4984
何处	-11.4987
的意见	-11.4988
都话	-11.4988
也只有	-11.4989
国内的	-11.499
居然是	-11.4991
不确定	-11.4992
如果我	-11.4992
遥远	-11.4994
可别	-11.4994
五年	-11.4995
代言人	-11.4995
委员	-11.4996
发你	-11.4996
递	-11.4996
▁每个人	-11.4997
盟	-11.5003
配的	-11.5004
的妈妈	-11.5005
上床	-11.5007
捕	-11.5007
矿	-11.5008
t	-11.5008
桐	-11.5008
段林希	-11.5008
拎	-11.5008
猩猩	-11.5008
详情	-11.5008
给我带	-11.5008
▁我系	-11.5009
钻石	-11.5009
武艺	-11.501
长春	-11.501
考虑考虑	-11.501
▁哪里有	-11.501
谢谢你们	-11.501
好玩吗	-11.5015
登机	-11.5015
应该叫	-11.5015
谈不上	-11.5016
我该	-11.5016
爽了	-11.5018
性价比	-11.5018
我不信	-11.5019
▁貌似是	-11.5019
红豆	-11.5021
我微博	-11.5021
趣	-11.5021
好热	-11.5022
别生气	-11.5023
公关	-11.5023
本地	-11.5024
不记得了	-11.5025
看到你了	-11.5025
住院	-11.5027
饿着	-11.5027
在心里	-11.5027
好彩	-11.5029
懂不懂	-11.5029
▁我还以为是	-11.5029
格子	-11.5031
太深	-11.5035
那份	-11.5036
看法	-11.5036
七天	-11.5037
相见	-11.5037
▁萌	-11.5039
三个月	-11.5041
晴天	-11.5042
翻出来	-11.5044
有个人	-11.5044
大洋	-11.5044
是事实	-11.5048
不能用	-11.5048
本本	-11.505
防晒	-11.505
不缺	-11.505
工作的	-11.5051
的速度	-11.5051
蛮喜欢	-11.5052
▁我决定	-11.5052
这地方	-11.5053
短暂	-11.5055
想念我	-11.5056
浪漫的	-11.5058
很年轻	-11.5059
这么早就	-11.5059
筹	-11.5062
勃	-11.5062
藤	-11.5062
召唤	-11.5062
就是说	-11.5062
澄清	-11.5063
领袖	-11.5063
留个	-11.5063
原始	-11.5063
奖金	-11.5064
么子	-11.5064
罪恶	-11.5064
街头	-11.5064
能用	-11.5065
战略	-11.5065
我想去	-11.5066
进行到底	-11.5066
狠心	-11.5066
对吗	-11.5067
的女儿	-11.5069
燕子	-11.5069
一股	-11.5071
是用	-11.5071
听说过	-11.5071
她也	-11.5071
▁太可爱了	-11.5071
睡啦	-11.5072
▁世界	-11.5072
奉献	-11.5075
现状	-11.5076
形成	-11.5078
太快	-11.5082
做成	-11.5082
这会儿	-11.5083
大笑	-11.5085
亲爱滴	-11.5085
是你自己	-11.5086
这么巧	-11.5086
你啥时候	-11.5086
找的	-11.5086
不良	-11.5086
▁第一	-11.5087
▁北	-11.5087
刚吃完	-11.5092
昆	-11.5095
▁懂	-11.5095
便宜的	-11.5097
国民	-11.5097
中分	-11.5098
风情	-11.5098
有范儿	-11.5098
糖水	-11.5098
幸亏	-11.5099
郁闷死了	-11.5101
伍	-11.5101
我经常	-11.5104
约了	-11.5104
尽情	-11.5105
忙完	-11.5106
你们都是	-11.5109
汉子	-11.5109
为什么我	-11.511
前提是	-11.511
煎	-11.5111
可惜不是	-11.5111
没收	-11.5112
▁明晚	-11.5115
的银	-11.5116
僧	-11.5116
卤	-11.5116
留在	-11.5117
起不来	-11.5117
深沉	-11.5117
涌	-11.5117
动漫	-11.5119
为什么会	-11.5119
长大的	-11.5119
诞生	-11.512
这群	-11.5121
跟不上	-11.5122
恶意	-11.5123
找点	-11.5123
▁你敢不敢	-11.5123
听得	-11.5124
都没人	-11.5127
屁民	-11.5128
但不	-11.5134
气我	-11.5134
一世	-11.5136
我就要	-11.5138
组织的	-11.5138
八月	-11.5139
一直都很	-11.514
也忒	-11.514
米粉	-11.5141
吃醋了	-11.5141
为神马	-11.5142
恶毒	-11.5142
看微博	-11.5143
老师说	-11.5143
求证	-11.5143
充电	-11.5144
尝试一下	-11.5144
代替	-11.5144
▁求地址	-11.5145
打败	-11.5145
哪怕	-11.5145
总归	-11.5147
吓得	-11.5148
我用	-11.515
大侠	-11.5151
也不错啊	-11.5151
一定很	-11.5154
金山	-11.5154
直白	-11.5156
我饿了	-11.5156
遇到了	-11.5157
却是	-11.5158
发现的	-11.5159
日本的	-11.516
比较适合	-11.5161
认识我	-11.5161
鸡腿	-11.5162
看的我	-11.5164
会出现	-11.5164
谁了	-11.5166
都吾	-11.5168
精致	-11.5169
在上面	-11.517
晋	-11.5171
短了	-11.5171
兆	-11.5172
没心没肺	-11.5172
多愁善感	-11.5172
恤	-11.5172
监狱	-11.5172
终究	-11.5173
商务	-11.5173
宣布	-11.5174
厨师	-11.5174
你认为	-11.5174
▁帮我	-11.5174
提早	-11.5174
天天向上	-11.5174
执法	-11.5176
全民	-11.5176
文盲	-11.5176
戴眼镜	-11.5176
霸王	-11.5177
好巧	-11.518
盯着	-11.5181
▁没有没有	-11.5181
被欺负	-11.5181
才不是	-11.5182
在国外	-11.5185
体会到	-11.5185
唔使	-11.5186
▁这个好	-11.5186
我把你	-11.5187
在我家	-11.5189
就不怕	-11.519
无奈的	-11.5191
太早了	-11.5191
▁真有	-11.5192
多少啊	-11.5192
▁不要这样	-11.5194
醒的	-11.5194
▁苹果	-11.5197
美元	-11.5197
有些事	-11.5198
▁很有	-11.52
约定	-11.52
开微博	-11.5201
翻学	-11.5202
这个头像	-11.5202
的话题	-11.5203
翅膀	-11.5205
可怜滴	-11.5206
本科	-11.5208
用品	-11.5208
就发	-11.5208
搞点	-11.5209
好多人都	-11.521
会这样	-11.5212
美得	-11.5213
我应该	-11.5214
小可爱	-11.5214
在机场	-11.5215
微博里	-11.5216
没人性	-11.5216
教坏	-11.5218
打劫	-11.5219
那女的	-11.5219
男人都	-11.522
折扣	-11.522
阴天	-11.5221
补补	-11.5221
会死	-11.5222
▁我怕我	-11.5222
的领导	-11.5224
是什么啊	-11.5224
▁我们在	-11.5226
▁没啥	-11.5228
还去	-11.5228
仿佛	-11.5229
所有人	-11.5229
共享	-11.5229
再吃	-11.5229
支付宝	-11.5229
贝贝	-11.5231
▁我一直都	-11.5231
常州	-11.5231
社区	-11.5233
闪电	-11.5233
开店	-11.5234
只吃	-11.5234
▁前几天	-11.5237
给予	-11.5238
蓝色的	-11.5239
操蛋	-11.5239
开机	-11.5241
的最爱	-11.5241
听到了	-11.5243
惯了	-11.5244
大白	-11.5246
我也不想	-11.5248
结了	-11.5248
人口	-11.525
不明	-11.5251
来不及	-11.5251
还真的	-11.5252
落实	-11.5254
▁忘了	-11.5255
不信你	-11.5255
明天我	-11.5256
怪兽	-11.5257
哥是	-11.5258
也不想	-11.5258
▁右边的	-11.5259
的头发	-11.5259
很低调	-11.526
▁坑爹	-11.5261
小日本	-11.5261
法制	-11.5262
嫁出去	-11.5263
▁有钱	-11.5263
都叫	-11.5263
一箱	-11.5263
说呢	-11.5266
前三	-11.5268
到我了	-11.5268
小店	-11.5268
适当	-11.5269
招呼	-11.5269
明月	-11.527
就到了	-11.527
伤身	-11.5271
这车	-11.5272
家里的	-11.5272
咱就	-11.5274
开心啦	-11.5274
没电了	-11.5277
做乜	-11.5277
到现在还没	-11.5279
危	-11.5281
蛙	-11.5281
要说	-11.5282
▁这才是	-11.5282
疲惫	-11.5284
博物馆	-11.5284
窃	-11.5284
▁我的天	-11.5285
初步	-11.5287
患者	-11.5287
安卓	-11.5288
今夜	-11.5288
漫	-11.529
当面	-11.5291
广电	-11.5294
▁请你	-11.5294
地主	-11.5295
精华	-11.5296
▁这货	-11.5297
▁你不懂	-11.5297
▁你说你	-11.5298
么么么	-11.5299
打招呼	-11.53
两日	-11.53
凉了	-11.5303
好久不见了	-11.5304
一个个	-11.5305
太幸福了	-11.5307
▁妹子	-11.5308
骂死	-11.5309
具备	-11.531
看着办	-11.531
吃个饭	-11.5312
糟糕	-11.5312
▁平时	-11.5313
妹啊	-11.5313
的要求	-11.5314
▁让你	-11.5314
噩梦	-11.5314
闲的	-11.5315
光光	-11.5316
▁这是一个	-11.5317
▁小孩子	-11.5318
很搞笑	-11.5318
你还要	-11.5318
认真的	-11.5322
叮	-11.5323
苦命	-11.5323
▁我把	-11.5324
有气质	-11.5325
你老	-11.5325
喝酒了	-11.5325
天了	-11.5326
扔了	-11.5327
▁唐	-11.5329
玩吧	-11.5331
没天理	-11.5331
很多东西	-11.5332
始	-11.5332
希望你能	-11.5332
涨了	-11.5332
这么厉害	-11.5333
锤	-11.5334
万分	-11.5334
那一天	-11.5335
▁不愧是	-11.5336
渴	-11.5337
医疗	-11.5337
好靓	-11.5337
那个什么	-11.5339
蟑螂	-11.534
难过啊	-11.5343
我同事	-11.5343
怕了	-11.5344
得不错	-11.5344
买衣服	-11.5344
影院	-11.5344
劲爆	-11.5345
奔波	-11.5345
中暑	-11.5345
你的照片	-11.5346
来呀	-11.5346
去上班	-11.5347
类的	-11.5347
比较大	-11.5347
看你的	-11.5348
俺也	-11.5348
相聚	-11.5349
发飙	-11.5353
一支	-11.5354
毛衣	-11.5354
修养	-11.5355
太原	-11.5355
好吃吗	-11.5357
杂个	-11.5358
▁我跟	-11.5359
珊	-11.536
有人在	-11.5362
讲讲	-11.5363
可以再	-11.5364
不要逼我	-11.5366
高档	-11.5366
超多	-11.5366
瓜子	-11.5367
不能这样	-11.5368
可以选择	-11.5372
的确很	-11.5372
航空	-11.5373
挺帅的	-11.5374
两者	-11.5376
管他	-11.5376
早了	-11.5376
▁这句	-11.538
啤	-11.538
晚上好	-11.538
哪里啊	-11.5381
生一个	-11.5383
瘫	-11.5383
之心	-11.5383
但是还是	-11.5384
37	-11.5385
人就	-11.5386
晒太阳	-11.5386
看嘛	-11.5387
愚	-11.5388
合唱	-11.539
唔会	-11.539
苦恼	-11.539
二号	-11.539
生日礼物	-11.5391
不合适	-11.5392
将就	-11.5392
有此	-11.5395
搭讪	-11.5397
奇葩	-11.5397
喇叭	-11.5397
承担	-11.5397
贪污	-11.5397
您老人家	-11.5397
气人	-11.5397
有多大	-11.5398
岗位	-11.5399
十六	-11.54
失业	-11.5401
专业人士	-11.5401
▁同样	-11.5402
想过	-11.5403
很重	-11.5403
丰满	-11.5403
华丽	-11.5404
不接	-11.5405
又可以	-11.5405
喉咙痛	-11.5406
做菜	-11.5408
我弟	-11.5411
▁周一	-11.5412
美眉	-11.5413
66	-11.5415
谁叫你	-11.5423
圆满	-11.5423
很香	-11.5425
是挺	-11.5425
分不清	-11.5429
童话	-11.543
这天	-11.5431
校内	-11.5431
哭吧	-11.5431
每月	-11.5433
一块儿	-11.5433
的主	-11.5434
那点	-11.5434
主义者	-11.5435
眼中	-11.5437
自带	-11.5437
上当	-11.5437
的口味	-11.5438
生理	-11.544
都难	-11.5442
▁多么	-11.5446
柱	-11.5446
也罢	-11.5448
打电话给我	-11.5449
最喜欢的	-11.5449
鉴	-11.545
天鹅	-11.545
水晶	-11.5451
要是能	-11.5452
彬	-11.5453
啰	-11.5453
拧	-11.5453
为人民服务	-11.5453
再接再厉	-11.5453
汉堡	-11.5454
我亲爱的	-11.5454
仍然	-11.5455
雪糕	-11.5455
安全感	-11.5457
南路	-11.5457
带你去吃	-11.5457
▁无论	-11.5458
▁我给你	-11.5459
们的	-11.5459
太夸张了	-11.546
不行吗	-11.5462
▁总之	-11.5462
极其	-11.5463
梅花	-11.5467
由于	-11.5469
真漂亮	-11.5469
这么开心	-11.547
想你们	-11.547
好看么	-11.5471
人事	-11.5472
行列	-11.5473
我等你	-11.5473
▁好样的	-11.5473
没电	-11.5473
的看法	-11.5473
三八	-11.5477
就是有点	-11.5477
吃烧烤	-11.5479
全国人民	-11.5479
红烧	-11.5482
要打	-11.5483
明天晚上	-11.5485
无良	-11.5486
▁就是因为	-11.5489
▁光	-11.5489
今年的	-11.5489
▁周日	-11.549
把他们	-11.5491
不然就	-11.5492
纯真	-11.5492
看到你的	-11.5493
带给你	-11.5495
王老师	-11.55
绿色的	-11.55
的那个人	-11.55
▁囧	-11.5502
吃早餐	-11.5503
有什么用	-11.5503
胆小	-11.5503
别吓我	-11.5504
发票	-11.5504
▁把你	-11.5505
发炎	-11.5507
芙蓉	-11.5507
手贱	-11.5509
好咯	-11.5509
地理	-11.551
香格里拉	-11.551
=。=	-11.5511
键盘	-11.5511
长寿	-11.5512
▁亲你	-11.5512
▁国家	-11.5512
停止	-11.5513
有效果	-11.5513
阿姐	-11.5515
我一直都	-11.5516
大象	-11.5517
就看到	-11.5517
相信爱情	-11.5518
亲爱	-11.5519
的狗狗	-11.5519
长胖	-11.5519
阻	-11.552
都差不多	-11.5522
点到	-11.5522
遇到过	-11.5522
珍藏	-11.5524
有风险	-11.5525
▁你不是说	-11.5527
被逼	-11.5527
有深度	-11.5528
二姐	-11.5528
很好奇	-11.5528
不能太	-11.5529
是哪位	-11.5529
凡事	-11.553
大伙	-11.553
厨	-11.5531
加你	-11.5531
我现在就	-11.5532
十年前	-11.5532
你一个人	-11.5532
不能让	-11.5533
前世	-11.5536
要是有	-11.5537
让人家	-11.5539
来接我	-11.554
这照片	-11.5541
伟哥	-11.5541
变形	-11.5542
饭局	-11.5544
才子	-11.5545
地说	-11.5546
绝对有	-11.5547
你就知道	-11.5548
还带	-11.5549
最主要	-11.555
远了	-11.5551
说句	-11.5551
硬是	-11.5551
火爆	-11.5554
老女人	-11.5555
种子	-11.5556
前往	-11.5556
大盘	-11.5558
只看到	-11.5559
百万	-11.5559
▁武汉	-11.5561
诚意	-11.5563
齿	-11.5563
标准的	-11.5564
裹	-11.5565
▁你看看	-11.5565
直到	-11.5566
入睡	-11.5566
铭	-11.5567
秃	-11.5568
潜伏	-11.5568
吃面	-11.5568
作弊	-11.5569
首映	-11.5569
金牛座	-11.557
名声	-11.5571
心碎了	-11.5572
公众	-11.5572
的秘密	-11.5572
你们这群	-11.5573
顾客	-11.5575
肥肉	-11.5575
突出	-11.5575
韩国人	-11.5577
模样	-11.5577
上去了	-11.5577
等着看	-11.5577
揍他	-11.5577
超赞	-11.5578
好这口	-11.5578
在日本	-11.5579
买菜	-11.558
光线	-11.558
阴影	-11.5582
没事吧	-11.5582
叫上我	-11.5582
脱了	-11.5583
很恶心	-11.5584
放手	-11.5584
管的	-11.5584
''	-11.5585
可以买	-11.5588
相约	-11.5588
250	-11.559
不帅	-11.5593
耳机	-11.5595
快活	-11.5596
山里	-11.56
上面的	-11.5601
你是个	-11.5602
多个	-11.5603
▁推荐	-11.5605
试一下	-11.561
太热了	-11.561
分了	-11.5611
又是一个	-11.5612
的时光	-11.5612
点左右	-11.5612
可可	-11.5614
看不下去了	-11.5615
▁我以前	-11.5617
炉	-11.5617
我伤心	-11.5618
夜店	-11.5618
域	-11.5618
说点	-11.5621
的是你	-11.5623
有福	-11.5623
好野	-11.5623
讯	-11.5623
蕾	-11.5624
到哪里去	-11.5626
滥	-11.5626
馄饨	-11.5626
冰激凌	-11.5626
变的	-11.5626
然后再	-11.5626
▁你也喜欢	-11.5628
蹭饭	-11.5629
▁我不喜欢	-11.5629
怕被	-11.5631
好耐	-11.5631
▁正好	-11.5632
▁那你是	-11.5634
你甘	-11.5634
出轨	-11.5635
不玩	-11.5635
一旦	-11.5635
▁当然不是	-11.5636
进展	-11.564
最早	-11.564
▁素	-11.5642
少少	-11.5642
牵挂	-11.5644
讨厌你	-11.5645
美吧	-11.5648
喜爱	-11.5648
大量	-11.565
没地方	-11.5651
公公	-11.5656
咱不	-11.5657
以后我	-11.5659
款式	-11.5661
▁心里	-11.5662
▁上午	-11.5662
融	-11.5662
二逼	-11.5663
也应该	-11.5663
▁什么东西	-11.5666
一如既往的	-11.5666
你噶	-11.5668
变成了	-11.5668
我比较喜欢	-11.567
我们自己	-11.5673
不用担心	-11.5676
公正	-11.5676
贵了	-11.5679
背着	-11.5679
羽	-11.5681
心了	-11.5682
▁谁知道	-11.5683
好丑	-11.5683
来电	-11.5683
吓唬	-11.5683
葬	-11.5684
衬衫	-11.5684
▁看过	-11.5684
受害者	-11.5685
长城	-11.5685
高清	-11.5687
也爱	-11.5687
军人	-11.5687
的人是	-11.5687
美剧	-11.5688
我之前	-11.5688
绿豆	-11.569
欣慰	-11.5691
怎么知道	-11.5693
轻度	-11.5693
身材好	-11.5695
睡醒了	-11.5696
我要看	-11.5697
▁什么啊	-11.5697
▁生日快乐哦	-11.5699
去西藏	-11.5699
好评	-11.57
回京	-11.5702
走起来	-11.5703
等我回去	-11.5704
非常喜欢	-11.5705
读者	-11.5706
关心我	-11.5706
前者	-11.5711
忙啊	-11.5711
太开心了	-11.5712
我和你	-11.5712
▁坚持	-11.5713
▁多谢支持	-11.5716
98	-11.5716
完全不	-11.5718
唉唉	-11.5718
36	-11.5719
寡	-11.5719
三分	-11.572
女银	-11.572
好点了	-11.5721
是他们	-11.5722
▁是撒	-11.5725
肚子痛	-11.5726
努力的	-11.5726
到来	-11.5726
上大学	-11.5728
系边	-11.5728
猜到	-11.573
不好好	-11.5731
去厦门	-11.5731
嗲的	-11.5731
咩事	-11.5732
俺是	-11.5733
的是我	-11.5735
少喝点	-11.5736
能说	-11.5738
下大雨	-11.5741
袭	-11.5742
明信片	-11.5742
铲	-11.5742
—	-11.5742
双胞胎	-11.5742
眯	-11.5742
三文鱼	-11.5742
珍珠	-11.5743
展览	-11.5743
说我们	-11.5743
94	-11.5744
粗口	-11.5745
▁我最	-11.5745
我妈说	-11.5747
个子	-11.5748
例外	-11.5748
梦幻	-11.5748
▁吃货	-11.5749
▁有人说	-11.5751
▁我只能说	-11.5752
实在不行	-11.5752
当场	-11.5754
欢迎欢迎	-11.5755
太久了	-11.5755
▁嗯哼	-11.5757
任何人	-11.5758
在厦门	-11.5758
您也	-11.5759
你那个	-11.5759
咋就	-11.576
要加油	-11.5761
长肉	-11.5762
有朋友	-11.5762
中国人民	-11.5764
同类	-11.5765
滩	-11.5765
都看	-11.5765
增长	-11.5766
人家都	-11.5766
我都觉得	-11.5766
的产品	-11.5766
就是他	-11.5766
取消关注	-11.5767
风流	-11.5767
小红	-11.5768
确实有点	-11.5769
文采	-11.577
一包	-11.577
▁恭喜啊	-11.577
爱听	-11.5772
我想你	-11.5772
▁又一个	-11.5772
▁我还真	-11.5776
灵的	-11.5776
5000	-11.5778
果真	-11.5778
晚上去	-11.5778
▁多谢你	-11.5779
就没了	-11.5779
最美的	-11.578
走着	-11.5781
邪恶的	-11.5783
这可是	-11.5785
际	-11.5785
修改	-11.5786
奈	-11.5789
▁新浪	-11.5789
涉	-11.5789
超级喜欢	-11.579
完整	-11.5795
怎么会有	-11.5795
光顾	-11.5797
有点累	-11.5799
校服	-11.5799
才是最	-11.5801
敷	-11.5801
人和	-11.5801
凝	-11.5801
代表月亮消灭	-11.5801
无能为力	-11.5801
脂	-11.5801
敬请期待	-11.5801
阶级	-11.5801
愚蠢	-11.5802
个男人	-11.5802
侵犯	-11.5802
还没睡啊	-11.5803
凄惨	-11.5803
▁哈哈好的	-11.5803
戒烟	-11.5804
疑问	-11.5805
默	-11.5805
关注一下	-11.5805
刘总	-11.5806
▁可不是	-11.5806
要怎么	-11.5806
不太清楚	-11.5807
我在家	-11.5808
锤子	-11.5808
公斤	-11.5809
岂不	-11.5809
干过	-11.5809
▁没想到	-11.581
位数	-11.581
怎么感觉	-11.581
来讲	-11.581
配音	-11.5811
▁我估计	-11.5814
也蛮	-11.5815
爱的人	-11.5815
张老师	-11.5817
农历	-11.5818
午	-11.582
就快	-11.5821
长久	-11.5821
▁我认为	-11.5821
大婶	-11.5822
原理	-11.5822
文科	-11.5825
不适应	-11.5827
下月	-11.583
不合	-11.5833
▁啥情况	-11.5835
的技术	-11.5837
赤裸裸	-11.5838
俩人	-11.5838
▁学习	-11.5838
的比赛	-11.5839
小明	-11.5839
适合我	-11.584
椒	-11.5843
▁头像	-11.5844
吃宵夜	-11.5847
玩呢	-11.5847
我也很	-11.5848
拍拖	-11.5848
必须滴	-11.5848
剪短	-11.5849
太早	-11.585
太重了	-11.5851
枕	-11.5851
点嘛	-11.5851
▁好看吗	-11.5853
不说话	-11.5853
把这个	-11.5854
▁一起加油	-11.5854
自习	-11.5856
不值钱	-11.5856
下我	-11.5858
希望她	-11.586
眼花	-11.586
听你的	-11.586
糟蹋	-11.5861
▁上面	-11.5862
不辣	-11.5862
反正你	-11.5863
闭嘴	-11.5863
这么漂亮	-11.5864
好好照顾自己	-11.5867
我郁闷	-11.5867
心虚	-11.5867
的性格	-11.5867
啧啧	-11.5867
破产	-11.5868
人吗	-11.5868
的星座	-11.5868
领取	-11.5868
▁呜	-11.5868
不赖	-11.5869
最低	-11.5869
上演	-11.587
我曾经	-11.5871
你们公司	-11.5871
▁叼你	-11.5874
不然怎么	-11.5875
打他	-11.5876
星期二	-11.5876
的那些	-11.5877
怎么搞的	-11.5878
练练	-11.588
点钟	-11.588
重了	-11.5881
牛人	-11.5881
▁天朝	-11.5885
是啊是啊	-11.5888
▁没事儿	-11.5888
决定了	-11.5888
面孔	-11.5889
起身	-11.5889
花样	-11.589
小女子	-11.5891
▁那还	-11.5896
后门	-11.5897
一秒	-11.5897
越好	-11.5898
有难度	-11.5898
牧	-11.59
偶然	-11.59
蛋黄	-11.59
救我	-11.5901
不痛	-11.5901
到几点	-11.5902
跟你一起	-11.5904
▁会不会	-11.5906
的未来	-11.5908
这么认为	-11.5908
就成了	-11.5909
撸	-11.5909
▁看来是	-11.5911
的不得了	-11.5913
开头	-11.5915
那是必须的	-11.5915
没买	-11.5917
去屎	-11.5917
我打算	-11.5918
你在哪里	-11.5919
垮	-11.592
枫	-11.592
藕	-11.592
去杭州	-11.592
承诺	-11.592
文人	-11.5921
▁要得	-11.5921
认了	-11.5922
还好我	-11.5923
指标	-11.5924
今天刚	-11.5925
狗日的	-11.5925
一样一样	-11.5925
力度	-11.5925
常来	-11.5926
原文	-11.5926
无奈了	-11.5926
不改	-11.5926
毁灭	-11.5928
+1	-11.5931
太过	-11.5932
我恨你	-11.5934
多想	-11.5934
▁饿	-11.5935
以外	-11.5936
百合	-11.5937
搭理	-11.5939
你说你	-11.5939
我买了	-11.5939
的好不好	-11.5939
打着	-11.594
的价格	-11.5942
那是我	-11.5944
裸照	-11.5945
晒幸福	-11.5948
合同	-11.595
怀念啊	-11.5951
▁你的头像	-11.5951
必须有	-11.5951
情趣	-11.5952
▁那肯定	-11.5952
不嫌	-11.5952
抓紧时间	-11.5954
小龙虾	-11.5955
直接把	-11.5956
离别	-11.5956
多半	-11.5957
的动力	-11.5958
她在	-11.5958
巧合	-11.5959
叫小	-11.5959
天啊	-11.5959
好睇	-11.596
▁孙	-11.5966
虹桥	-11.5967
有啥好	-11.5967
我擦	-11.5967
不正经	-11.5967
予	-11.5969
混血	-11.5969
好羡慕	-11.597
当个	-11.597
房产	-11.5971
就走	-11.5971
▁我都系	-11.5971
一起努力	-11.5971
不要脸的	-11.5972
孽	-11.5973
电脑上	-11.5975
▁这家	-11.5975
借你	-11.5975
撒娇	-11.5975
都还没	-11.5977
你讲	-11.5977
二奶	-11.5978
▁买了	-11.5979
钱了	-11.5979
曰	-11.598
坎坷	-11.598
酝酿	-11.598
璇	-11.598
敬佩	-11.598
姊妹	-11.598
阴谋	-11.598
疯狂的	-11.5981
多穿点	-11.5986
各地	-11.5986
什么样	-11.5986
加油哈	-11.5987
无穷	-11.5987
权威	-11.5988
95	-11.5989
话说你	-11.5991
领养	-11.5991
▁我想知道	-11.5991
包容	-11.5992
晶晶	-11.5992
摆脱	-11.5993
▁好怀念	-11.5994
日记	-11.5995
你就会	-11.5997
个名	-11.5999
今天中午	-11.5999
▁为什么是	-11.5999
梗	-11.6001
院的	-11.6001
▁这个不是	-11.6002
拿下	-11.6006
胸部	-11.6007
不要说	-11.6007
让我想起	-11.6008
不认	-11.6009
听课	-11.6009
我心情	-11.601
刷牙	-11.6011
上街	-11.6011
▁是的呢	-11.6011
是种	-11.6011
场子	-11.6012
照片上	-11.6013
▁你在哪	-11.6014
还小	-11.6014
震惊	-11.6016
雨中	-11.6017
昨天还	-11.6017
瑟	-11.6018
都不好意思	-11.6018
的游戏	-11.6019
这么快就	-11.602
能让	-11.6021
的音乐	-11.6022
你妈逼	-11.6022
不进	-11.6023
不介意	-11.6028
▁你肯定	-11.6028
大脸	-11.6029
不符合	-11.6029
复制	-11.603
熏	-11.6031
老妹	-11.6032
你明天	-11.6033
地板	-11.6034
小镇	-11.6034
大赛	-11.6036
我想你了	-11.6039
待会	-11.604
愣	-11.604
廖	-11.604
传媒	-11.604
综合症	-11.604
馅	-11.6041
侄子	-11.6041
黑莓	-11.6041
▁对阿	-11.6041
洋葱	-11.6042
寿星	-11.6042
▁很遗憾	-11.6043
心烦	-11.6044
早早	-11.6045
你当	-11.6046
的眼泪	-11.6047
组队	-11.6049
有食欲	-11.6049
看得到	-11.605
风吹	-11.605
言语	-11.605
不值	-11.6051
深深	-11.6052
想把	-11.6052
出血	-11.6053
也差不多	-11.6053
必需	-11.6054
这么可怜	-11.6056
▁严重	-11.6057
上班的	-11.6057
给我看看	-11.6058
这一点	-11.6059
▁关于	-11.6059
求真相	-11.6061
其实我也	-11.6064
你还想	-11.6064
了伐	-11.6067
中有	-11.6068
飞的	-11.6068
▁你又不	-11.6069
▁苏	-11.6069
值得一看	-11.607
都算	-11.607
坐了	-11.607
全场	-11.6071
反正我是	-11.6071
你叫我	-11.6072
高二	-11.6073
我无	-11.6074
或是	-11.6076
拍死	-11.6076
▁幸福的	-11.6077
她还	-11.6077
▁你咋不	-11.6078
▁怎么个	-11.6079
没有我	-11.608
女仔	-11.6081
部位	-11.6082
车票	-11.6083
的人了	-11.6083
▁这也是	-11.6083
过完	-11.6084
也觉得	-11.6085
欺	-11.6085
啥样	-11.6085
央	-11.6087
会让	-11.6091
打飞机	-11.6092
走啊	-11.6094
正确的	-11.6094
的美好	-11.6095
分享一下	-11.6095
浇	-11.6096
喊他	-11.6096
序	-11.6097
在南京	-11.6098
师太	-11.6098
做给你吃	-11.6099
饭堂	-11.6099
钩	-11.61
所以你	-11.6101
雁	-11.6101
氛围	-11.6101
蓬	-11.6101
见者有份	-11.6101
霸气外露	-11.6101
采购	-11.6101
筷子	-11.6101
这是一个	-11.6102
哭泣	-11.6103
或者是	-11.6104
森林	-11.6104
昨儿	-11.6105
相遇	-11.6105
特征	-11.6107
世博	-11.6107
哪里来的	-11.6109
朋友说	-11.6109
辛苦啊	-11.6109
几年前	-11.611
被迫	-11.6111
找你们	-11.6112
▁胡	-11.6112
以来	-11.6113
都不够	-11.6113
后悔没	-11.6115
心理学	-11.6116
那么帅	-11.6116
之下	-11.6116
▁我我我	-11.6117
省了	-11.6117
这话说的	-11.6118
都敢	-11.6119
去吃饭	-11.6119
后就	-11.612
是谁呀	-11.6121
的青春	-11.6121
▁姐姐你	-11.6123
5555555	-11.6123
高尚	-11.6124
我带	-11.6125
次了	-11.6126
特权	-11.6127
不及	-11.613
喜欢我	-11.613
小美	-11.6131
明天中午	-11.6131
复活	-11.6132
▁最讨厌	-11.6133
好爽	-11.6133
我老	-11.6135
来噶	-11.6136
机关	-11.6136
用这个	-11.6136
观看	-11.6137
想睡	-11.614
洋洋	-11.614
材	-11.6141
我晕	-11.6143
来到	-11.6144
天亮	-11.6148
写错了	-11.6148
好几天	-11.615
说明我	-11.6152
摄	-11.6153
中饭	-11.6154
变态的	-11.6154
茶叶	-11.6156
出自	-11.6156
喝得	-11.6157
死得	-11.6159
背着我	-11.6159
▁我还是喜欢	-11.616
淮	-11.6162
眼线	-11.6162
▁有啥	-11.6162
有车	-11.6164
传销	-11.6164
有家	-11.6164
还好吗	-11.6165
那么美	-11.6165
▁20	-11.6166
笼	-11.6167
▁好喜欢	-11.6168
太不厚道了	-11.6168
▁是在	-11.617
失去了	-11.617
这个颜色	-11.6171
▁上帝	-11.6171
▁什么什么	-11.6172
怕啥	-11.6172
可怕的	-11.6173
惨啊	-11.6174
▁地址	-11.6179
可以当	-11.618
迫	-11.618
会做饭	-11.6181
打不开	-11.6182
在下	-11.6182
袖	-11.6186
就想到	-11.6186
身边的	-11.6187
三千	-11.6188
总会有	-11.619
式的	-11.619
还多	-11.6192
一流	-11.6192
脸皮	-11.6194
多大了	-11.6196
也不敢	-11.6198
我屋企	-11.6198
一项	-11.6198
▁嘿嘿谢谢	-11.6199
点东西	-11.62
▁你肿么	-11.6201
定的	-11.6201
窗户	-11.6202
级的	-11.6204
没有关系	-11.6204
话你	-11.6206
恁	-11.6208
造假	-11.6208
会是	-11.6209
河蟹	-11.6212
更难	-11.6212
的心声	-11.6212
不下来	-11.6215
你说话	-11.6216
也算是	-11.6216
也不容易	-11.6217
披	-11.6217
太搞了	-11.6217
去掉	-11.6218
援	-11.6218
▁可惜啊	-11.6219
▁有可能	-11.6219
骏	-11.6223
妩媚	-11.6223
瞪	-11.6223
嘟嘟	-11.6223
切磋	-11.6223
同乐同乐	-11.6223
五系	-11.6223
救命	-11.6224
运营	-11.6224
的做法	-11.6224
不带我	-11.6224
眼睛都	-11.6224
期盼	-11.6225
医生说	-11.6225
不想去	-11.6226
怪怪的	-11.6226
页面	-11.6227
找你玩	-11.6227
体质	-11.6228
应该说	-11.6228
带的	-11.6229
和我一起	-11.6232
一贯	-11.6233
明智	-11.6234
其他都	-11.6236
监管	-11.6238
人工	-11.6239
现场直播	-11.6239
▁怎么感觉	-11.624
依据	-11.624
你们还	-11.6241
鸡鸡	-11.6241
穿得	-11.6242
第几	-11.6242
▁我倒	-11.6243
可爱吧	-11.6243
溜达	-11.6243
一定有	-11.6246
恨你	-11.6248
就算是	-11.625
不爱吃	-11.625
是猪	-11.625
好有爱	-11.6251
一头	-11.6252
▁阿拉	-11.6255
总结的	-11.6255
▁这张照片	-11.6255
这几个	-11.6255
犯了	-11.6255
的字	-11.6256
大名	-11.6261
低落	-11.6261
出身	-11.6262
才算	-11.6263
活活	-11.6264
去拍	-11.6264
本色	-11.6264
还叫	-11.6264
再买	-11.6268
台上	-11.6269
臭臭	-11.627
恩爱	-11.627
讲课	-11.6271
▁在中国	-11.6272
醒目	-11.6274
就是没有	-11.6274
呼叫	-11.6275
不下去	-11.6276
占了	-11.6277
翼	-11.6278
大门	-11.6278
▁悲剧啊	-11.6278
哭得	-11.6279
非常的	-11.628
伏	-11.6281
变相	-11.6281
的一天	-11.6282
偿	-11.6283
陀	-11.6284
嗒	-11.6284
嫖	-11.6285
频繁	-11.6285
痕迹	-11.6285
发到	-11.6285
监控	-11.6286
陈老师	-11.6287
▁你这么	-11.6288
我只知道	-11.6289
只狗	-11.6289
要跟	-11.6291
帐号	-11.6292
皇马	-11.6292
已经没有	-11.6293
自愿	-11.6294
苦瓜	-11.6294
你请我	-11.6294
累得	-11.6295
世界杯	-11.63
我从	-11.63
还活着	-11.6303
▁还好吧	-11.6305
没出息	-11.6305
应该在	-11.6308
安安	-11.6308
建立	-11.6308
的份	-11.6308
别提了	-11.631
保重身体	-11.6311
想见	-11.6311
看不清楚	-11.6311
之类	-11.6313
如果有	-11.6315
这个星期	-11.6316
女婿	-11.6317
应该不是	-11.6317
双手	-11.6319
好学生	-11.6319
专用	-11.632
我都喜欢	-11.632
二手	-11.6321
伤到	-11.6322
▁不喜欢	-11.6323
一星期	-11.6324
夜生活	-11.6326
▁我早就	-11.6328
木有办法	-11.6328
就来了	-11.6329
好多年	-11.6329
▁赵	-11.633
沿	-11.633
区的	-11.6331
海里	-11.6331
感觉不错	-11.6332
不负责任	-11.6332
亏了	-11.6332
▁我晓得	-11.6333
有神马	-11.6335
生日快乐哈	-11.6335
彩票	-11.6336
▁你到底	-11.6336
造成的	-11.6338
就剩	-11.6338
没被	-11.6338
祝我	-11.6339
要淡定	-11.6341
89	-11.6342
该死	-11.6343
好吃啊	-11.6343
▁非	-11.6343
大巴	-11.6344
外地人	-11.6345
有的人	-11.6346
蜘蛛	-11.6347
msn	-11.6347
屏蔽	-11.6347
羡慕妒忌恨	-11.6347
蝶	-11.6347
延误	-11.6347
钞票	-11.6347
仪式	-11.6348
标题	-11.6348
儿童节	-11.6349
被别人	-11.6349
有关部门	-11.6349
点算	-11.6349
橘子	-11.6351
冷漠	-11.6352
油菜花	-11.6352
今朝	-11.6354
漂漂	-11.6354
学费	-11.6355
动画	-11.6355
工地	-11.6356
▁真想	-11.6357
烦了	-11.6358
弱弱	-11.6359
派对	-11.6359
我不能	-11.636
都开始	-11.6361
眼袋	-11.6362
做的事	-11.6364
爽的	-11.6364
和谐社会	-11.6365
你让我	-11.6366
天理	-11.6366
被和谐	-11.6366
喝喝	-11.6368
不嘛	-11.6368
▁我也希望	-11.6369
39	-11.637
歌迷	-11.637
么亲	-11.6371
▁今儿	-11.6371
洗脑	-11.6373
的目的	-11.6373
3000	-11.6374
看病	-11.6376
礼品	-11.6376
就变成	-11.6377
小学生	-11.6378
▁那个是	-11.6379
总是那么	-11.6379
清白	-11.6381
风光	-11.6381
我也很喜欢	-11.6382
▁你为什么	-11.6382
的飘过	-11.6383
吓死我	-11.6384
▁非常好	-11.6384
打倒	-11.6387
件事	-11.6388
很久没有	-11.6388
时机	-11.6389
没见到	-11.6389
▁咳	-11.639
光棍节	-11.6391
不停的	-11.6391
挺好吃的	-11.6391
小组	-11.6391
其中一个	-11.6392
▁所谓	-11.6392
2.	-11.6392
▁你啥时候	-11.6394
在医院	-11.6395
未知	-11.6398
小心被	-11.6399
侮辱我	-11.6401
径	-11.6402
被偷	-11.6403
哦耶	-11.6405
队员	-11.6405
迹	-11.6406
街上	-11.6406
别让	-11.6407
去当	-11.6407
该怎么	-11.6408
▁很喜欢	-11.6409
瑶	-11.6409
不冷	-11.6409
芝士	-11.641
若曦	-11.641
便秘	-11.641
纸巾	-11.641
啥子嘛	-11.641
脸蛋	-11.6411
说这个	-11.6412
四天	-11.6412
浮夸	-11.6412
好耍	-11.6412
预言	-11.6412
▁天气	-11.6412
'''	-11.6412
抹茶	-11.6413
杯具啊	-11.6413
▁这是谁	-11.6413
就有了	-11.6415
的勇气	-11.6415
引导	-11.6415
降低	-11.6415
▁开玩笑	-11.6416
得人	-11.6417
教导	-11.6418
肠胃	-11.642
▁这样啊	-11.642
耗子	-11.6421
国庆节	-11.6423
知道就好	-11.6423
不留	-11.6423
无聊了	-11.6425
的类	-11.6425
记住了	-11.643
录像	-11.643
我现在都	-11.6431
支持我	-11.6432
▁肥	-11.6432
想要的	-11.6432
发烧了	-11.6433
那天我	-11.6433
▁那不	-11.6435
想听	-11.6435
神马情况	-11.6436
出席	-11.6437
心得	-11.6437
点开始	-11.6439
批发	-11.644
中国队	-11.644
湿了	-11.6441
在一个	-11.6442
的话我	-11.6443
阿弥陀佛	-11.6444
分明	-11.6445
▁不就是	-11.6445
来参加	-11.6445
盘子	-11.6446
唔洗	-11.6446
发围脖	-11.6446
▁嫩	-11.6446
在你身边	-11.6447
很不好	-11.6447
▁我们要	-11.6448
不容	-11.6449
坨	-11.6449
的士	-11.6449
▁我说你	-11.6449
嫩个	-11.645
身为	-11.645
帮她	-11.6451
像不像	-11.6452
▁流氓	-11.6452
不用上班	-11.6453
改进	-11.6453
两周	-11.6454
把这	-11.6456
坐过	-11.6457
吓死你	-11.6457
神啊	-11.6458
的生命	-11.6458
万科	-11.6459
建议你	-11.6459
高潮	-11.6461
私信给我	-11.6464
周公	-11.6465
认出	-11.6465
最开心	-11.6466
不得不说	-11.6466
年前的	-11.6466
看着就	-11.6467
什么什么	-11.647
的智商	-11.6471
啧	-11.6472
与时俱进	-11.6472
自欺欺人	-11.6472
不知不觉	-11.6472
欠我	-11.6472
背叛	-11.6472
结构	-11.6473
都不晓得	-11.6473
领域	-11.6473
财产	-11.6475
不让你	-11.6475
▁猫	-11.6476
手信	-11.6476
算你	-11.6478
背心	-11.6481
美人鱼	-11.6482
前提	-11.6483
▁你去死	-11.6483
流水	-11.6483
坐火车	-11.6483
模型	-11.6483
桑心了	-11.6484
大美妞	-11.6484
小腿	-11.6485
很有意思	-11.6485
靠自己	-11.6486
东京	-11.6487
▁我的意思是	-11.6487
两边	-11.6489
挺漂亮的	-11.6489
抽空	-11.6489
车车	-11.6491
▁希望能	-11.6493
再发	-11.6494
网球	-11.6495
耍了	-11.6496
的小朋友	-11.6496
知你	-11.6497
死活	-11.6497
▁这个人	-11.65
排练	-11.65
嘘	-11.6504
谁会	-11.6504
嫌弃我	-11.6506
跟我抢	-11.6507
恒大	-11.6507
得不到	-11.6507
▁无语	-11.6509
活儿	-11.6509
阁	-11.651
逼你	-11.651
▁昨天晚上	-11.651
时间地点	-11.6511
的后果	-11.6512
改造	-11.6512
▁根据	-11.6514
要先	-11.6516
这是你	-11.6516
祝福你们	-11.6517
每年都	-11.6518
壁	-11.652
演戏	-11.6522
▁胖子	-11.6522
生日啊	-11.6522
回成都	-11.6522
我们现在	-11.6527
明天还要	-11.653
该怎么办	-11.6532
搞到我	-11.6532
我见过	-11.6532
▁有钱人	-11.6533
么事	-11.6533
菇	-11.6533
诈	-11.6533
出声	-11.6534
▁不要太	-11.6534
结婚的	-11.6534
辱	-11.6535
棚	-11.6535
剁	-11.6535
喏	-11.6535
滞	-11.6535
萱	-11.6535
高尔夫	-11.6535
蜡烛	-11.6536
膝盖	-11.6536
忠诚	-11.6536
截止	-11.6536
桂花	-11.6536
是不错	-11.6537
▁原来你是	-11.6537
超想	-11.6538
国贸	-11.6538
▁起码	-11.6538
你到底	-11.6538
纠正	-11.6539
海口	-11.6539
过奖	-11.6542
我当	-11.6543
就够	-11.6543
我还有	-11.6548
西装	-11.6548
额头	-11.6549
说得对	-11.6549
扯蛋	-11.6553
还不行	-11.6553
内衣	-11.6553
▁又不是	-11.6553
技能	-11.6554
巴西	-11.6554
还以为你	-11.6556
我一定会	-11.6556
那么瘦	-11.6557
会把	-11.6557
从哪	-11.6558
养成	-11.6559
早上起来	-11.6561
希望我	-11.6562
手表	-11.6563
我怕你	-11.6563
颇	-11.6564
乡村	-11.6564
超哥	-11.6568
全程	-11.6569
远远	-11.6571
还有这	-11.6571
飞行	-11.6573
的货	-11.6573
看人家	-11.6574
▁请注意	-11.6576
也没什么	-11.6576
多少钱啊	-11.6577
看照片	-11.6577
名牌	-11.6578
闲着	-11.6579
相当不错	-11.6579
假象	-11.658
领导人	-11.658
▁耶	-11.658
记着	-11.6581
好好笑	-11.6581
大红	-11.6582
你们在	-11.6583
呆了	-11.6585
▁我就说	-11.6588
较真	-11.6588
抽风	-11.6588
见笑了	-11.6589
不喊我	-11.659
勺	-11.6593
金毛	-11.6593
▁蛮	-11.6595
上瘾	-11.6595
国情	-11.6596
束	-11.6596
完全没有	-11.6596
睡觉去	-11.6597
这是怎么了	-11.6597
介绍个	-11.6597
真难	-11.6597
▁原来我	-11.6598
谴责	-11.6598
台北	-11.6599
荔枝	-11.6599
▁我很喜欢	-11.66
这么夸张	-11.6601
赚了	-11.6601
晚上就	-11.6601
住宿	-11.6601
低碳	-11.6601
弥补	-11.6602
报仇	-11.6602
偏偏	-11.6603
你想多了	-11.6603
椅子	-11.6603
启动	-11.6605
最痛苦	-11.6606
扮演	-11.6608
释放	-11.661
剧透	-11.661
过啦	-11.6611
挺像	-11.6612
▁我以为是	-11.6612
最后一天	-11.6614
在这儿	-11.6615
过奖了	-11.6615
交代	-11.6617
左边的	-11.6617
速速	-11.6619
搞不清楚	-11.6619
出名了	-11.662
▁不错哦	-11.662
不敢看	-11.662
网吧	-11.6621
米兰	-11.6625
痛死了	-11.6629
才到	-11.663
两个小时	-11.6633
也许是	-11.6634
的信息	-11.6636
必有	-11.6636
很准	-11.6636
▁我比较	-11.6636
命啊	-11.6636
累呀	-11.6636
发行	-11.6638
终于有	-11.6638
可怜我	-11.6638
联系我	-11.6638
很恐怖	-11.6638
想喝	-11.6639
▁一看就是	-11.6639
▁我更	-11.664
现在流行	-11.664
不理你了	-11.6641
伤心事	-11.6642
逼着	-11.6644
我们有	-11.6645
▁你是想	-11.6645
学我	-11.6646
看得我	-11.6648
上山	-11.6648
看待	-11.6648
咱妈	-11.665
我国	-11.6652
不下去了	-11.6652
▁姐姐我	-11.6653
▁啥叫	-11.6656
后再	-11.6656
鸟人	-11.6658
开空调	-11.6659
贸	-11.6659
桑不起	-11.666
不见你	-11.6661
装饰	-11.6661
就是不知道	-11.6662
▁还不	-11.6662
好几次	-11.6662
卑鄙	-11.6663
奔驰	-11.6664
羽毛球	-11.6664
共鸣	-11.6664
要注意身体	-11.6665
区域	-11.6665
吃大餐	-11.6665
录取	-11.6668
有待	-11.6668
看得出	-11.667
反正我信	-11.667
看什么	-11.667
粉红	-11.6671
大户	-11.6673
生死	-11.6674
陈总	-11.6674
▁看出来了	-11.6675
冒泡	-11.6677
下楼	-11.6678
谁叫	-11.6679
厚道	-11.6684
臂	-11.6686
给我留	-11.6687
就只能	-11.6689
▁我已	-11.6693
发过	-11.6694
就买	-11.6694
唔识	-11.6694
▁热烈欢迎	-11.6697
吃鱼	-11.6697
▁那你要	-11.6703
炸了	-11.6703
伤口	-11.6704
来看你	-11.6704
▁我爸	-11.6704
人生的	-11.6704
她家	-11.6705
很不	-11.6705
很好看的	-11.6706
终于有人	-11.6707
我电话	-11.6707
改行	-11.671
买卖	-11.6711
▁最喜欢	-11.6711
希望我们	-11.6712
我请	-11.6712
▁天蝎	-11.6712
有小	-11.6713
五天	-11.6714
▁要不要这么	-11.6715
我实在	-11.6715
的责任	-11.6717
▁沙发	-11.6718
李老师	-11.672
正解	-11.6721
携	-11.6721
辩	-11.6721
小黄	-11.6722
工作啊	-11.6722
的水	-11.6722
费劲	-11.6724
北京人	-11.6724
▁第二	-11.6724
不好吗	-11.6724
▁是因为	-11.6724
大概是	-11.6726
茅	-11.6726
郁	-11.6727
仿	-11.6727
杭	-11.6727
睬	-11.6728
辉煌	-11.6728
瞅瞅	-11.6728
猖狂	-11.6728
晋级	-11.6729
便便	-11.6731
起步	-11.6732
好像没有	-11.6734
精灵	-11.6734
全部都	-11.6734
是传说中的	-11.6735
又不能	-11.6736
分裂	-11.6737
时不时	-11.6738
再过	-11.6739
▁但是我	-11.6739
我找	-11.674
记得带	-11.6741
▁傻逼	-11.6741
学弟	-11.6741
美术	-11.6742
例子	-11.6742
吓着	-11.6745
得很好	-11.6745
不至于吧	-11.6746
吃嘛	-11.6747
搞定了	-11.6748
无所	-11.6749
饭碗	-11.6749
具体时间	-11.675
等你来	-11.675
自称	-11.6752
的到来	-11.6752
长头发	-11.6753
哥也	-11.6753
今天生日	-11.6754
煮饭	-11.6754
晕晕	-11.6755
吃月饼	-11.6755
早班	-11.6756
还会有	-11.6756
的风景	-11.6757
有益	-11.6757
你们班	-11.6758
章鱼	-11.6758
去现场	-11.6759
小日子	-11.6759
强的	-11.676
浪费时间	-11.676
▁你太坏了	-11.6761
▁你的意思是	-11.6761
▁亲爱滴	-11.6763
理工	-11.6765
我认为	-11.6767
黄河	-11.6768
心境	-11.6768
▁单身	-11.6769
公安局	-11.677
佳人	-11.6771
一个地方	-11.6771
的地盘	-11.6771
手法	-11.6773
▁我想去	-11.6773
修好	-11.6775
否定	-11.6775
轨	-11.6779
低级	-11.678
述	-11.6782
寂寞啊	-11.6783
▁快去	-11.6783
赶紧去	-11.6786
你是在	-11.6788
得要死	-11.6788
没用的	-11.6788
的就是你	-11.6788
高层	-11.679
安检	-11.679
乱说话	-11.679
会有人	-11.679
闻到	-11.6791
哎呦	-11.6792
▁不信	-11.6792
车牌	-11.6792
搂	-11.6793
菲律宾	-11.6793
光明正大	-11.6793
祈福	-11.6793
你不能	-11.6794
预防	-11.6795
重要的	-11.6795
要感谢	-11.6795
蝎子	-11.6795
肯定不会	-11.6796
脚下	-11.6796
良好	-11.6796
给了	-11.6797
多一点	-11.6799
是福	-11.6799
道具	-11.68
▁真的假的啊	-11.68
红歌	-11.6801
急死	-11.6801
太忙了	-11.6803
了解你	-11.6803
比不上	-11.6803
强制	-11.6806
你女儿	-11.6806
下一次	-11.6806
▁非常感谢	-11.6808
▁就知道	-11.6809
正版	-11.6811
收养	-11.6812
高啊	-11.6813
一大早就	-11.6813
▁谢谢亲	-11.6814
▁谢谢夸奖	-11.6815
美少女	-11.6815
▁敢问	-11.6816
钱多	-11.6816
▁无奈	-11.6817
▁假	-11.6818
▁现实	-11.6819
解说	-11.6819
宅女	-11.682
来一个	-11.6822
说起	-11.6823
我弟弟	-11.6824
▁加油哦	-11.6825
奔三	-11.6825
太容易	-11.6825
掐死	-11.6826
有这么多	-11.6827
丁丁	-11.6827
研究研究	-11.6828
刚到家	-11.6828
我同意	-11.6828
出钱	-11.6829
口袋	-11.6829
上去的	-11.6829
越是	-11.683
仔仔	-11.6831
说吧	-11.6832
点小	-11.6832
是时候	-11.6832
票价	-11.6833
人话	-11.6834
外人	-11.6834
只怕	-11.6835
150	-11.6836
很经典	-11.6836
你知道的	-11.684
▁还有我	-11.684
她就	-11.6844
小公主	-11.6845
莲花	-11.6845
▁蔡	-11.6845
来不及了	-11.6845
▁鄙视你	-11.6845
你也一样	-11.6846
▁一看就知道	-11.6846
▁唔好	-11.6847
吓到了	-11.6848
给我发	-11.6848
阿里	-11.6849
不明显	-11.6851
贞	-11.6852
▁生快	-11.6852
对你的	-11.6852
陵	-11.6855
邀	-11.6856
今天要	-11.6856
不尊重	-11.6857
毛泽东	-11.6857
璐	-11.6858
的发展	-11.6858
坝	-11.6858
难不成	-11.6858
▁喔唷	-11.6858
频率	-11.6858
联盟	-11.6859
顺序	-11.6859
一刀	-11.6859
冲突	-11.6859
栏目	-11.686
故宫	-11.686
你确定	-11.686
三楼	-11.6861
可行	-11.6861
上班呢	-11.6862
很酷	-11.6863
看人	-11.6864
八戒	-11.6867
你话	-11.6868
有些东西	-11.687
身子	-11.6871
东哥	-11.6872
群体	-11.6872
▁中秋快乐	-11.6873
货色	-11.6873
要坚持	-11.6874
不搭	-11.6875
我刚才	-11.6875
一个男人	-11.6876
▁我妈说	-11.6876
的时候也	-11.6877
的手艺	-11.6877
流血	-11.6877
负责任	-11.688
海滩	-11.688
富人	-11.688
好女人	-11.688
赠送	-11.6881
▁正是	-11.6881
那个地方	-11.6881
交换	-11.6881
污蔑	-11.6883
▁我好像	-11.6883
提起	-11.6883
不见得	-11.6884
不加	-11.6884
▁小样	-11.6885
高科技	-11.6887
帮你们	-11.6888
的任务	-11.6889
的错	-11.6889
后宫	-11.6893
到不行	-11.6893
你头像	-11.6893
五星	-11.6894
就是我的	-11.6894
真的会	-11.6896
相当于	-11.6896
水了	-11.6899
的境界	-11.6899
我爸爸	-11.69
我再也不	-11.69
很感人	-11.6901
引发	-11.6902
一点不	-11.6906
保佑你	-11.6907
一桌	-11.6907
要学	-11.6912
理科	-11.6912
难道不是	-11.6912
工业	-11.6913
梯	-11.6914
而且还是	-11.6915
下次要	-11.6916
彼此彼此	-11.6916
绳	-11.6917
就知	-11.6917
▁这是啥	-11.6918
咬我	-11.692
前方	-11.6921
悠	-11.6921
熙	-11.6921
什么时候开始	-11.6921
康复	-11.6921
奋	-11.6921
狐	-11.6923
昊	-11.6924
▁摁摁	-11.6924
▁外面	-11.6924
家姐	-11.6924
扩散	-11.6924
吃完饭	-11.6925
级别的	-11.6926
▁现场	-11.6926
言论自由	-11.6927
异常	-11.6927
还有好多	-11.6928
一件事	-11.6928
很有感觉	-11.6928
环节	-11.6929
大米	-11.6929
豪华	-11.693
不一般	-11.6931
也在看	-11.6933
根本就是	-11.6936
拿走	-11.6937
效应	-11.6938
惭愧啊	-11.6938
步行	-11.6939
这个事情	-11.6939
类型的	-11.694
樱花	-11.6941
值了	-11.6941
▁反正我	-11.6943
拉面	-11.6944
糖糖	-11.6944
可以直接	-11.6946
万能的	-11.6947
没到	-11.6948
参加活动	-11.6948
类似的	-11.6949
这玩意儿	-11.6949
本身就是	-11.695
新娘子	-11.6951
心眼	-11.6954
调节	-11.6955
的同事	-11.6955
▁我宁愿	-11.6955
咋那么	-11.6956
五月	-11.6957
那你就	-11.6957
我看着	-11.6958
你们几个	-11.696
经济学	-11.696
王八	-11.6961
搞一个	-11.6961
就是没	-11.6963
时的	-11.6964
是非常	-11.6964
辛苦的	-11.6965
告诉她	-11.6965
很久没见	-11.6966
还没好	-11.6966
我却	-11.6969
被发现了	-11.6969
怕我	-11.6972
那玩意	-11.6975
爬起来	-11.6976
▁报名	-11.6976
是你吗	-11.6977
拍拍	-11.6978
▁伤不起啊	-11.6978
午夜	-11.6979
难受的	-11.6979
▁我终于	-11.6979
死刑	-11.698
给你个	-11.6981
▁我老公	-11.6982
好漂亮啊	-11.6983
▁说的是	-11.6984
第一眼	-11.6984
鬼啊	-11.6985
南海	-11.6985
细胞	-11.6988
请问你	-11.6988
不太懂	-11.6989
看热闹	-11.6989
押	-11.699
坠	-11.699
苏妙玲	-11.699
笑而不语	-11.699
矿泉水	-11.699
体谅	-11.699
忽视	-11.699
后果很严重	-11.6991
负担	-11.6991
恶心了	-11.6992
茅台	-11.6992
发展的	-11.6992
▁旁边	-11.6993
意味着	-11.6993
垃圾食品	-11.6993
▁答案	-11.6995
还是觉得	-11.6995
小意思	-11.6996
心痛啊	-11.6996
他妹	-11.6997
唱红歌	-11.6997
▁俺也	-11.6997
太惨了	-11.6998
蜜月	-11.6998
喝到	-11.7
必须是	-11.7001
在我面前	-11.7002
稿子	-11.7003
够呛	-11.7003
注意保暖	-11.7003
心都	-11.7004
▁噢噢	-11.7004
▁你怎么这么	-11.7006
反感	-11.7007
的能力	-11.7007
就完了	-11.7007
只有我	-11.7008
很多事情	-11.7008
西门	-11.7008
▁想到	-11.7008
更帅	-11.7009
七夕快乐	-11.701
在我心中	-11.701
将会	-11.7013
的一塌糊涂	-11.7013
晓得你	-11.7016
有份	-11.7016
跟人	-11.7016
声明	-11.7016
冤枉啊	-11.7017
有的时候	-11.7017
周期	-11.7018
一下就	-11.7019
得看	-11.7019
怎么吃	-11.702
我看看	-11.702
路线了	-11.7021
成分	-11.7024
睡一觉	-11.7025
▁大连	-11.7025
可不能	-11.7025
一边去	-11.7026
是不是真的	-11.7026
难道要	-11.7026
美死了	-11.7026
就这点	-11.7029
▁事实证明	-11.703
▁博主	-11.7032
被窝	-11.7032
到现在还	-11.7032
还好意思说	-11.7033
明天下午	-11.7035
激动啊	-11.7035
题材	-11.7036
不错哟	-11.7036
那一刻	-11.7036
做自己	-11.7036
挺美的	-11.7037
的文字	-11.7039
▁哦哦哦	-11.7041
刚睡醒	-11.7041
快看	-11.7044
绝对不会	-11.7045
家具	-11.7045
晕倒	-11.7046
作风	-11.7046
我还是觉得	-11.7047
省的	-11.7047
▁你娃	-11.7047
精彩的	-11.7047
我是不是	-11.705
还真没	-11.705
▁没呢	-11.7051
▁师姐	-11.7051
没有问题	-11.7053
我不认识	-11.7054
一般的	-11.7054
向我	-11.7055
两百	-11.7056
好看不	-11.7056
生意兴隆	-11.7057
羞愧	-11.7057
半夜三更	-11.7057
策略	-11.7057
节哀	-11.7058
根本就不	-11.7059
▁徐	-11.706
生态	-11.7062
这里是	-11.7062
发明	-11.7063
参加了	-11.7063
这个国家	-11.7065
诱惑我	-11.7065
出游	-11.7068
治安	-11.7068
跟他说	-11.707
流程	-11.707
来杭州	-11.707
你也喜欢	-11.7073
▁那是当然	-11.7073
不吃饭	-11.7074
▁我正在	-11.7077
觉得她	-11.7077
离开了	-11.7079
蛮好吃的	-11.708
外公	-11.7081
因为她	-11.7081
不知道是	-11.7083
歌唱	-11.7085
红茶	-11.7085
所有人都	-11.7085
我们都要	-11.7086
你是我的	-11.7087
甘好	-11.7089
想不开	-11.7091
有爱的	-11.7092
你对我	-11.7093
的人们	-11.7096
▁在北京	-11.7096
就是我们	-11.7097
▁这就	-11.7097
温暖的	-11.7098
难受了	-11.7098
新鲜的	-11.7099
也够	-11.7101
你的粉丝	-11.7102
一届	-11.7103
一座	-11.7104
居然有	-11.7104
▁请教	-11.7104
这个表情	-11.7105
▁可我	-11.7106
啦哈哈哈	-11.7107
激动的	-11.7109
懂不	-11.7109
鸡肉	-11.711
呛	-11.7111
健康的	-11.7114
汤圆	-11.7114
这么小	-11.7114
好听的	-11.7115
风头	-11.7116
呸呸呸	-11.7116
还没开始	-11.7117
好一点	-11.7118
▁介是	-11.7118
煮的	-11.7119
有毒	-11.712
非法	-11.712
▁我也要吃	-11.7121
这个发型	-11.7121
要哭了	-11.7122
系边度	-11.7122
▁30	-11.7123
作证	-11.7124
胡说八道	-11.7124
心有灵犀	-11.7124
的角色	-11.7124
技术含量	-11.7124
乌鸦嘴	-11.7125
幻觉	-11.7125
借鉴	-11.7125
夕阳	-11.7125
支付	-11.7125
动画片	-11.7126
已经够	-11.7126
漂流	-11.7127
离不开	-11.7129
真好啊	-11.713
太吓人了	-11.7132
有罪	-11.7133
选举	-11.7134
绝配	-11.7135
不卖	-11.7137
哪里的	-11.7141
有钱了	-11.7144
我也这么觉得	-11.7144
懂吗	-11.7145
纯洁的	-11.7147
祝你幸福	-11.7148
一瞬间	-11.715
没有任何	-11.7151
组团去	-11.7151
▁这是神马	-11.7152
▁节日快乐	-11.7155
▁行啊	-11.7155
等人	-11.7156
都不如	-11.7157
是故意	-11.7157
▁还好我	-11.7159
姐是	-11.7162
你就别	-11.7162
我知道了	-11.7162
还那么	-11.7164
▁我只想	-11.7164
我告诉你	-11.7165
要当	-11.7165
上身	-11.7165
冒出来	-11.7166
身后	-11.7168
本来是	-11.7169
学历	-11.7171
我讨厌	-11.7171
恐	-11.7172
换手机	-11.7172
咱这	-11.7174
更精彩	-11.7176
能在	-11.7176
▁555	-11.7179
看那	-11.7179
▁若	-11.7181
底子	-11.7182
▁好啦	-11.7185
老天爷	-11.7185
是不是也	-11.7185
真大	-11.7185
明天再	-11.7186
续集	-11.7186
掂	-11.7187
箭	-11.7187
我伤心了	-11.7188
京城	-11.7189
庚	-11.7189
漆	-11.719
有特色	-11.719
劣	-11.719
▁胖	-11.7191
长长	-11.7191
憎	-11.7191
籽	-11.7191
驾驭	-11.7191
邵	-11.7191
需谨慎	-11.7193
炸弹	-11.7194
项链	-11.7194
好看多了	-11.7196
老早	-11.7197
▁生日	-11.7198
太强大了	-11.7198
洗脸	-11.7199
▁我就知道	-11.72
很生气	-11.7201
墙上	-11.7202
勒个	-11.7203
太难了	-11.7203
系边个	-11.7203
救了	-11.7204
有多少人	-11.7204
别提	-11.7205
没见你	-11.7205
打仗	-11.7206
温柔的	-11.7206
也说	-11.7206
忍心	-11.7206
气候	-11.7207
书法	-11.7207
王总	-11.7207
女主	-11.7208
▁我不信	-11.7209
绝交	-11.7209
让我想起了	-11.721
我的爱	-11.721
跟小	-11.7211
师大	-11.7211
已经不	-11.7212
出来吓人	-11.7214
惊人	-11.7215
何老师	-11.7215
跳的	-11.7219
太后	-11.7219
得去	-11.7219
▁挺好	-11.7219
强迫症	-11.7221
任总	-11.7223
学习学习	-11.7225
吃一顿	-11.7226
要开心	-11.7227
搬到	-11.7227
很多次	-11.7227
一票	-11.7232
揪	-11.7232
更惨	-11.7233
知性	-11.7233
那种感觉	-11.7235
抽了	-11.7236
夜猫	-11.7239
你咋知道	-11.7239
▁慢慢来	-11.7241
怎么这样	-11.7241
赞的	-11.7241
老二	-11.7244
有感触	-11.7245
▁到了	-11.7246
气势	-11.7248
详	-11.7249
好的好的	-11.7249
双方	-11.7251
▁怎样	-11.7254
▁怎么又	-11.7255
有一颗	-11.7257
睫毛	-11.7257
一排	-11.7258
俏	-11.7258
葫芦	-11.7258
盈	-11.7259
翁	-11.7259
的对话	-11.7259
疏	-11.7259
石家庄	-11.7259
酿	-11.7259
卡哇伊	-11.7259
唯恐天下不乱	-11.7259
搜狐	-11.726
不学	-11.726
必胜客	-11.726
炫富	-11.726
▁严重同意	-11.7261
▁那也是	-11.7261
▁去去去	-11.7261
听不到	-11.7261
的一切	-11.7261
你爸妈	-11.7261
的老师	-11.7261
欲哭无泪	-11.7261
美瞳	-11.7262
辫子	-11.7262
稳你	-11.7263
你们去	-11.7263
好多年了	-11.7265
消防	-11.7265
涛哥	-11.7266
盲目	-11.7269
介意	-11.727
▁我哪有	-11.7271
明明就	-11.7271
也不一定	-11.7273
首页	-11.7274
完全没	-11.7274
碰见	-11.7277
死去	-11.7278
每天早上	-11.728
都会有	-11.7284
站出来	-11.7284
▁一看	-11.7284
谁家	-11.7284
警告	-11.7284
十天	-11.7286
电话号码	-11.7287
记得我	-11.7287
思思	-11.7288
▁你们都是	-11.7289
快点回来	-11.7289
太对了	-11.7289
▁奥	-11.729
一次性	-11.7291
你喜欢的	-11.7291
的那位	-11.7293
淹	-11.7293
想太多	-11.7293
▁儿子	-11.7294
▁没事没事	-11.7295
忍忍	-11.7295
▁哟哟哟	-11.7295
选择了	-11.7296
本身就	-11.7296
的宝宝	-11.7296
新歌	-11.7299
多多支持	-11.73
更要	-11.73
迷糊	-11.7301
发生什么事	-11.7301
弄到	-11.7301
你晓得	-11.7302
你不用	-11.7302
▁就是呀	-11.7302
馋死	-11.7303
中毒了	-11.7304
好郁闷	-11.7305
每次都是	-11.7305
太低	-11.7307
你一定要	-11.7307
一出	-11.7308
你没看到	-11.7309
希望你们	-11.731
你唔	-11.7311
手感	-11.7311
有能力	-11.7313
饿的	-11.7314
牵手	-11.7314
头大	-11.7315
上门	-11.7316
▁秋天	-11.7316
功效	-11.7317
脑子里	-11.7319
来接	-11.732
要遭	-11.732
谁惹	-11.7321
压力很大	-11.7322
要穿	-11.7323
磁	-11.7324
我都不敢	-11.7324
爹妈	-11.7325
▁没你	-11.7328
就睡	-11.7328
蜡	-11.7328
倒计时	-11.7328
穴	-11.7328
激励	-11.7328
收视率	-11.7328
扬州	-11.7329
辛酸	-11.733
希望是	-11.733
摩羯座	-11.733
钱钱	-11.7331
你爸爸	-11.7331
封建	-11.7333
斗争	-11.7333
那块	-11.7333
▁美丽	-11.7334
不了啊	-11.7334
出黎	-11.7334
小马	-11.7334
不在家	-11.7335
亲你	-11.7335
太热	-11.7336
喝粥	-11.7336
对头	-11.7337
笑到	-11.7337
▁一定会	-11.7338
老火	-11.7339
▁不算	-11.734
吾好	-11.734
我的手机	-11.734
苍天	-11.734
▁干吗	-11.7343
点子	-11.7343
放点	-11.7343
唯美	-11.7344
减了	-11.7344
真情	-11.7345
加十分	-11.7346
不管用	-11.7346
有意	-11.7346
为他	-11.7347
▁因为他	-11.7347
动静	-11.7347
何必呢	-11.7348
都来	-11.7349
收拾你	-11.735
想多了	-11.735
小丫头	-11.7353
剪的	-11.7353
伤感了	-11.7358
▁你也太	-11.7358
着实	-11.7358
求介绍	-11.7359
不都是	-11.7361
咩啊	-11.7362
没事就	-11.7364
是美女	-11.7365
阿阿阿	-11.7365
都没有了	-11.7365
自己人	-11.7366
政府的	-11.7367
要知道	-11.7368
年会	-11.737
教学	-11.7373
最好看	-11.7374
团长	-11.7377
谢谢亲	-11.7378
过来吧	-11.7378
又唔	-11.7378
用的是	-11.738
不听话	-11.738
怀孕了	-11.7381
很多啊	-11.7383
说话了	-11.7384
内心的	-11.7386
叫我去	-11.7386
远方	-11.7388
的孩子伤不起啊	-11.7389
火气	-11.7389
▁真的么	-11.739
不灵	-11.7391
蹄	-11.7391
挺住	-11.7392
你看你	-11.7392
愿你	-11.7392
有区别	-11.7393
少数	-11.7394
添加	-11.7394
车展	-11.7394
剩女	-11.7395
艳照	-11.7396
蜂	-11.7396
的一部分	-11.7397
炭	-11.7397
邹	-11.7397
吓我一跳	-11.7397
难得的	-11.7397
而且我	-11.7397
获奖	-11.7398
治愈	-11.7398
无办法	-11.7398
洛阳	-11.7399
战士	-11.7401
出租	-11.7401
回家啦	-11.7401
恐怖的	-11.7402
就给	-11.7403
满月	-11.7403
▁我最爱	-11.7406
对我的	-11.7407
▁那好吧	-11.7407
▁哪家	-11.7408
母鸡	-11.7408
我完全	-11.7408
表弟	-11.7411
最好吃	-11.7411
▁系咯	-11.7411
▁感冒	-11.7413
女女	-11.7414
烟台	-11.7416
▁作为一个	-11.7416
年假	-11.7417
好帅啊	-11.7419
她自己	-11.742
▁也不是	-11.7421
甘快	-11.7422
过头了	-11.7423
无敌了	-11.7425
开心吧	-11.7425
▁晓	-11.7425
男孩子	-11.7426
不属于	-11.7426
孤独的	-11.7427
考了	-11.7428
邀请你	-11.7428
学者	-11.7429
▁年轻人	-11.7429
坏银	-11.743
▁大半夜的	-11.743
腻了	-11.7431
一天都	-11.7431
▁呢个	-11.7432
给你介绍	-11.7432
▁信不信由你	-11.7432
带来的	-11.7432
会怎样	-11.7432
出问题	-11.7435
有勇气	-11.7435
城里	-11.7436
去看你	-11.7436
的思维	-11.7436
那几个	-11.7437
忽悠人	-11.7438
口味重	-11.744
▁我也想啊	-11.7443
灰色	-11.7443
最重要的	-11.7446
我们单位	-11.7449
一回事	-11.7451
剧组	-11.7451
的环境	-11.7451
有微博	-11.7452
有好处	-11.7453
▁那他	-11.7453
相公	-11.7454
行啊	-11.7455
好可怜的	-11.7456
可言	-11.7456
手机号	-11.7456
不适合你	-11.7457
我没去	-11.7457
看得出来	-11.7458
很晚	-11.7459
▁一会	-11.7459
一笑	-11.7463
想回去	-11.7463
吃不了	-11.7464
碑	-11.7464
张相	-11.7464
吾知	-11.7465
的哟	-11.7465
定期	-11.7466
曦	-11.7466
从哪里	-11.7466
循环	-11.7466
嗷嗷	-11.7466
傲娇	-11.7467
颁奖	-11.7467
忠实	-11.7467
核桃	-11.7467
元旦	-11.7468
天秤座	-11.7468
不管你们信不信	-11.7468
刻意	-11.7468
垃圾桶	-11.7469
约个时间	-11.7469
▁好期待	-11.7471
还没吃	-11.7471
诚信	-11.7471
▁是滴是滴	-11.7472
哎哎哎	-11.7472
反正我不信	-11.7472
揭晓	-11.7472
收购	-11.7473
▁去哪里	-11.7474
我最喜欢的	-11.7475
越来越像	-11.7475
影视	-11.7475
▁强烈	-11.7476
▁我看到了	-11.7477
访谈	-11.7478
▁吓	-11.7479
到公司	-11.7479
赶脚	-11.7479
▁不会啊	-11.7479
色狼	-11.7479
太感动了	-11.748
坐高铁	-11.748
超美	-11.7482
会说话	-11.7483
怕冷	-11.7483
星期四	-11.7483
只猫	-11.7484
这段话	-11.7484
律	-11.7485
▁难过	-11.7485
价位	-11.7486
适用	-11.7488
▁错了	-11.749
打错字了	-11.749
点心	-11.749
受苦	-11.7491
糯米	-11.7491
稳到	-11.7491
居然没	-11.7491
别人说	-11.7492
毙了	-11.7492
真的真的	-11.7493
直接去	-11.7494
▁还记得	-11.7494
那个小	-11.7495
肥仔	-11.7497
恋爱了	-11.7497
不满意	-11.7498
▁这个时候	-11.75
你男朋友	-11.7501
放不下	-11.7501
的建议	-11.7502
偶滴	-11.7502
以后再	-11.7507
一直想	-11.7507
看清	-11.7508
是朋友	-11.7508
看他们	-11.7508
你知道我	-11.7509
很悲剧	-11.7509
在努力	-11.7509
可惜没有	-11.7509
大龄	-11.7509
弄好	-11.751
▁少来	-11.751
飞飞	-11.751
就是你的	-11.751
的背影	-11.751
▁这么快	-11.7511
一个大	-11.7512
▁不说	-11.7512
成人	-11.7512
几十年	-11.7513
美妙	-11.7515
在重庆	-11.7515
喜欢的人	-11.7515
吃早饭	-11.7517
▁人地	-11.7518
解读	-11.7518
很多的	-11.7519
▁预计	-11.752
你们这帮	-11.7521
是幸福的	-11.7521
得有点	-11.7522
大楼	-11.7523
痛心	-11.7525
的习惯	-11.7525
帅吧	-11.7525
太瘦了	-11.7528
凉爽	-11.7529
马路上	-11.7529
▁我喜欢你	-11.7529
何在	-11.753
队的	-11.7531
日出	-11.7531
嬲	-11.7532
年轻时	-11.7532
恶心死了	-11.7533
做起来	-11.7534
匹	-11.7534
短袖	-11.7535
现实中	-11.7535
帮我们	-11.7536
纱	-11.7536
右下角	-11.7536
窜	-11.7536
涮	-11.7536
况且	-11.7537
敢吃	-11.7537
有范	-11.7538
这都是	-11.7538
临时工	-11.7538
朝阳	-11.754
我们还是	-11.7541
也木有	-11.7541
朵朵	-11.7543
舒服的	-11.7544
就回来了	-11.7544
滨江	-11.7545
点事	-11.7545
你太有才了	-11.7545
赶不上	-11.7546
黑黑	-11.7546
那两个	-11.7549
谁信	-11.755
施主	-11.755
很怕	-11.7551
具体地址	-11.7551
通道	-11.7552
上次去	-11.7553
北路	-11.7554
勾起	-11.7554
恨我	-11.7555
更漂亮	-11.7555
意志	-11.7556
四季	-11.7558
远点	-11.7559
巴适	-11.7559
料理	-11.7561
失望啊	-11.7562
没人管	-11.7563
都好看	-11.7564
甘讲	-11.7565
生动	-11.7566
心寒	-11.7567
▁做人	-11.7568
的利益	-11.757
你们两	-11.7572
▁抱抱	-11.7573
我认识的	-11.7573
伤心死了	-11.7575
吉利	-11.7575
▁哎我	-11.7577
肥来	-11.7578
三人	-11.7578
我承认我	-11.7579
▁快了	-11.7579
不动了	-11.7581
几分钟	-11.7582
十斤	-11.7584
▁男的	-11.7584
还给	-11.7585
很聪明	-11.7586
▁如何	-11.7586
▁和你	-11.7587
邮寄	-11.7587
要等到	-11.7591
没认出来	-11.7592
再加上	-11.7592
什么牌子	-11.7593
很瘦	-11.7595
解释下	-11.7596
▁我想要	-11.7596
我也想要	-11.7597
▁原来是这样	-11.7599
▁呵呵呵呵	-11.7602
不健康	-11.7603
▁谢谢啊	-11.7604
太低了	-11.7604
的内心	-11.7605
煞	-11.7606
妈逼	-11.7606
在那儿	-11.7606
凸	-11.7606
诅咒我	-11.7606
喘	-11.7607
我反正是信了	-11.7607
董事长	-11.7607
鲁迅	-11.7607
原来我	-11.7608
看我们	-11.7608
那晚	-11.7608
的价值	-11.7609
一组	-11.7609
不是应该	-11.7609
细佬	-11.7611
第一次见	-11.7612
▁好看不	-11.7613
▁这家伙	-11.7618
▁好嘞	-11.7619
你几时	-11.7621
累死我了	-11.7621
▁找到	-11.7622
来围观	-11.7622
敢于	-11.7624
睡不着啊	-11.7625
完就	-11.7627
财经	-11.7628
总部	-11.7629
逮到	-11.7633
▁长沙	-11.7633
难为	-11.7634
▁怎么回事	-11.7634
高雅	-11.7634
没听说过	-11.7636
想来	-11.7636
咳咳	-11.7636
都不好	-11.7637
我这几天	-11.7637
忘掉	-11.7638
心疼我	-11.7638
▁我也没	-11.7639
最后还是	-11.7639
我忘记了	-11.764
上瘾了	-11.764
▁经	-11.7641
我带你去	-11.7642
常见	-11.7643
▁西安	-11.7646
▁我朋友	-11.7646
之地	-11.7648
人民群众	-11.7648
你小时候	-11.7649
指数	-11.765
马上就要	-11.7651
是怎么回事	-11.7653
▁我的心	-11.7653
▁我也想要	-11.7655
挡不住	-11.7656
▁幸亏	-11.7656
不只是	-11.7657
我也想吃	-11.7658
傻妞	-11.7659
电影票	-11.766
点什么	-11.7661
可以说	-11.7662
部的	-11.7662
都出来了	-11.7664
▁我了个去	-11.7664
对面的	-11.7664
我姐	-11.7665
现在还没	-11.7666
提问	-11.7666
好意思说	-11.7667
▁求真相	-11.7669
推荐给	-11.767
整整	-11.767
▁坐等	-11.767
▁郭	-11.7671
我也爱	-11.7671
那是相当	-11.7672
蕉	-11.7673
▁瞧	-11.7674
▁我当时	-11.7674
突然发现	-11.7674
怎么个	-11.7674
那么严重	-11.7675
我下午	-11.7676
心目中	-11.7677
佑	-11.7677
少点	-11.7677
戈	-11.7678
韦	-11.7678
右上角	-11.7678
吃喝玩乐	-11.7678
真面目	-11.7678
睡觉的	-11.7678
攻略	-11.7679
之内	-11.7679
在哪个	-11.7679
洒脱	-11.7679
基层	-11.768
▁即使	-11.7681
我本来就	-11.7681
不乖	-11.7682
还真不是	-11.7682
关我什么事	-11.7682
中间那个	-11.7683
不怎么样	-11.7684
领证	-11.7687
我们应该	-11.7687
的实力	-11.7688
正事	-11.769
拿钱	-11.769
邪恶了	-11.7691
上课了	-11.7691
喜欢你的	-11.7692
穿高跟鞋	-11.7692
不受	-11.7693
亲妈	-11.7695
真的很美	-11.7695
就等着	-11.7695
▁仲	-11.7696
哼哼哼	-11.7696
很快的	-11.7696
老李	-11.7698
大眼睛	-11.7698
吃辣	-11.7699
很棒的	-11.7699
▁那必须	-11.7701
开发区	-11.7701
工作者	-11.7701
文化人	-11.7701
找借口	-11.7701
困死了	-11.7701
奴才	-11.7701
傻的	-11.7702
的同时	-11.7702
太坑爹了	-11.7702
干啥呢	-11.7704
觉得好	-11.7704
名额	-11.7705
是多么的	-11.7706
做作业	-11.7706
▁不觉得	-11.7707
贵啊	-11.7708
▁好吧好吧	-11.7709
我倒是	-11.7712
是坏人	-11.7712
讲了	-11.7713
很美的	-11.7713
了是吧	-11.7714
你敢不敢	-11.7714
小孩儿	-11.7715
又没有	-11.7715
写作业	-11.7715
有两个	-11.7717
不倒	-11.7717
喜欢上	-11.7719
室内	-11.772
开除	-11.7721
没赶上	-11.7721
太他妈	-11.7721
▁曾	-11.7722
我只想	-11.7723
脏了	-11.7723
别气	-11.7724
之行	-11.7724
去呀	-11.7725
我好喜欢	-11.7725
缸	-11.7726
饱了	-11.7727
况	-11.7729
老爹	-11.773
喝一杯	-11.773
见面了	-11.773
讲过	-11.773
无聊死了	-11.7731
层面	-11.7733
落雨	-11.7734
咋的	-11.7738
盼着	-11.774
▁这么好	-11.7742
一言难尽啊	-11.7742
抛弃了	-11.7743
带出来	-11.7743
电视上	-11.7744
▁做咩	-11.7745
跃	-11.7746
旋	-11.7746
慈	-11.7747
螺	-11.7748
▁当然啦	-11.7749
不可思议	-11.7749
帕	-11.7749
梭	-11.7749
蹂躏	-11.7749
贤妻良母	-11.7749
杰伦	-11.7749
派出所	-11.7749
板凳	-11.7749
残了	-11.775
烟花	-11.7751
播放	-11.7751
号召	-11.7751
栗子	-11.7752
涨价了	-11.7754
的作用	-11.7755
人命	-11.7755
从头	-11.7756
拍照片	-11.7757
两瓶	-11.7757
你也快乐	-11.776
做主	-11.776
肯定没	-11.776
可惜现在	-11.7764
兄台	-11.7766
▁我一	-11.7766
注意到	-11.7767
打你电话	-11.7767
白领	-11.7767
发作	-11.7768
没回	-11.7769
官方微博	-11.777
▁我还想	-11.777
伪装	-11.777
▁他在	-11.7772
48	-11.7773
木有人	-11.7773
的经历	-11.7773
卖身	-11.7774
心啊	-11.7774
淘宝上	-11.7774
经常去	-11.7775
不仅仅是	-11.7775
爱看	-11.7775
川菜	-11.7776
有品位	-11.7777
认不出来	-11.7779
换换	-11.778
▁是是是	-11.778
线路	-11.7781
考证	-11.7783
家里人	-11.7783
蛮多	-11.7784
跟我一起	-11.7785
▁多谢晒	-11.7786
▁我发现你	-11.7788
几点啊	-11.7788
没事了	-11.779
和谐了	-11.7793
热血	-11.7795
都怪	-11.7795
见到我	-11.7797
我忍	-11.7797
的童年	-11.7798
露露	-11.7798
只怪	-11.78
走得	-11.7803
看齐	-11.7804
厉害了	-11.7804
▁好可爱啊	-11.7804
法治	-11.7805
团圆	-11.7806
神马都	-11.7807
姐也	-11.7808
预感	-11.7808
的服务	-11.7808
滴人	-11.7811
人为	-11.7812
妈妈的	-11.7812
皮皮	-11.7813
▁我才不	-11.7813
暂	-11.7815
芋	-11.7816
这样就	-11.7816
▁惭愧惭愧	-11.7816
全世界都	-11.7817
▁看到你	-11.7817
对外	-11.7818
我的名字	-11.7819
婉	-11.7819
小学同学	-11.782
鹤	-11.7821
哨	-11.7821
翰	-11.7821
匆匆	-11.7822
柳州	-11.7822
一定能	-11.7822
的一句话	-11.7823
突然想起	-11.7823
过程中	-11.7824
水饺	-11.7825
翻屋企	-11.7825
强盗	-11.7825
▁基本	-11.7825
偶像剧	-11.7827
长途	-11.7827
很寂寞	-11.7828
▁青岛	-11.7829
准备好了	-11.783
优质	-11.7831
普通的	-11.7831
抬头	-11.7832
油价	-11.7832
睡觉吧	-11.7833
普通人	-11.7835
鬼片	-11.7836
▁我能	-11.7836
▁于是	-11.7836
莫名其妙的	-11.7837
洗洗	-11.7837
▁一点都不	-11.7837
牛的	-11.7838
穿越了	-11.7839
烤鸭	-11.7839
总在	-11.7839
走在	-11.784
那双	-11.7841
打听	-11.7843
很开心的	-11.7845
不关	-11.7845
什么都没	-11.7846
一记	-11.7849
小男孩	-11.785
老汉	-11.785
识货	-11.7851
你把我	-11.7852
点知	-11.7854
小女生	-11.7854
我一直在	-11.7857
多长时间	-11.7858
不鸟	-11.7858
清理	-11.7858
▁劳资	-11.7861
出头	-11.7861
▁吃完	-11.7863
反正就是	-11.7863
本来就很	-11.7863
都几	-11.7864
▁天津	-11.7865
加关注	-11.7865
伙伴	-11.7865
你问	-11.7865
▁我俩	-11.7866
对伐	-11.7866
矮油	-11.7867
认识的人	-11.7867
酒后	-11.7868
树上	-11.7869
家门	-11.7869
地铁站	-11.787
很不爽	-11.787
博文	-11.7871
用用	-11.7871
好讨厌	-11.7871
以后可以	-11.7872
车的	-11.7872
▁按照	-11.7872
啥情况	-11.7873
功课	-11.7874
会哭	-11.7874
订了	-11.7875
没想	-11.7875
来形容	-11.7876
是不是该	-11.7876
▁看不懂	-11.7878
估计也	-11.7878
以后不	-11.788
急了	-11.7882
穿过	-11.7884
几分	-11.7886
繁	-11.7887
好神奇	-11.7888
马屁	-11.789
一听	-11.7891
都是这样的	-11.7891
很有道理	-11.7891
坟	-11.7892
▁速度	-11.7892
初一	-11.7893
五百	-11.7893
的事实	-11.7893
人才啊	-11.7893
上围脖	-11.7893
吃吗	-11.7893
倪	-11.7893
利比亚	-11.7893
岔	-11.7893
一针见血	-11.7893
拣	-11.7893
畸形	-11.7893
饥渴	-11.7894
的缘故	-11.7894
绍兴	-11.7894
奸商	-11.7895
很可怕	-11.7896
想你们了	-11.7896
老张	-11.7897
来临	-11.7897
原来如此	-11.7897
留了	-11.7897
一整天	-11.7897
搞清楚	-11.7898
之道	-11.7898
肚皮	-11.7898
真爽	-11.7898
照镜子	-11.7899
两样	-11.7899
你的小	-11.7899
档期	-11.7899
导师	-11.79
持有	-11.79
咱也	-11.7901
报的	-11.7901
还嫌	-11.7901
找谁	-11.7902
▁有点像	-11.7902
风扇	-11.7902
特点	-11.7903
贵族	-11.7905
客串	-11.7906
杨老师	-11.7907
▁我从	-11.7908
▁罗	-11.7908
糊弄	-11.7908
狗眼	-11.7909
查看	-11.7909
对人	-11.7909
真名	-11.791
找骂	-11.791
讲到	-11.7911
▁师父	-11.7912
只要是	-11.7913
做做	-11.7913
胖死	-11.7914
这么做	-11.7915
一个礼拜	-11.7916
哈啊哈	-11.7916
幸福快乐	-11.7916
哪来	-11.7916
恭	-11.7917
支持下	-11.7917
古城	-11.7917
发什么	-11.7918
打错字	-11.7918
靠谱的	-11.7919
景区	-11.7919
满脸	-11.7921
摆明	-11.7921
抛弃我	-11.7921
犯法	-11.7924
看着像	-11.7925
立即	-11.7925
▁去屎	-11.7926
看起来很	-11.7926
热线	-11.7927
的帅哥	-11.7928
▁请不要	-11.7929
今天天气	-11.7929
▁我连	-11.793
谁要	-11.793
什么关系	-11.793
自已	-11.7931
下啦	-11.7935
高温	-11.7936
不适合我	-11.7937
注意身体啊	-11.7937
不收	-11.7939
请不要	-11.7941
乱来	-11.7944
多些	-11.7945
不便宜	-11.7946
已经不是	-11.7946
做生意	-11.7948
▁我又不是	-11.7948
不会再	-11.7949
说了算	-11.7951
三个字	-11.7951
才去	-11.7952
结尾	-11.7952
得慌	-11.7954
爱好者	-11.7954
才是真正的	-11.7957
这表情	-11.7958
改名字	-11.7958
送来	-11.7959
多久啊	-11.796
不和谐	-11.796
去尝尝	-11.7961
▁不可以	-11.7961
虚假	-11.7962
▁早晨	-11.7963
才睡	-11.7963
不起来了	-11.7963
即系	-11.7964
▁万恶的	-11.7964
这个主意	-11.7965
都这么说	-11.7965
牛肉面	-11.7966
嗷	-11.7966
拷	-11.7966
马赛克	-11.7966
不顾	-11.7967
催眠	-11.7967
大热天	-11.7967
露脸	-11.7968
布置	-11.7969
迷失	-11.7969
香味	-11.7969
吸烟	-11.7969
要幸福	-11.7969
标签	-11.797
这期	-11.797
简称	-11.797
有福气	-11.7971
另一半	-11.7971
自个儿	-11.7973
我一直觉得	-11.7973
▁我们一起	-11.7974
冻死	-11.7975
好像有	-11.7975
挂科	-11.7977
红烧肉	-11.7977
精品	-11.7977
又多	-11.7977
▁呼呼	-11.7978
▁嗯哈	-11.798
一眼就	-11.7981
我来了	-11.7981
只能说明	-11.7981
▁你们在	-11.7981
▁这下	-11.7983
害了	-11.7984
看得懂	-11.7985
到底是谁	-11.7985
不要命	-11.7986
▁好的呀	-11.799
下来的	-11.799
给你送	-11.799
我现在是	-11.7991
据说是	-11.7991
五个	-11.7991
天黑	-11.7992
博爱	-11.7992
要给	-11.7992
放开	-11.7992
一盒	-11.7993
说错了	-11.7994
两年前	-11.7995
▁有无	-11.7995
吼吼吼	-11.7997
▁开车	-11.7997
那地方	-11.8
以前是	-11.8001
下周末	-11.8001
很会	-11.8003
大城市	-11.8004
弄点	-11.8004
▁我讨厌	-11.8006
不告诉你	-11.8006
素食	-11.8007
▁冇	-11.8008
你不来	-11.8008
▁有你	-11.8009
表明	-11.801
▁等下	-11.801
真可惜	-11.801
大作	-11.8012
▁姐你	-11.8012
应当	-11.8013
毕竟是	-11.8013
召	-11.8014
哪点	-11.8015
不早说	-11.8015
概	-11.8016
白云	-11.8019
凡是	-11.802
倒贴	-11.802
给我打	-11.8021
嗨了	-11.8021
你这样的	-11.8022
这家店	-11.8022
好多好多	-11.8023
其实你	-11.8023
就习惯了	-11.8024
试用	-11.8024
太晚了	-11.8024
你赶紧	-11.8026
旦	-11.8026
败了	-11.8026
听他	-11.8028
自己也	-11.8028
▁你准备	-11.8029
▁下面	-11.8029
名叫	-11.8029
▁我艹	-11.803
估计会	-11.8031
次次	-11.8032
水煮	-11.8032
几个小时	-11.8032
快点来	-11.8033
上来了	-11.8033
靴	-11.8034
出动	-11.8035
少见	-11.8035
诗意	-11.8036
郊	-11.8037
法师	-11.8037
空空	-11.8038
请你喝	-11.8039
瞒	-11.804
共产主义	-11.804
内牛满面	-11.804
向日葵	-11.804
只系	-11.804
障碍	-11.804
牛仔裤	-11.804
陆续	-11.804
形状	-11.8041
斗地主	-11.8041
骑自行车	-11.8042
守护	-11.8042
有幸	-11.8042
78	-11.8043
快到了	-11.8043
方位	-11.8043
职位	-11.8045
快了快了	-11.8045
谁家的	-11.8046
九江	-11.8047
外出	-11.8047
看中	-11.805
二代	-11.8051
烧的	-11.8054
献给	-11.8055
▁明	-11.8058
知道自己	-11.8059
好可爱哦	-11.8059
委屈了	-11.8059
巨大	-11.8059
现在还有	-11.806
挺多的	-11.806
宁静	-11.8061
下雪了	-11.8062
潜力	-11.8063
组成	-11.8064
即是	-11.8066
狗肉	-11.8066
不是么	-11.8067
这只是	-11.8068
发我	-11.8069
真要	-11.8071
领导的	-11.8071
事了	-11.8072
勇敢的	-11.8073
可贵	-11.8077
按时	-11.8077
▁不带	-11.8077
啊哈哈哈哈哈	-11.8078
很可惜	-11.8079
永远不会	-11.8081
只不过是	-11.8082
这话说得	-11.8083
干儿子	-11.8083
心愿	-11.8083
三星	-11.8084
就一个	-11.8084
会变成	-11.8085
喜糖	-11.8085
你爹	-11.8087
▁你这是在	-11.8087
定制	-11.8088
放上来	-11.8089
憋着	-11.8091
感慨啊	-11.8091
中介	-11.8093
捡到	-11.8094
排除	-11.8095
胡同	-11.8096
谢谢姐姐	-11.8096
都唔知	-11.8096
隆重	-11.8097
我不介意	-11.8099
我都不	-11.8099
都是被	-11.8101
摩托	-11.8101
过关	-11.8102
带去	-11.8102
太黑了	-11.8102
▁那得	-11.8102
飞机上	-11.8104
▁这个嘛	-11.8104
开心呀	-11.8106
巾	-11.8107
▁麻痹	-11.8108
根本就	-11.8108
不是好	-11.8109
悲惨的	-11.811
也不算	-11.811
衡	-11.811
当妈	-11.8112
独裁	-11.8112
辛苦辛苦	-11.8113
嚎	-11.8114
殿	-11.8114
蒂	-11.8114
辜负	-11.8114
挖掘	-11.8114
敬请关注	-11.8115
韩庚	-11.8115
很丑	-11.8116
公寓	-11.8116
我每次	-11.8117
那么小	-11.8119
58	-11.8119
专利	-11.812
知道吗	-11.812
公告	-11.8121
卖给	-11.8121
▁中秋	-11.8121
另一种	-11.8121
在这边	-11.8122
最重要的是	-11.8122
有吗	-11.8123
泡沫	-11.8123
私下	-11.8123
更何况	-11.8124
▁真美	-11.8124
脏话	-11.8124
吃啦	-11.8124
没事做	-11.8125
差的	-11.8125
自虐	-11.8126
好玩不	-11.8127
觉得有点	-11.8127
被她	-11.8128
有这样	-11.8128
听晚	-11.8129
不爱我	-11.813
小燕子	-11.8131
下午去	-11.8131
想太多了	-11.8131
现在正在	-11.8131
▁文	-11.8132
▁大学	-11.8133
亲一个	-11.8134
节快乐	-11.8134
你又不是	-11.8136
旅途	-11.8136
环球	-11.8138
都不怕	-11.814
天天开心	-11.8141
幕后	-11.8141
别装	-11.8142
屋头	-11.8142
积分	-11.8144
二字	-11.8144
冷啊	-11.8145
是关键	-11.8145
▁好幸福	-11.8145
去看电影	-11.8145
的代价	-11.8146
人情	-11.8146
赔钱	-11.8147
去哪玩	-11.8147
好激动	-11.815
▁星期六	-11.815
▁你懂的	-11.8151
查了	-11.8151
国宝	-11.8152
小号	-11.8152
百货	-11.8153
号晚上	-11.8154
你也有	-11.8154
好久都没	-11.8155
▁许	-11.8156
快来看	-11.8157
精神上	-11.8158
▁丫的	-11.816
快到	-11.8162
这个点	-11.8162
好中意	-11.8162
梗系	-11.8162
能买到	-11.8163
不要把	-11.8163
好瘦	-11.8163
这样的事	-11.8163
送个	-11.8166
细细	-11.8166
完全可以	-11.8167
大晚上	-11.8168
这词	-11.8169
▁铁道部	-11.8169
好心酸	-11.817
不赢	-11.817
骂人的	-11.817
▁我可是	-11.8172
▁有一种	-11.8172
慕	-11.8173
的诱惑	-11.8173
▁我快	-11.8173
就更好了	-11.8174
娘子	-11.8174
关爱	-11.8175
鱼儿	-11.8175
要不是	-11.8176
我又不	-11.8178
又一次	-11.8178
没戏	-11.8178
说的太对了	-11.8179
奔放	-11.8179
▁显然	-11.8179
▁有那么	-11.818
这块	-11.8181
这么贵	-11.8181
你还敢	-11.8183
是别人	-11.8184
往下	-11.8185
▁的确是	-11.8186
真相了	-11.8187
睿	-11.8188
q	-11.8189
恕	-11.8189
吴彦祖	-11.8189
韭菜	-11.8189
鬼混	-11.8189
悬念	-11.819
故乡	-11.819
忽	-11.8191
胖点	-11.8191
的朋友们	-11.8192
绝对可以	-11.8192
不带这样	-11.8193
降价	-11.8194
尽兴	-11.8194
也不怕	-11.8194
嫩的	-11.8195
去年的	-11.8195
它了	-11.8196
倒闭	-11.8197
夜景	-11.8198
认识他	-11.82
取得	-11.8202
是啥意思	-11.8205
估计你	-11.8206
别客气	-11.8206
最后一次	-11.8207
顿饭	-11.8208
▁还好还好	-11.8208
三百	-11.8208
鼻屎	-11.8211
乃们	-11.8211
每天都是	-11.8212
不疼	-11.8214
鲜花	-11.8214
86	-11.8214
大运会	-11.8215
点吗	-11.8216
▁还好啦	-11.8218
▁可怜的小	-11.8218
号的	-11.8219
卡通	-11.8219
四号	-11.8219
饮酒	-11.822
用电脑	-11.822
▁我在家	-11.8222
天天在	-11.8223
效果不错	-11.8227
媒体人	-11.8228
东南	-11.8228
段时间	-11.8228
都忘了	-11.8229
居然不	-11.823
没睡好	-11.823
新手	-11.823
下次有机会	-11.8231
很早就	-11.8231
我家小	-11.8231
▁夏	-11.8232
▁我倒是	-11.8234
请叫我	-11.8234
又话	-11.8236
看到她	-11.8238
▁18	-11.8238
一个人去	-11.8239
后面那个	-11.824
很无语	-11.824
本来就不	-11.8241
▁白痴	-11.8243
你还有	-11.8244
这样了	-11.8244
脸都	-11.8245
耻	-11.8247
▁射手	-11.825
▁都怪	-11.8251
杨梅	-11.8251
尼姑	-11.8252
摄像	-11.8252
只要有	-11.8252
可以在	-11.8253
还不算	-11.8255
伤害了	-11.8255
种的	-11.8256
系啊	-11.8258
发火	-11.8259
别瞎	-11.8259
符	-11.826
绘	-11.826
那群	-11.8262
去美国	-11.8263
发疯	-11.8263
被逼的	-11.8264
喉	-11.8264
c	-11.8264
嚟	-11.8264
窄	-11.8264
丛	-11.8264
屯	-11.8264
叛徒	-11.8264
石榴	-11.8264
去深圳	-11.8264
沙漠	-11.8264
蕾丝	-11.8264
签售	-11.8265
反正我是不信	-11.8265
原来是你	-11.8265
得好好	-11.8265
到广州	-11.8265
放肆	-11.8265
苦的	-11.8266
英俊	-11.8266
骨子里	-11.8267
粮食	-11.8268
景点	-11.8269
都说了	-11.8269
中国人的	-11.8269
玩这个	-11.8271
偶是	-11.8271
讲道理	-11.8273
看不惯	-11.8275
介绍一下	-11.8275
我害怕	-11.8276
是相当	-11.8276
不争气	-11.8276
喝醉了	-11.8277
75	-11.8277
一起去吃	-11.8279
而已啦	-11.828
你们那里	-11.828
的素质	-11.8281
人权	-11.8281
▁一切	-11.8282
黑丝	-11.8282
三俗	-11.8283
顺风	-11.8283
穿裙子	-11.8283
▁云	-11.8283
非常非常	-11.8284
笑我	-11.8284
真牛	-11.8284
京东	-11.8284
用词	-11.8285
身边的人	-11.8285
▁没办法啊	-11.8285
不怕不怕	-11.8285
十七	-11.8286
其实我是	-11.8286
赶紧回来	-11.8288
▁不行不行	-11.8288
进去的	-11.8289
▁央视	-11.8291
要疯了	-11.8292
堵了	-11.8293
▁其实我觉得	-11.8293
疼的	-11.8294
难过死了	-11.8294
好像有点	-11.8295
拖出去	-11.8297
房东	-11.8298
无需	-11.8298
个别	-11.83
十八岁	-11.8301
▁这么多	-11.8301
▁怎	-11.8302
你肿么	-11.8302
只要不	-11.8303
的潜质	-11.8303
军事	-11.8303
▁头发	-11.8304
真帅	-11.8305
互相关注	-11.8306
的语言	-11.8306
这样下去	-11.8308
有一点	-11.8309
杀了你	-11.8309
看错了	-11.831
我就想	-11.831
吐出来	-11.8311
而已嘛	-11.8311
你打算	-11.8313
喜欢这样的	-11.8313
我负责	-11.8314
不过他	-11.8314
发起	-11.8315
才是真	-11.8316
配上	-11.8316
当官	-11.8317
你准备	-11.8317
何止	-11.832
有的是	-11.8323
送他	-11.8324
可以把	-11.8324
辨	-11.8326
贱货	-11.8327
▁我要看	-11.8327
会更好	-11.8327
一路平安	-11.8328
好姐妹	-11.8328
永远都是	-11.8329
高原	-11.833
▁想当年	-11.833
崇	-11.833
我会的	-11.8331
躁	-11.8331
神似	-11.8332
懵	-11.8335
才是真的	-11.8335
个女人	-11.8336
闭关	-11.8336
酒喝	-11.8337
好基友	-11.8338
瘦身	-11.8338
辟	-11.8338
帅帅	-11.8339
哋	-11.834
诽谤	-11.834
迟钝	-11.834
掩盖	-11.834
颓废	-11.834
指示	-11.8342
支撑	-11.8342
协调	-11.8342
礼服	-11.8343
书包	-11.8343
手中	-11.8343
健身房	-11.8344
杨幂	-11.8345
你朋友	-11.8345
百分之	-11.8345
揭露	-11.8347
喜欢他的	-11.8347
玩到	-11.8349
空虚寂寞	-11.8349
古人	-11.835
看来还是	-11.8352
吃饭呢	-11.8354
突然想到	-11.8354
总是在	-11.8355
夫妇	-11.8356
哈子	-11.8358
衬	-11.8358
元素	-11.8359
名字叫	-11.8359
是什么呢	-11.8362
告白	-11.8362
就等	-11.8362
上班时间	-11.8363
美好的回忆	-11.8365
什么时候才能	-11.8365
有人会	-11.8366
▁这话说的	-11.8368
▁我哪里	-11.8368
主编	-11.837
公道	-11.8371
▁我恨	-11.8371
不懂的	-11.8372
高兴了	-11.8373
要得	-11.8373
有收获	-11.8374
你也去	-11.8374
我最讨厌	-11.8377
什么时间	-11.8377
是怎样	-11.8377
肥肥	-11.8378
处男	-11.8378
当做	-11.8379
老母	-11.838
给我电话	-11.8382
下下	-11.8382
▁有种	-11.8383
的时刻	-11.8383
人体	-11.8386
单位的	-11.8387
▁我敢	-11.8388
去学	-11.8388
完善	-11.8389
嫌疑	-11.8389
一锅	-11.8391
太爽了	-11.8391
▁你个死	-11.8391
木头	-11.8392
应该把	-11.8393
上头	-11.8393
很复杂	-11.8393
求关注	-11.8393
试着	-11.8393
▁也许是	-11.8394
方言	-11.8394
▁对滴	-11.8395
▁那叫	-11.8397
气死你	-11.8398
睡啊	-11.8402
我们一起加油	-11.8402
又跑	-11.8403
▁叶	-11.8405
回的	-11.8405
型号	-11.8407
七号	-11.8408
淑	-11.8408
看着都	-11.8409
吃狗肉	-11.8411
一方	-11.8412
小胖子	-11.8412
▁抱歉	-11.8413
丈	-11.8414
的本质	-11.8415
储	-11.8416
渐	-11.8416
茜	-11.8416
淳	-11.8416
揣	-11.8416
溢	-11.8416
官僚	-11.8416
鱿鱼	-11.8416
保镖	-11.8416
筹备	-11.8417
视察	-11.8417
抵抗力	-11.8417
魔术	-11.8417
什么话	-11.8418
露骨	-11.8418
不谈	-11.8418
主场	-11.8419
录制	-11.8419
理论上	-11.8419
嘴唇	-11.842
配置	-11.842
▁这算	-11.842
奥迪	-11.8421
火箭	-11.8421
猥琐的	-11.8421
歹	-11.8421
搞不定	-11.8421
见鬼	-11.8421
就睡了	-11.8424
豆子	-11.8424
小气鬼	-11.8424
窗口	-11.8424
一条微博	-11.8425
差点就	-11.8426
说谁	-11.8426
理念	-11.8427
说来听听	-11.8427
口子	-11.8427
事业线	-11.8427
发张	-11.8428
近了	-11.8428
▁明白	-11.8429
热烈	-11.8429
可能性	-11.843
想学	-11.843
大型	-11.843
运行	-11.8431
玩啦	-11.8431
混的	-11.8432
说的就是	-11.8432
是不是有	-11.8433
有点难	-11.8434
▁真的呀	-11.8434
里了	-11.8435
吃的东西	-11.8436
不讲	-11.8436
▁天呐	-11.8437
影响力	-11.8439
某种	-11.8439
找抽	-11.844
不可怕	-11.844
▁梁	-11.8441
就过去了	-11.8441
无耻的	-11.8441
▁不去	-11.8441
看不了	-11.8444
圈圈	-11.8444
真是好	-11.8444
很危险	-11.8444
越发	-11.8446
可怜死了	-11.8446
买什么	-11.8447
▁回来了	-11.8447
死开	-11.8447
客气了	-11.8449
四人	-11.845
漫长	-11.8451
很认真	-11.8454
很低	-11.8454
这片	-11.8455
合格	-11.8455
你不喜欢	-11.8457
因为他们	-11.8457
大风	-11.8458
以后多	-11.8459
▁我又要	-11.8459
请注意	-11.8459
存心	-11.846
自己买	-11.846
一行	-11.8461
太激动了	-11.8462
沙拉	-11.8462
坐到	-11.8463
一幕	-11.8464
不和你	-11.8467
好久没见了	-11.8468
我都是	-11.8468
一米	-11.8469
需要你	-11.847
▁全是	-11.8471
咋滴	-11.8471
公路	-11.8472
▁雷	-11.8474
带到	-11.8474
要上	-11.8475
住你	-11.8476
▁纠结	-11.8476
条女	-11.8477
的年龄	-11.8477
好几天了	-11.8477
刷卡	-11.8477
对不起我	-11.8477
有女朋友	-11.8477
怜	-11.8478
国航	-11.8479
停机	-11.8479
泪奔啊	-11.848
吃夜宵	-11.848
敢情	-11.848
▁古	-11.8482
应该去	-11.8483
必定	-11.8483
塑料	-11.8486
▁还行吧	-11.8487
▁下雨	-11.8487
介是	-11.8488
庸	-11.8489
怎么突然	-11.8489
得过	-11.8489
两块	-11.849
特喜欢	-11.8493
揉	-11.8493
冥	-11.8493
卅	-11.8493
嘀	-11.8493
囤	-11.8493
太忙	-11.8493
简历	-11.8494
流鼻血	-11.8494
洗衣机	-11.8494
不为	-11.8495
新婚快乐	-11.8495
冒险	-11.8495
一般见识	-11.8497
出品	-11.8498
挂在	-11.8499
指甲油	-11.8499
宝贵	-11.8499
烧了	-11.85
▁我知道啊	-11.85
你就知道了	-11.8502
是李	-11.8502
纯净	-11.8503
假如	-11.8503
就知道啦	-11.8503
又怕	-11.8503
善于	-11.8503
火车票	-11.8503
计算机	-11.8504
咱们一起	-11.8505
金属	-11.8505
肥婆	-11.8505
看美女	-11.8506
情商	-11.8506
的好处	-11.8506
负面	-11.8506
▁你都不	-11.8507
能耐	-11.8507
车厢	-11.8507
女人都	-11.8508
财神	-11.8509
老同学	-11.8509
还是没有	-11.8509
▁杯具	-11.851
左啦	-11.8512
▁绝对是	-11.8514
小新	-11.8514
好怕	-11.8514
美貌	-11.8514
给你打	-11.8516
去上课	-11.8517
▁小白	-11.8517
带劲	-11.8517
希望可以	-11.8518
交往	-11.8519
不给你	-11.852
06	-11.8521
▁我自己	-11.8524
何苦	-11.8525
熊熊	-11.8525
▁你就不能	-11.8525
▁别个	-11.8526
怎么搞	-11.8526
细腻	-11.8528
昨	-11.853
这么干	-11.8531
▁我也很喜欢	-11.8533
标志	-11.8533
还好意思	-11.8534
▁希望如此	-11.8536
▁说了	-11.8536
自己找	-11.8538
坑人	-11.8539
吃辣的	-11.8539
吃的是	-11.8541
▁冒	-11.8543
我居然	-11.8543
很漂亮的	-11.8546
昨天刚	-11.8546
吸引人	-11.8546
好像很	-11.8546
有天	-11.8548
睡过	-11.855
送人	-11.8551
那男的	-11.8552
180	-11.8553
看到这	-11.8556
海水	-11.8556
怎么还没	-11.8556
月光	-11.8557
两口子	-11.8558
见解	-11.8559
整死	-11.8559
总得	-11.8559
因为是	-11.8561
憋死	-11.8562
臭不要脸	-11.8563
考虑一下	-11.8564
发送	-11.8564
的鞋子	-11.8565
悲凉	-11.8565
廊	-11.8566
▁这个社会	-11.8566
啥玩意	-11.8566
抚	-11.8566
装什么	-11.8567
太好啦	-11.8567
探班	-11.8568
尊敬	-11.857
新品	-11.857
个够	-11.857
赏月	-11.857
梅超风	-11.857
愚人节	-11.857
一声叹息	-11.8571
陈冠希	-11.8572
唔想	-11.8572
撒谎	-11.8572
哇卡卡	-11.8574
尸体	-11.8575
注重	-11.8575
32	-11.8575
高跟	-11.8577
▁这个可以	-11.8577
不晚	-11.8577
怎么会这样	-11.8578
解脱	-11.8579
神马都是浮云	-11.8581
干点	-11.8581
写着	-11.8581
搞活动	-11.8582
纪念日	-11.8583
这哥们	-11.8584
▁真相	-11.8584
打打	-11.8589
▁那是那是	-11.8591
▁考	-11.8592
你怎么了	-11.8595
留恋	-11.8595
两岁	-11.8595
资本家	-11.8596
刷屏了	-11.8599
南山	-11.8599
目的地	-11.8601
这世道	-11.8601
天气好	-11.8602
你的脸	-11.8603
叫兽	-11.8606
▁来嘛	-11.8606
会一直	-11.8606
▁大概是	-11.8606
丑的	-11.8606
也很美	-11.8607
[...]
